#map = affine_map<(d0, d1) -> (d0, d1)>
#map1 = affine_map<(d0, d1) -> (d1)>
module attributes {torch.debug_module_name = "FeedForwardNet"} {
  ml_program.global private mutable @global_seed(dense<0> : tensor<i64>) : tensor<i64>
  func.func @forward(%arg0: tensor<8748x91xf32>) -> tensor<8748x11xf32> {
    %cst = arith.constant dense<"0xD786973DF92BD6BDB045BC3DF68D733DECFFA8BCFD9E1A3BDA6CDBBCA7AD493D10719D3D87E5B8BCE19AF8BC14CB813C5BE0B83C5745883CADF8263D38D8CBBDC2949CBD0F7B1EBD01D4CABCA22592BD4D689A3C6AA5F6BCB2C422BD2A96D1BC0A19B7BC542AD33D1886ABBD849C9BBBA1EB933DA79355BD71AC6DBD293F78BD88CE133D1C5210BBC4C38D3CBBCD88BD56DB6B3D54A939BB00DB19BC0F7F72BD8FD9B73D098D29BDF37BDD3C0C9088BC0C54213DBE6816BD3115213CBC73C0BACC4B3FBC8E8A48BDD489523CE790D5BD6F04153DD592C13CDCEA953D171302BBB90F873D130B9B3DEA4B23BD1DFDC5BDBC89F13CCA858ABD751F03BD30CEA4BDA8BBA73D8E25D03D3C48913DA2F79B3D37AFE0BDD9F3CB3C8199023D4A4461BDA94407BDE28273BA1BA5C1BD50161D3D6C4794BD6323EDBDFE2A6A3D891F263D8AD85B3DFAC194BD85282FBB23D4CFBD33458F3DEE19DC3D572F8D3D5DA2E0BDAB0EBEBC5946133D53889CBD0DB101BDF838863DE4A690BD8665A3BD9B34783DF08CA4BDA601A5BD8C5532BCCB80183DC9C8473B5155FB3C1675093D9755C8BD18296BBD13C3B4BD405AA5BDA64BEABC4222C8BDE906F4BB9EB6B23D1AAB77BDE02B963C8C5564BD9A6F18BD847C513D066FB53D707EA93D13BA27BC4844A9BD6BBBAB3A2D7E4C3C4BA0E9BCEFBD5D3D7A93213DDE9E07BD9D1E2F3D9789A73DADC7ADBD1BD188BC226201BCCEFC55BC350447BD5B08793DB0D0B63D5C9083BCD231093DB59BC5BC6E3BA53DC79EC53D91DC99BD26BF6B3DC38292BD026EF83C5541D93CDCFFAA3DC8A5B23D1053003C2DFE6CBDA30C4C3D2EFA853D794097BD696B06BDE4E262BD69EC863D5531643CB494BB3C3D018B3CC513C73C1942313C5DCF5EBCD8AE603DDB67B3BCF7BD98BDBA68FF3C5A1A823D1127A33D2C43963BE4B555BD048B3FBD6BA5303AA119143AFBA153BD63375E3CF1F921BDA484D2BCE43EACBDEDA0CC3D54EB64BD457C29BD489A90BDB97CB0BD178509BDC03299BDA48809BDB9F0413D8A3CD63D19B1123DBBC07BBD0A71DABA0C1EE2BC7E8CBFBD7BD977BDDE82D73BCD02D2BDDF714B3DC8FEB2BD777A9CBCC623ABBDC725BEBC13E3DDBCAF87343DDBCE013B3D44EDBD80E70A3DAA2B00BD768582BDE35D8DBD41D561BCEF52D8BC71ACE7BD48CD1ABD4C98CABDFD03F63C99A5EB3C5591163D0D7287BD3A399F3DC9BCA8BCF33358BD0191453DFF13503D8A188BBCAEC66A3DAB6B94BC2E92B1BC7CDE94BDC9F62CBDB0B718BDC65ED0BCF7D2933D2995B53B2FE9533D9A96ADBDBFAE89BCF1204CBD4BE1BC3D01C30C3BA42D1DBCA3BB513DB194B8BD947C6CBDA7A9813DC7FDDBBDE35BA43D8F9B9D3D8E658CBDF69BAF3DFFFD1DBD8A978CBD85C708BD0CB52B3B8878603D5F73ADBD4ACC693D4E5D8ABD5E6E7DBD53C91CBD00F37FBDB720B6BDCEF2863D7BB36E3D3E9884BD7E18B53DC9DE8A3DFFE86BBDD6CA3C3C7C6CC43DE963C83D1C8AB63C61FA423D67C38ABD2812DF3BAF5586BD60E2BFBDB0FF9ABC9372E0BC7142B8BD07F3CEBC87BFE2BDE0DF2E3C436A633D3A4D9ABC0607283DCED823BB157BAA3D4E783BBD370EA4BBD927883D9E0389BD095037BD64380FBDCB5D0BBD4604923D1E694B3D80BD5DBDAA58C63D85A4003DDD2805BD16949BBD376B1ABDCC9DC7BC16652F3D093E3A3DC4ACB4BD1956AEBD686FBBBD211FAD3DE1FFAD3DE329243B6C4ABDBD1CC1C5BDEED017BD7E5D80BD0921C83D65EECE3D06C1453CC8ED4A3BFB02A43DD6C1983C7CDD423D884DD23C2D3CFBBC140414BDF6380EBC1872DFBD9AA1C4BD8D0C31BD92670C3CB7827FBDED5BB3BD335E9F3D50716C3DE904F23CB123623C7546ECBC405AC03D9561CF3D2553C13D82BC843D566DB63D5B628EBA92F8B4BC599F883D68E7BCBACF5DB2BB1AD7DB3CFC11EF3C67EAC4BD7FAEB13D32E9EC3C8B99193DDF53AB3DC4C256BD2685433C0DCC9FBD92FC0C3CA3A4EB3CCF3B23BDA50208BD3D8D053C283CAABD036C30BDE44127BCE001763D83F9523DC02B33BD148B44BB8392D33D1E13103DD994A33B3AB698BD0491AB3DB746B53DC34077BC8777833D9051DF3C8EBE97BDC06DBE3DDACB6FBD9BB6A0BD433D223D3AD206BDFB0004BDA756A93D2B51263D06AF8DBB65CD4C3D39192E3C5DB01DBD97439ABD98C892BDCCDA42BDF354873D494199BDE45997BD2EC597BD846DB0BCB94DAD3C6187463CE9E284BDCFD4C73C82FDD93DEEABC93D7E31E4BC8ADC05BDA0F03CBC14098F3DCAD2C73DB7DCC83D8344633DFE17C83C1E202B3DD352993CBDE7DB3D57CB80BA2C7538BD79DFB2364A96DA3CF006903D961D86BD00F194BB765A3FBDD7033FBDE68BE0BCBB0E2CBDB5D0B93D8C6F843D03D2893D42CB8FBDF52D32BD3407C33D7ED690BDB456D83B5FC1A63D53A79EBD8BF9943C6E703C3A3DCC13BDB2F1A7BD2D4B703DF237BCBDB4E3B8BCF5E167BCA93600BDFF3A1ABDA11612BD0AD656BD420C853DC7E0C53DEB73833CFC8E9EBDF2E5CF3C40A6793B7B12D2BD05D7F53CB9D98F3DBAC319BCEAC212BD2973913DB78055BD6546A2BD3D424D3D818E39BD5085803D2E4746BD985E76BD8A3DF4BD6208003D359E223C001A3CBD33A9A8BD1922F0BBE700CF3DC362843D40D1B6BDC017E33CED603A3C6CF5093D1D6DA33D8160CA3D7C46DBBC8718D7BA2B481A3D1DFDB33C41D0A0BD0833D1BD2F89103D83D2543D877A16BC73E5B13DE352193D7A0EC03D000A40BCD6672C3D226286BD3A84323D64E65E3DE598CF3D59B84C3DFF48CFBCAFE5013DF66486BD3D1D963D2798183DBF5FDF3C40BD243DC0BC9FBDDF9FBABD3CBD903C7473A4BDC78A653DC29C4E3D749347BC39C59F3C868916BDE1C07C3DE362983D671186BDBFC0F1BC2287A43CE99E61BDB3BFC5BD876983BD6490B63D7F8B563DF42B0DBC2AF1183D4C92B73D791BD6BC02AB873DC1DBA6BDF9CFE4BC545D643DD10EE8BCA4A3DEBC5026763DEAE68FBD1E76993BE784EEBC6E16203CF5564CBD535693BC0FD7ABBDD425B43DFA56253DA956B53D5078173DAF41E33C0D4DB5BCC98CCDBD4212B8BC8C69A7BDD99F0C3D0EC1193D4438BB3DAFCBBB3D4A40123DD72A403D259658BDEBA4563DB4ABC5BDA3030E3D1780D33D240AC4BD179AC63D38ADB9BD324D5D3D817A33BD9AB8B63D591FCD3CDE8ED23D39B2B53D50E6D53C7ABE7FBDF408C4BD7292733D4E9D153DA059473CA817A1BD4B7F3ABD6893B0BD5C1E653D7755CABD44BB78BD00250A3D6435D03C2F592C3D6D59233CF63293BDCD195D3D80DB59BD3DD59DBD062798BBE54A353D19A1ADBD07F4CEBD39EE99BDA379DBBAA5BD4CBC5AA67A3D73F0FC3C6F019BBDF37A82BD3F6164BDBE70F9BC3046BBBDB0BD19BCD9FBBC3DA70E733DD5C9A03C58D2C53D434FF9BC71377A3B350D8D3D47D56EBD7E74A33C16DE1F3D54B69E3D2E8920BC3BF04DBD2B7003BD473606BD5519D93C24746B3DCE0FA6BC68724DBCDF833D3DE635A53C4AE3033D17FE89BDCAA2043D6C61F23C0251EC3CA60081BDAD4A373C9B9C62BD10A3EA3CA2C9B13DD2CFD23DD0CE8CBDAD87503C0D02C23D88C41E393F42E0BB602A4BBDC9190E3DC0BE81BD67959FBD9AA383BDB68C713DB84DE33CC995903DBCDD853CB5F9BC3D93AA8D3C1F73B83D8B1F9F3DA70E04BB79D52F3DBDC206BD939DBFBD618980BD7698313DC40778BD1CA7343D3347BEBD108BDDBD39E3C23DDCE93EBDFF4F61BDA77AC7BD2E1155BDBF540DBD4191373D79FC4FBCFCA9B23D0C41B13D3B5502BDDD39353D796C6CBDA5F8BD3D36D9763DADBA8ABDBF0AA2BD4C92463D3BD8973DB6CC903D4369FDBCB6E4283D3D9942BDE305C5BDD960A7BDD353A5BD92F780BD694B6EBDBF1BAE3D8A12C63D5E21FFBC62EF7EBD76373CBDCA34843CF8BF103D168B86BB9993253D6DE28B3DB5600F3D5AF33A3D7428B2BD1EB553BDD09AAF3DC4DD6A3BF6DF79BDBB8F3BBD6695A43C784991BCDACAC03DA465ACBB2B6D83BAF545613D3A5F6A3D1D2C86BCFDE8A53DEBC3933D90DB9CBCB92AA73D0713433D4BF9A6BC0C83AC3DF7DA053DC166993D407853BD939C5FBB7553C03DCBC97D3DC3D5F13B64D38DBDE9D0D2BBE8F8C53D79E5A03BF29AB63DDB64DA3D2269E73C822F923D9E1EB8BDCBD0C93D00F7E03D029D463D83B7C83CEEDDB0BD7AE09D3B507849BDD8BCE83C5AAD863CC8C2AEBD9BB8A1BD3658773DA955A33DE1F97E3C93FE393D586FAD3D6D9EB3BD482A9A3D1C86953C6C29353B64788B3DBD03F93A114C2CBDAEA442BD5CEA5B3CB14A23BD1529BBBD325193BD5E31193DF2CDC83CEB45D03A81CF93BDA107993DBAE4B2BD30CC49BDE3F4F43CFC7B88BC99134B3D68FBA83DAD52783C52C75D3DDEFF973C9A6D473D33A5213C9EA08EBDD8DD003D6DD4C1BDBABBB8BDDC38EBB92AF874BDA559963D6A58B6BD224CA6BD76653CBD7BD6493D4521BA3DA9A3263D3BDB0C3DA0E9F3BCCDB0A23C643447BDD9D72C3D47F46EBC060B9C3D868E263D7669C0BD57EBD73D6B0B2BBD1996BD3DDE34343C3FBBC23D368C98BDF6F6F53C590CC3BDBF088BBDE384C33D6C64CABD39CD99BAF2D63FBDDF365FBDA6FCA0BC94BC9BBD25BA963D4A1F82BDFB584BBDFD15E33CC995CDBDD2964E3BBBF15A3D1982703CAF3E48BDDB55CF3DE914973C831E073D3B6479BD31EFAC3D56A0D6BD7B32FDBC522ABFBDD3E2FCBC13ECA7BCB35E983B589C0B3D5A7C66BDE80CD0BC89E1DC3CD912273D0C1BA8BCD2BA833CA49FADBDBE2B5BBD85EFCCBB3FA0E7BC08F68B3D731A873D471A203D17E7313D1482DF3C0C08453D2B719D3B57C3883D3163103BE66E40BD5BCC31BC7B069B3DB7BEBBBD7EDC9A3D9699AB3BD64F983D7AC324BD49BE89BD3E014C3DDDED933D6C0BBABCB22F46BD5D8BB2BD3A8199BDAFCDD83D1AFC78BD9699873DEB9C483DA77DBE3DB2340F3DF4BC99BDDE76C0BD149B9CBD9EAEF7BD2DEAEABCB41AC5BD956A89BD1251B3BD7BD19DBD4C2DBBBD2A75B0BB853D90BCAF0E53BDCF7F0DBCFD7CA73D24977DBDE6F007BDAD5F303D47C2783DB0A3FCBC553044BC89A56C3DF19112BC6B6EB03D73EA82BD6FD2AE3D2B0F6DBD95A4B93D777A05BDFABC973DB5C42EBD5A0E79BDC61755BD08D62CBD99DF7FBDFC038C3D1539BA3D7FC65DBD8A00CB3D95F248BD8BE1A9BD92188EBC7B5735BD39B8B5BD240C4B3D58B8CCBDC5A72FBDC6A1DB3B317AAE3C729655BD7A8FBD3D474C9D3DEBEDEE3DB6294C3DC64E56BDCDEEAABDC995A7BC53F99BBD1885023D2357363C58F26EBDEB3C473B4D0A563D92545E3D5820E2BCB94244BDC38C623DB044893DE14A68BDA30430BD3A7D8ABD04153C3DD9E00F3D52969BBDEBDA963DE0C72DBDC7BC08BC870E74398AAB973DCB36A33CD1D7CC3D4B96463DB40A243DF8B492BC05932DBD2460933DB8AB57BDF42BBF3D5B425CBDBEC3E4BC293A9ABDCE7884BD92CFFE3CB5667D3D21E2F43CD78EE3BC73F98F3DE95AC13C850E9B3DC6AB7F3C1AC18DBDAF48C0BCCB6A80BDF217323D44D689BDD14E97BD9B753B3DE71ED43A1F19B43C44355F3C1A540ABCC2A6663D22706EBC64D0A83C102B3BBD35FC8F3DEA24383DD90FAD3D049DAA3D0761F5BC428064BD7995A13D5ED38A3DBE35B93D269386BD63ECCB3CF20D1B3D940A14BBD27B9D3D692E863DFC23C23C4FCD35BB96CD373B07859CBD7AF0103DB219D0BB530D17BB1270CA3DDCD94BBDBA68BC3D80B5DF3DADC5C13D4C04B13CA254D03C26FF833D557ACFBD317D9F3CD854B93DA8CC9A3D4FB2823D2B671FBD167B663D7603953D376F82BD86D6643D67258D3D826C7DBD5B02893DE33E5BBD3C82CABC281DA9BD137F39BD275C11BD537481BBF79A1DBDD20C343D43810DBDB1AF0B3D9B5CC1BAFAE798BD9428B5BCE234B5BA5262AABB6875883D91F65DBDD5BA72BC9CF4DA3C8E6D3EBD983D9ABD6BE192BDB5E3C03DB65A793DD34A463DF5BAB73D9519AABDA6198F3DF643963DE8C1113DE6EF6BBD8869B7BDAE34953D8928E1BCD47BB5BCF701B33D979480BD1C50163DF16FABBDFC75D0BD3909DBBC0C6C573DF965D9BC67710B3DD3ED8A3DB66500BDE097D4BC863484BDB664C83D089B983CF1F38C3D28CD9B3DB184C53DE2770A3D09F456BC9DCEE73DFD7C9CBCD070CF3D0B67293D3FCC0C3DDC5EE4BC26EB923D880E453CFA147D3DD164973D79BF89BD700A2EBD38BB99BD8E10FEBD2A8EB2BD091BB3BB5213FE3C5C44103D00D8B73D4D7051BD05BFC43AE8A2D33B3414D83C4CD7CB3CF77D64BDDB4539BD41600CBCA594BA3CAAACBDBD05E7EE3C7091B3BCAEED583D4059163D9ED68FBD3B88BCBD9B70333DDDE173BC16B1833DA9A24B3A79E5843D507CC23DF38E21BD833AC13B72061DBC45CEAFBCED98CCBC652225BD9CB2523DFE2161BDE0949D3D7B61ABBDC624FABC0DA87CBDA5DB4EBDB90D45BC1FD41ABC79992EBDCAAF91BC1743733C9BDE9BBD452587BDF34A203D9CC864BD35C29FBDC13FAA3D2B6267BBBCB158BD27CDAB3DD0C419BD85CF4ABDA086A7BD16AC98BBA10F9B3BCF02783D1D60C9BD4A94933D3B7EE03DCE8C1E3D4BEA813D0F0B84BB360C8ABDED0F5CBD8E408A3DB793AD3DB379853D354F7A3CD061A1BD35ACD1BD8D23CBBB8B53BFBC71FC963CCCA5233D55E02BBD547561BD9002A0BD878461BD8AFDE23DAC1F54BC7F821E3D2E519FBC3C56D23D2262CDBC79C3A6BD7E377D3D76CFE8BC85D0943C87F98E3D6A0D5C3D2E7D6CBD531BDDBBEE4A263D53B3FFBC9817D23C6E4C253CDBBFA6BC3436DE3DFEF6A93D32CD1B3D1DA5F43CA6F170BD9418B2BDF9462ABD375C42BD390301BDD6019FBD14FE6EBDFC62B43C644234BD9AE3323C2A17383DC16CCE3D0021733C9D4650BD1CF783BCD531A6BD5BF51B3C6040E63D3D3CAB3DC7F05ABC62D2763C200BD4BB62A117BD7F7D65BD2D9EE73D515375BDD7EA613DA3F7563D5CFB8ABD72E0B23DA1D1AEBD7866313C04C59EBCD354743C802CB13C5F899A3D0EBFDD3DE7396CBDC355BD3D17B60A3A47AC843DA139813D465A98BDC872563D6F84A23D00FCD1BD519A95BDD62D243DA0A4633DAF4B08BC4DFC233D4ED41C3D6928C1BC548A403D089E9EBD614FDE3B4FEB7E3D3629B93DF2D894BB6ED8C33D352E65BDBF4EFC3C31915B3D2327C3BD5F0FCF3DBF2268BCE4299CBC1E9C423DCB3C8E3C2B69413D716921BDDDC0B03B9A65FF3CD9D87B3D356E4CBD4DDA27BD8F6AA0BC22699E3D4754B7BC469E20BD4D6F8D3C42CB3B3D1D1FB1BA7013CB3DE11CB13DF313DB3C39F37EBDBD27343DD40CD1BD90EB93BDDD7453BDF06B55BD207526BD299B913D48BFC4BCD650333BE91D623D44D197BD497B223D7D09F4BC9D6AAABD38D5ACBC523C2B3D19D38D3DFCC2283C681F863D3F74813DEF8C633D045698BD59F2A93CDC3638BB5777933D5CBB07BD953DB0BC9053303DD4E0ABBDFADCB33DD8F8233DF1C83FBD3BEC56BDF94AACBDC988C23D666AFE3C12C408BB9089C93D859868BD5CD308BD9EB8CFBD6E6CF0BCB1E3A2BCEA507B3DE6FF80BB056D0A3D18E1BD3D3E5BD13D2D7CDA3C082893BDEB6671BDEF4305BD31103D3D114C1DBD1AC9613DDA463ABDE2BAB33D3DCEDDBC90479C3DB9AEA6BDE81979BD58F6DFBDF1EF943C68B4643DA6D296BD7CD5DBBC30359BBC909657BD5853AFBDFAF2373D2307993DD211DA3B4E76DABC04D0C33DFEF537BD1493CF3D24CE283C27658D3D52C405BC0B2D37BD49CEB6BB1C601EBC2BB2A1BDA823393CD268BE3DCEA0B73D28D8ADBD7313CA3D19AB9CBD087E3F3DAE2194BDCDA4923D76E09DBB0F39DFBDA9E1BDBDA4330BBBBAEC5F3DC1EBCA3C452B5C3DFBE3383D7EE4C73CEF301F3DCC69A53CB19D87BD5B9A5E3D597808BD930E3BBC66CFDBBBB09E1C3DC3BACF3C2D32A63D8AF339BD045C9B3D740DA1BD759DA7BDA26F9D3B308723BDF63DD9BD438EC33D55229F3C43BD873D3E4D9CBD34C6763C05141CBD908AC2BD61CD413D0982803B8B867C3DB749753D2EB6BC3D1213DB3D0C8805BDF91FFE3CE718ACBD03BBDBBB15E3063D4C3727BDFFA7963DF470CD3CFB359F3D14DBAC3DB4DE1FBC3CEF823C0AF2B0BD4FCBA5BDB03CB13C09BBE2BC525BB1BD634BCCBA5EF0B2BD8B59A7BD3767BBBC9550B43D65AD03BD0BCAA1BD3854C1BD2A159C3D5F578D3A2D2ECB3D2C59823D35B63E3DA23FB2BD1D5A793D3AC9C43BD6C1CC3DA99DB3BC762648BDC1176C3C5C43213D45DF0FBD6C2B78BD72B2203CF229A13D55B9CB3D4CEA8A3D6A3B133DDF39B53C7A92A4BD12BE503D66D9223D5FDAA33D85DBA4BD6B87B9BD7143363DEF944C3DE70BA73D48A2CC3D7FCF26BDC2472EBC81DED93D1E80B6BC0045A63D22C6B6BCD1E8B63D6A6AC4BC0DE0C83C3593BBBD8471AB3D7F5ED73CB931543CC7159A3C1C88813DE7401BBD9ECD4F3C2CAF083D954588BDEBE1D5BC1DA4963DF79DCB3D77B7EC3B3386D1BDB8F410BBD6F9663DE18273BD6682B4BD294575BD5F9619BD55EFAA3C0FDC1D3D6C5D4C3DC33CD13C83DD06BDA33A3C3D1DFCDEBC74EA11BBE640F73C38976FBD49889A3D4332A63D0E3432BD7803B1BDEBE6C63BD840D2BC0CE6DABCB4E93D3BAE4198BD22EB823D49752BBDBDD9DB3D5BD0A53D05FD86BBDAD5D33C715B993D4D2F513C5A91E23DB47B8CBD407C88BD861C163DD6D678BDF33A2CBDFD4FA33D670838BD795E733B824FB8BDBD20533CC6BFCFBD765C78BD57829FBDA0F60B3D5C5A7A3DF92211BD0593A1BD7368C43DE30B9CBD1D7CB03D818CBE3D0DCD1B3D84CFDDBD0FC8073D8F9DCBBD9E6C47BC4D9E3E3D132493BDF2B63BBDBCC094BD157A403D3E6FABBD3FF4BEBDFBCE7BBB276065BDC245D93B80062BBD23F3BEBCC326493D1D20B7BD60C8963D649B83BCDC0F553D97495ABD48A9E0BD65F5C2BD4A37C3BDD81B863D1CFC143BCA50AD3D9F1D993D73C5AFBD089FA63DAEAB94BDC1643F3D4B5A3BBD39469D3D2149A83D61FEC63C93F67ABC159D3D3DEA26E1BD78D0FBBDBE0E1CBDD4462F3C9AB52BBD56FA5B3CEEB69E3D546BCCBC6EFA72BBF01B3CBD85AFCABD9A568B3C3DEE2E3C8CC67EBDC373593D616A5CBDCD53173C2BC8943C6D28663DF8E2AF3A9013223D28F1A1BD1F9A00BD77E894BD91C48E3DC5BEBD3D5F49B13CD2B3D8BCEE8AB63DB67477BCBCC891BD9F1953BDE856F23CFF1BC7BD81BFAFBDEBB06D3DF41863BD7B5C4DBCC191AA3D4BE692BD44782E3D5F7273BDA004C33DE2099B3D33AC6BBD7F3C0E3C93C9163C5BB9543D8CA36B3DE752AF3DF43D5DBDE5DF9B3B75D8A43DF533A0BD11A5253D559B073D02BE78BDE7760FBD24DBC33DE9D5923D08CDDDBDEC7187BDB70C2B3DE026F83C27F39FBC95C7C3BD9E94B23DCF4544BDFC8E7EBC2083DB3DF78721BDF321C43DECB6B73D8723993DA41A7DBDE2754FBDEBE0823D3A37C73D13DB80BD22361BBD574E8C3D2FD63D3DEA9AFCBC7AAA183DF58C5D3D7B18BB3DB8079BBDCA3649BCAFE25CBD4FB91ABD847F983DE766483D83A987BD5ABE25BD06CC373D5B819BBD17AA91BD12C7CE3D212D97BDFD8581BBE8A590BDC5B2A63D41A082BD1AEA94BDC6525F3B8E80B23DA313D5BC9D51CC3CEC3520BC5DBAD83BBADF8E3D878AE3BCE733B1BB6EBB44BDDB819DBC789A5A3DD1CE303A4851E93C73856EBD5BA7DDBD5C368CBD0084BB3BA97A03BDC999F23DF734A5BCA626BB3CB94F6BBD23D44C3D6F4076BC841FA83D3851EB3C12BFFF3C98188DBD10169ABDB5BE5CBDEE71C93B0780CC3B16E1E8BD7309D7BC3A72743DBB05DE3CC6FCA7BDDDCD20BD9584BABDE3D7F9BDE59CFE3CDDB4D1BDB56483BDA77E2FBD9D4C433D53D5A13DCB0FB1BD4CB01FBD2FB524BD08E89BBD8C714C3D95639D3BE0F85D3DCA24AB3DB4DAF0BC698FF23C4004303DBAE346BDBF46EFBCA329423C708C2FBB673F293D5E2BE7BC18512BBCFBA7B93C0617B93AB66E9ABDA237313DFBC6063D1ED997BD311E8CBD2606ABB9AAFC9CBD270DEDBC2E290CBD8FB3C93D7C62BE39924E4A3C6635D6BDC7D30B3CD48D6ABDA69491BCDB1233BD99D39FBDDDFCF33B331F2C3D37C1B7BDF31A8E3D9F92993C65DC0BBD6D1035BDC553BDBD68006CBD0317253D5960C3BDAB1A503D623864BD37CD1B3D0D107A3D7856B3BD1DCE84BD53D22FBDA4C697BDA5B846BDFAFA893D59031ABDCC64523C277785BDAFA6F5BB30D2033D907947BD956B50BD5947773D262F043D5681C53C52FC86BC073285BD85EFC6BD21E4B43DD309A4BDFCF3AC3D6BB6BA3D5C91853CA40242BD592870BD736EC13D56C346BD4CC9993D577ABBBD27FAD0BCA744C73D67E48B3B686F59BD94C1AB3DAB72EBBBFBA14FBAC388863DBED06A3DA1BC9B3DA47AB43D3544B8BCAA3A053D3B80A5BDE798933C65AA06BC4FC8AABD8C42003D8B25AF3D8F69943D3021553D8909D5BDA822F73C9EFC15BDA69F033DD7496F3D63F7B6BD22555F3D10D114BB45F665BCF9D363BDDC25ED3CD7E9413CD11CDEB716A7433DF4F604BD2462E73BD475A53DA97A653D8CC1B2BDA35C8ABCA5B08CBD2BDBF0BB2638933D4F4714BD7797BD3D747F8E3DC37CA73CB2DC99BDE89E063C13252CBD08D0743D17E1A33DAEE8393D04D3A6BD6F35933CB1D1EEBB1263F73DEF237A3D8C6D26BD9C2FD33C4C7F8ABDEF2EF5BB1FAECA3D394BAC3DF7B4B33C6D8D6DBD01A9003D238BB9BD10389EBC1B55BFBD7A59A83D0799E4BDF63DCC3DCB09473DDD98E3BD266CCF3B9FDFD13CC036D0BD0B20233C8FF992BD46BF6DBD5B1D893DEFB1F1BD8A526E3DE30E983DD0F750BD5DB09C3DF9484B3D8A87773AC9EE8ABDC68F02BE853FEDBDCEDED8BD2BDD8F3D145184BD95D5313D1EDDA13D89ADE6BD7819A3BCF27143BD429456BD7E2176BB91361C3D11691BBD6B4BC5BC32C36C3B97F3143D4EC786BD55DE923DA4F3773DEC9D97BDEAB5A2BD33D1E1BDBA01213D420FC5BD23CA303BC7C5333D4BC93CBDC66E9CBC4AC00D3D906FE1BAEBDF9FBB0B6844BDDF9870BD678A40BDE2CD19BD9A3034BDBC1A923DE2860EBD5B25B4BD2ACDEABCB37EA5BD602FD1BDA90DADBDCDC11C3D88F554BCE089A23D468203BDE9B6A63D3BD5BA3DF34A953DBFFFAEBD2371CFBD9CD830BB1B2D413DB1E693BD6F495DBCF16B20BD6E321F3D849B9ABD645F89BB285AD9BCDACF9ABD9AC9A9BC6DAE053DBD6BC9BD6E4B6F3DD50BD13CC3ECB63D90BE6C3B4941AF3BEA5537BDFBAB89BDDB050F3DEB0C9FBDB13447BD68BBBF3C626CCE3CFE9549BC25DA80BD680B61BD055079BCE12D833D486341BDCC909B3D02A1D13D508723BDB80315BD1FAA9ABDFF2816BD8BC7EDBD91F3793D577923BD05BBE83A58BAACBDE249EE3DA9A568BD140A5B3D8242B6BD5FAFA2BDEBD03BBDC92634BD40D83D3DC2A13B3D50DE9EBC4CDC223D4A607CBD09555C3DDBE19E3DB0D33CBB17719D3DDAF561BD5956863D3EAA9C3D8E0F663DCCA438BD8DAA08BDFC938DBD498C253D891AB2B9C13A2E3C25829B3D0442813D7BB9EFBB49F5CEBD8A87123D20BCA5BCF7C54C3DB80A3DBD2340233C37D677BD6B98FE3B0513333B04BEBB3D2FCA153DE47984BD481DC1BDE0806ABD1A5805BD7DEE77BD185FC5BBDCAD2FBDE2A4803DCF2C9EBD0ED493BD631A3DBD801A753D794A6BBB6A450CBD3C7BB33D452374BD6C5356BCB07754BD152493BD6B1938BCD83029BDC9E4F1BC55ADB6BC24E67E3D34B8173DC27A8BBD8B8106BC86A4B63CFDFAD1BD3F74CC3DEF8749BD5B7E90BD6A2BF1BA3C00E4BDD98DA8BD3E86C2BA7E92AFBBAD445CBDA62302BD17F2BDBD8CB8293D9F78DCBDBF476C3C835CBDBDFC418FBDC05FEABC80A53DBC2EB745BC9B3660BCCD955D3DBD22823DDF86DABDEC5EAABD0E1B9F3D8CD0373D79D6063D57F54CBD220A753DD40745B908855BBD03F9F73C2C017D3D7E9FAC3C4972033DEFBD2BBD8AD706BD6E9287BD4228753D8628E2BD258C8ABC9742A1BD0C0890BDD6D2D4BB8D7C7FBDB742253DA608F4BD904FA83DDE31853DF1E0413D18F8D8BB495B4ABD9C37BCBD389918BC8E2E833D915A82BDBCFC89BD495785BD6FF0E9BDB5D1363DFFF14B3C245ED5BD955540BDEEEB1CBDBE8C8F3D58BCB4BDE5675E3D74C1083D868F86BD7664CDBCB4E0BEBD65D6853C633986BD765D85BD35EF3BBD3D7ECC3D00358A3C05811FBD27321FBD210681BDBE5427BDE29B653D52D5DDBC2641793DE0A4F7BBA85052BDB0CFA13BD11709BD607BBA3C757892BD73A90EBD4971783DBEA302BCDC4324BD1E5F9BBDC2DD5F3C440E99BD89601B3D2649CDBD175C0D3D680BFFBC1CE6003DA50418BD16219ABD15E1863DD73F953D9783133C7380FDBC8DDEC73C1F90B73DD4F3683CA8C9883DE7DCEFBC7E35BFBB05928CBD0D148ABD01D15F3CDCFCBD3D139FE23CFDAD7FBDB5B963BD02E8543DBA818D3D8978113C98E1913DC2F8B3BDE81555BD215CAE3D6B79943DBE54A33CE40AAC3D74C6B2BDEAB3A03DC01D06BC58D392BD42BBA63DC644F2BC393E4BBD4256213D3E5C49BDD6B396BDD0E1893D3B2195BC514B1D3A869C59BD8932AFBC2938313D8110723D65777DBC64F79E3DB4A60CBB08B8123CD94189BDBAF90B3D4BC2BF3DD45C173C093757BD6C78A13BB584703DF8173C3D87CD843DADF644BDF16F813D4342CFBC255C8E3DB23022BD0CE43B3D0E1B013DE7EC72BDB22D843D3E20463CF6D481BDB26E75BD01644D3D9744113BEF9EE13C9B4DEDBCE42E903BFB4297BD0169D6BD47313CBD4A4AD0BD4DFD923D0123EEBC1D35F7B9ED8448BD185BFB3C40A9603DF21E35BDD60A44BBE590A0BBBF2D90BDFE12F93CF3D9CABCB1FE1B3D0C23B83D80E5ECBC2F88BFBD91ED5ABD63CD413C7EEC90BD85F907BD57AC093B7DCE25BA575AA33D498F523C5C0D3D3CC6DF633DB52D1C3B17EC01BD494FC4BD320C8E3CDFE3A5BD8C43B43B0228E13C3518193D63AE78BC4F25983C3B73EB3D9E7C343D7CE4C0BD764632BDE79679BC792894BD4299843CB8C075BC39E1383D310DA43D57E06DBD950E0D3DB077993D52D437BC7006B5BC067E36BCB184753DA2EBC33CB4D714BDD1E586BCDACEB6BDC04F693DC5DA5F3D713AA73DC9B0D43D65A0193D5229303C745069BC50E6A1BDBE5819BDDD94273D548FA93D755BEA3BC5806B3C03F5DDBD6624013DFFB2AC3DBFC03C3D106B023D0B9FED3B5BE1733CE3C788BD1B1C763C58FDB63C882389BD274F03BD9DC45CBDE5598B3D836F9ABDD25A20BAA63736BDACD3BF3DFE3F1DBCB766F73C62DD48BD463454BD1537A03B295069BD40B719BAE80670BD236A66BD4C5D6F3DB486233D9ADDBF3DC7151DBD1B3294BDEBCB8CBD390B263C6792C63D66F92DBD7ED6BC3DF410B7BDD1E769BD3072C63B03BCDE3D4598B43D840EFDBC4F49EEBC88929DBD04A8B5BDA54142BDF2F9913DFCBD87BD70FE223D3F57F93C3B8CD8BD36A7B1BDF8C06DBC754B9F3C5F170F3CB84A2CBCF3DFE13D4EB7A1BD80475C3D276DF73B3201023CC2FB7A3D0877BDBD48E51EBD9D962CBD2EAA983CA42915BD204DC93D2893883CDDCDE9BC3552A03D552851BD4F9FB1BDC1508E3DFFCBB93D2DDE753CBB9A243D66A7793D2A62B8BC12E788BDBEA5F63C1C5CC93D9CB1453D69ADC5BC9A09B73B5DA500BC004FD53DC5CF053DD793FC3CA4EBA3BC21349E3D2C095F3D3536743C560293BD8950E8BD14DBEE3C0C5360BC99A9D9BBAE7CA43D4BA48FBD88853F3D164FC8BC1525973D6565B4BCB1BAE63CF01B6FBCC526C53D07819ABD2CFAC3BDC20DE33DD60C3D3D5D66AF3D1F37DF3C3396C2BD419B59BCB2A82B3A1B2988BD5FF492BDAB9F89BD51D250BD9FBCAD3CA5CA9EBC1A2B12BD7CDAE33B2999CCBD25CC9F3C4823A13D6D62493D4EDF9D3DF8B4E2BDCA42793D746D913D1645CABDEE24C83CA2FA06BD8E0CA4BC8A3B713DEEBB59BD9C28783BCB64143D0738AA3B68052CBC636FA0BDD1B4383D8AD5F1BB4108A33D57622E3DD174C7BB3850C73CECE539BDBFFE023DCEE7833D34E85BBD6068B9BD79692CBC149202BED6B739BC774E683D44C72C3D9BD73A3D3D3287B9DB5D233D7AEA9E3DC1D689BDC4AE63BD09E896BC7DC436BCCC1275BCEBC4653C8278B33D994FAD3D0158B3BDA13AC2BD53B8DBBD9BCFA03BF0F23C3DACB000BCC3EE2ABD3F19C1BC86C9C0BD0C1CAC3D43D60DBCE5FA7ABDFA07CE3CE790AEBDBAECCD3A3731DA3D101E883DFC7194BDBCBE943DE11499BDC446AF3C076A373DFEF1AD3DCA7531BD9BFAC9BD3DD419BC6940E6BD25C6393DA880E9BCED54B9BD8949173C129C973C0A90B8BDEA2D6C3C8FAA943DFC814DBD45EAF8BC9917CCBDEFED24BDC1AA8CBDEBBF28BD60A838BC32888E3CBA03C9BD606C9E3D6C4BC9BD37F3B3BD2D5C49BDF3096B3D56401E3D8B9B9EBD860F43BD46EA79BDBECE163D44C8BF3BB4C6C5BD48CCC1BCCAC40F3BF28A9FBD2E17A33D4EA7973D3A3386BDDF7368BD5FA1DABDB896F0BDBB70EEBD9CE1BA3DCF643FBD36E4B2BC5907DB3C111D30BD9DFB95BDE6E4CFBB3BBA0CBDCD7508BE9D065D3B7E8FFCBCAC59CA3C32EB12BCB4ADA33D3D93CEBD34CF3DBD7DB9503D62F011BD51A1A7BD1BDC36BDD7294DBDC623873D1DA425BC98F9D9BA0440F6BD9E9420BD3E76B8BD432FEFBDBC9B363CDF4685BC71639C3DFD1D85BDBB81493DC827BABDB59D913D1AC8F1BCFFEC493D1D11243DBCC8E13C7C29853DDE80B83DBE4978BB66E498BB088653BA7F92813D22D01ABD8A8833BD126EB73CB20DD0BCE0D8AA3D95549D3D516877BCEDF1E0BD5B27983D60F22D3D7F0A59BD611234BD010DC03D467684BC3785D0BDC9A965BD677884BCCCFBBF3D44DA683D0F2089BD135DCF3D6A1F783D4645713D40E540BD65F45ABB084F093DCEE7EF3C2453393DED6E63BD13D4C43DB481A5BB8C77803CC3F2683C48C2743D183C91BC5DBDA23D7B93973DF25008BC03FD8ABDE1DDAABDC8E5853C460A683CEFFE3BBA7533F7BCA5726FBDC443003D0E1EBC3929717CBD781C8DBB99FCA6BC2C80F23DBB7C863C2D302EBA924CB03D59A9DEBC5EAA39BD2207A0BA132247BD39C2A7BC58FB29BD1058A8BD5772183D3C9561BDDA4B5FBDE0397FBD53FD253DC281C9BD41FAB03BDB48CBBD514D8FBD038F0A3DE8C1D2BDBBCCF23CDD3C8D3D9F7B81BDF24871BC5C958ABDA80E02BADBD0DA3C693A083DBBB92ABD1ACC86BD8384713DAED2D4BCAA9E093D129E4C3B12768ABD68462EBD7280463DC15A1EBDFB5A5E3D9A17FDBC49CEB63C5F49B8BD5B625C3DCB4AB63D6D44BE3D64EEC03C6CDFB9BA1A3CEB3C749A33BC683D66BDC620C6BDD686B6BCF2C563BB2A516A3CD5914CBCA65B543DD85961BD06BE813DCB894F3DA495E53B25FB433D9142A33DA7CDB9BD6AAB9E3B82BBD33BA340343DFEAD98BD5A400A3C1327B2BD419392BDB96B363DA80DB43D986BA03C68FA55BCA7DA9D3DCC08A7BD5538343DF5F845BD8BCFC2BDD6D54D3DA05B9FBD69F28FBD83F0953DD247CF3DB95B12BD259543BDD9B06E3C5413C2BD976E71BDBE4F6DBD8773833D5C69353D32D6443D4DBC07BDE724883C16A31B3D98DC8EBDE49A1DBD35A6E53A63FDADBDF604ACBD7329A53DC6996ABD9496813C0C773F3C1AE7B9BCCE202F3C00DC8D3D9ACB9F3DDD3DA13B59BF83BC6F44A33D4629E9BD2423683D2592633D85AF713DE01D3E3DBB13ADBC28AE813D871EBEBDD18ABFBD6E3623BDE60F503D359917BD358C4BBDA1DF973DCBD9D03D2C8693BD4997533C1C042CBD0EC26F3B986B203D48F7AB3D25A846BD0B87D9BDF457AC3DA636833D34E035BCC7369B3D066C2EBCF12B7DBD5754483DEDCF793D81977C3DD2AA983DEF26B13D00B9B83D760A9C3C0318D5BD1BD2823C89D34D3D8B2466BD6D59C13C647C5BBBEC66EDBCE4898BBD6BC1873DF987B2BDAE7C2BBD728E1E3DF3245ABBEE2D18BA8DE8B13CD1FA8CBD1AEF29BD7AC993BDB929B2BD5710333D894802BD9B4659BD2D49A7BC6053613D5F610EBDCF4E8F3D082DE53BA4AEB8BD01EA9FBD9304DA3BD4DA8A3DBD2A383C06653B3BEDD353BD2FBD82BDF079473D5BFF14BD3B4AB9BC8504BE3D7E3CD1BD0A06C83DB156C33CD185B1BD1E9592BD5B758A3DAF4C9EBD4CD8633D40E6713C806792BD41DE8EBDC058C5BD7C06A0BDA10477BD27DA8DBD0D8D343D4A28DFBC3DDAE5BC0BF896BD96B5D23D569017BCAE73713DC4C882BCE04C95BC04F9623D8D1E77BD76B665BDAAAC48BCCAC8983DA934A33D25C058BDAA940E3DA5D79ABDEDD1A13C88A841BDF03C5ABC8251C93DB4F5CD3C793B64BC69715D3D130BA6BC9462AC3D6569F3BC9A2CF53D98D8B5BD1767C33B63373BBD353D2E3DB996A23CE99793BD9B4C863D8435893CA793973D3D4CB83DE8D79D3CC147A7BCF01F2CBD38D682BD335B63BBF5F4863B5178CD3DFF1930BD0BD4DD3C50128A3DE5DA563D4C1316BC8F1848BDA7AFAABD4332B4BD8FF880BD7E4B85BD33D94DBC5C56AC3DF352AFBD4D85D93C2232533D922E40BDB774633D8E39A13D066550BC3510B0BDF75C7BBDAE5506BDCD3114BCDCE42D3CB65E1B3D4319BB3C9438EBBD7BD0B7BB2864D1BDB025A2BDE4F5FB3C3333B4BDAF143F3DBBA2A73C7956F03A0CABBBBDEB33D7BDDC74CDBDDDDCCABB00D08EBDB8BFBEBDA33EB9BC6C7F063D71C7BF3D7842C5BD324C4E3B75ED383D8618623D2EA0A23DE9965CBD89B37F3C794AEDBBC2AC8C3D94B3923D081C95BD5ACEA7BDF086D0BC72946FBC676CD83B6770A0BC004F43BDAB9B723D907F8C3D334BB83D8C0311BDEA3188BC0D752ABDEF3768BD46C22BBD1D7F733D52EFC63DE7BD1EBD717A9B3D1A2B4CBD4A4C643D0E39C63CAEB374BD41C89C3D32552BBD715DB43D17A56ABDEF8D0FBCE65586BCB9CE55BD2E6C2FBD4644AABDC5E9523D4AC55DBDE2B117BD3BE812BCA065B2BDBB82DFBCF0E3CDBC0128BDBDD7CE3CBC7E47D9BC0C838EBD910C9A3D4A6994BDCD87363DD7CF7B3C1D0E203D0166BEBD42A2DABD476BF4BC3191B43D0F50A8395653BF3B9425D43CDF319F3D6895543DA72705BCD1A4023D20CB8B3DC020393D5036F5BC639D20BDD76982BC3D6A9E3C3CD55D3D55E3DCBC345628BCEBF388BD21A6E1BC35648EBDF72F433C1C7B303DB6DECE3D6AAD883D6467B03DE4A5913D8BDC91BCFE342D3D42BE51BDC8C4613D40A9703D1701CABC94F4EBBD06507C3B5644A63D46888C3D86BAA9BC045043BD9AF199BDDD308F3DC61778BCFAEA57BDF1EC91BD8ACABCBB5F02963D6685B3BDEA80A2BD04A86C3D1E8FA3BD0D578D3CFDB099BD2B377FBD183A993D8FA085BC9C86823D64DEB63DF16BBDBCFAD3C6BDBA00793D69F31ABD1D8598BDF549153C79CCE33CFCA8873CA35D903CF567B3BD241824BD0C7F363D7756543DC4F8283D1370BE3B90CE4F3D30B407BDAD18B8BD2453FEBDB64B843D9723D73A8DD9DDBDE4AA0D3C322C423D1937543D168ABA3D76F0863DE7D8BC3B53DD88BD81E5903CE245313D346DBB3D6D098C3D5E8E273C55535D3C1C8175BC3F72A23D2ABBAABD83346F3B2BCFC3BCF4D5753D000448BD33D1DA3C5F23573DDC30823DD0978EBD6ABD5DBD14375B3D397D103DEA5D84BDDC3E04BDC68F323D58D8913C2F70A73D23B17EBDEAE344BC990FAA3C2065BB3B7F5D8ABDEC178D3D76D1983D9E83A93C6233983C4C9F73BC643D5FBD55DB88BDD66B033D832FAFBDF71789BD3E08803D141BAF3D96F7D53D0B72C53CA5854ABD7EDC9DBD21CFD03AB55192BCA1F875BDA6315DBD47EF55BDEB50D33DA29E69BDBC71503D8AF005BD40D1953DB04499BDA5C509BD5B6732BCB38FF8BC9954683CC69B31BCF8BAD4BCF73F8CBD3074E5BDA89385BD43549FBDBAEA5FBCF0988FBD8ED2E53A28DF85BC5EF5273DBA0BE13C355CD0BDED1E7A3DA2F15ABD3B5441BD155856BD1DEAB23D7DB23EBD9E8BD03CC53DCBBD2E7A14BDECFB853D94BFE2BDF92AEE3B909D1A3DF4AD59BD51F9C3BD9F46153D21F47A3D5CE9A6BCC3555BBB24BE9B3DBE7D693D70E1573D8A7AD2BD95DDB8BD84256CBD56F76DBD23792EBDA09E68BD2F96D0BDC04CAF3C1AF4DABD71FEACBD407CB83C766051BC4264BB3CBA7FBEBD4E6275391ADB813D20D182BD7B27DB3B58ADC9BDE86A82BC1CDE3F3D4241D33C896C2EBD4D48293D35C94C3807ED7C3D8058463B799414BDC4F4C63D616D483CAE58D5BD24F7943DFC76DD3A122FEF3C31802ABC1220423D40C87FBDC2ED44BC99F028BCF19284BDCDD3A5BDA695973D5025C83D3A9CA4BDD9C61BBD41A9A53C6760993DE870863DF32C88BD5B6F87BDE76DB03B95DC8BBD40DF9C3DAA1005BD1C8B333DF84ADCBC9C8583BD86A0173D7BD5AEBD7ADFB3B9EE69953D1BA2C7BDCC858EBD1639A2BD9B09033D6AA3193D7CF64C3DE0D6B43C6D0C723DCF6B9ABD6D6A9B3DD3AA2C3DCB9795BD2EA5A03D4664AE3DA063F7BC210035BD024C61BDE52313BDD091CABCFA56B13C23239ABC4750B83C85E11E3D069D66BC8CD6A9BC07AA623DE0B455BDFB5F323DE2BA86BDB250813CA6B4F43C8101433C3B31D7BCBE43DE3C233FC83C3C0CC3BD2F2ED6BD78B41EBD2BDC9DBDC75D3F3D095794BD04013D3DA44BA23D94B6183B9A11333DAD96F6BB9111CB3C6EA24DBD3E67923D628856BDAA6140BDFCB0243D77381EBC83A7193DBB4173BC04753F3C827E3FBD99BF453D222A783D6119783D089FFABDB72FA13DD05B2EBD98E8DDBDA953CCBD6FE6A83C9F7343BC13CFA83D3E5C2BBDC6979B3D8909383BB15BCDBDE3CE183DFD1168BC7CBC6E3DC59532BD99752A3DB4F140BC5C633F3D362F9FBB8CD548BDF86814BCFE346C3D43C2ABBDAA04E43C9127CA3C9E90A33D91DEBABCF911B7BD833D97BD1BB761BD9BAA31BD5E8DE43DE12DA1BD1602FD3C0DA3A9BD9F26C4BDD9FB93BDEE6FE93DD7178DBD83C98E3DBA63BEBD0C269CBC7BA1203CC72091BD18AD69BD05C7333D778829BD8F96DF3DD9D78B3D0E9781BCD8A3A93D0351A63DC082B8BD4D47A8BD0B3B163CAF2A12BD331B063D489C07BCE18D0ABD0193B7BDD445743C424493BCB217B93C359D603CEA673FBDB5181A3D9FF8B73DEA6C8CBC9567A23D2B820EBD64579DBDF163493D5A08D0BC0949AC3D18D0C2BD3C59B0BD3DCEE73C65B22B3C2FDCC4BC19B26F3D86E3B83D3CFE603D8F0D4E3C4688953D464C423D2542813C797C04BDD4B393BDA9514EBCF736D63D03BF643DE5C852BDD2694A3DE94528BDE42793BC1843C83DA8390F3C93136ABDA3AE0A3D09C9AF3DD1CCB4BD3C07083A57E36FBD5AF6153D0D1E5B3DD3EB383D8A01B8BD541DB4BDB39E44BD1B8B18BD34C3903DAA54993D9772ACBC3F06B7BDF19A70BCE8D978BD8E53333DC03A2D3D9CBA7BBC3C90CFBD63652ABD052DA93A0BEBA1BDD0E391BC8BC0D0BDF36486BD193A04BD7D6968BDD5336ABDA0F3ABBC93E0B83DF64145BA1F74ACBDFD418D3D70B7B83CBA1CC2BDC8BBB53D0635A9BD3092B3BBCFF2133C0213953DDEA195BD70AA94BD4968533DA2DB8FBC040A593D0D12AD3D9CB2CF3D22B75CBD978FB3BC75117FBCEFA7B23CE6B6DC3CF5C3643D1C29083D0F432BBCB32B0CBD0968A93D667886BC4237CD3CCA6008BB10C97F3DE44E0E3D1122913D7D829F3D1C390ABCD27C95BD3EB437BDF64F1CBCFDE79D3D644115BDAE88ADBD665A83BDE98A023D326BBA3CD406BF3C2F8F0EBD58BAA13D62C49F3D7E6606BD0263B4BC8EC3FE3B045C9E3DD93847BD4D388B3DA3F85FBD735FC83DB9859D3D7BF9993DB1EC6F3CA938F6BAD394DFBCDB29EB3C031B9DBD9B0CB4BD1FBB5C3D9C3C133C82B4953D2A467EBD29778D3C3B6356BCA3D625BD14BF183D3E4E8CBD1A2C933D6A10F7BC53DE1A3C6D6A423DAB5FA7BD006909BD11C285BCAA46973D1FED4C3D557DAABD0050263DCDE3AD3D596A363CA4F3113D8D3528BD6BF3AFBD87CFC23DDF263F3D4F69CABC37F1AB3D39BC45BDE0EB25BCEC8899BDEBFF12BDAA61F53C84029C3C4AC8673DDB39B4BDC75C8D3DF7059DBC80F9553D21829DBD383B93BD8E139BBDB8B2DA3CADCCA8BDB6006739E2CDA23A87E3403C16A1543D3BB76E3D725ED53C4E41873D67159CBD3D58453C8C18D1BD7B9ED43C3118A03DE5A2673D5794C6BBA55F05BD97D2773CAD2386BBE4327F3D8714843DB138B0BC62D3D23C8637063D13D8113CE7F6B53DC4BB313C56F4773C8D589E3DF594743D445B19BDFCB9593CAD0FF2BC7CFE703DE7FE91BCE3EA023B47E49CBDCDDDF93AB11328BD5666CA3D038F76BD5C586EBB9D54E63CC4A676BD79EA0BB9358C01BDD6678C3D5F76BB3D2E5C09BD3EAFE5BD1A25BF3DFA02BCBDB8A88B3D4745553DF6E8B33DF0F09EBDB156CABDEFAE3DBCD9A4723D55988EBD67DE673D38004FBD709935BDF6AEAEBD92FE933D220F033D682AC13D9DF350BC8A3E56BCC66166BD0C28AE3D3D0756BDBF0EF43C061685BD4673843D0CCBA2BD1B1CA9BBEE25BCBBCE60EDBDA2FBE43D8C6FAA3D54A5C63D82AB77BC46C0C6BD6DDD93BDA55183BD60E8853DEF2E913D32ADC6BC3A2BBABD4E9A823DFF8AF3BC365262BD19D11CBDC695A63DA49842BD5EFCCD3D52C9523A10D373BC76FC54BCEFA616BD2DD8623D88BA9C3D627545BCC6AAB43DB0EC893DB5B07EBD2F53A1BDF5873D3DB086043A1EB333BD1CFC9B3C5A716ABDD834B43DDBC0BABDDA51323D3DED443DF2B4C23D579A0CBDEE31853C26A74A3D61356E3D8CAA933D852AB23B41D913BDF226D83D7188813DDF7BD93ADAAE7CBCFEA6F73C4DB9C4BDCA3AAFBBE45632BCAF12A83D33FA6C3C5AD8903D4EAA763CFBBB163D5AD03EBD88928ABDE62582BC6E97383D2EDFF8BC85B481BCA77CDF3D345828BDF9E9C23D84524BBDA5FE8E3D3E3B9B3DF5AAF2BC01BC57BD8955A2BD142EF83CC5AC6B3D599156BCA994BA3D8798C73C11EE003DE0D5F9BC7B0380BD1438BFBD0925543C06E6873D7ED7C13DEFA2B43D76FE4FBC8EE3CB3BE2FA3D3D0A01A93C5E1C823D55753FBDEA0A723DB474BE3CA970F63C887A4F3D9D9B35BC1C1544BC65A26EBD24A5953C2A55573D94C1973C377FC2BD5AA5B2BD712751BD9CA3B3BC9618B23D5D54713BC354943DF2E987BCD41BE73B319C4BBC92125D3D19E32FBD8ACF3A3D5AAB893DD8B6623D3B39973D6C279FBC5025123DE0B9833DDEFFA93C3D6EBFBD00E1BF3CE7FE29BC50E8343D4370BF3C9A1990BDE12207BB88DE86BDB6747DBD4BC2F53C42C25DBD57C60CBDC27F733C96D46E3D1185B63D743FD03BE307833C84DE0FBD83E35DBD643104BCBC3C3DBDD6B0743D9C168DBBBCE2A3BDDADBF23C7F675BBD427E1A3DCBE15F3DBEB8823DAE92BA3DE2E12CBD6BDD9A3D31BA643DBE5828BB2E7289BDA12B8D3DE1A15EBD2CF397BDF624A7BD75E4263C12832CBDB2E6AD3D6EA1CC3D6FD5B8BCE24AB6BDB537CDBC945859BD36C61ABD6E50BC3D46C095BDCE2FEBB99D11073D5ECAA8BC4F37153D2247633DD7AFBEBB83F1CA3DC5E921BD140838BD352B913D406F283C5ACCA43CE316C33DCAC655BDF9B6B0BD077052BD3117463DF75D41BA0F0A42BD2E295E3D7F197B3D26AD8E3DCFF00D3D69B69E3D9F70C43DB0DAC0BCB29DB93A3A3CA6BAD1DC3DBD660486BD780048BD278A1D3D9061A63DF365D6BD5DB96D3C63026ABD96EAAD3CD13FD3BD008057BD5888DCBDD9314FBDFA385BBD2E6499BBFE45243DFD01813D4F7EBD3D84698D3DEFF3B1BD142FB33D2898023CEF14DB3D3F1A863D269128BDF304863C9A48863D19A9803CA8004ABD99B6903DE33CB3BBB3D3C23C06EF9FBBD278A5BD4D3EA53C6C200FBDE5D25C3CDF10A83DE8F9BD3DBDD14BBD6D0CEABDA86146BCA065C03C5EBD92BDEAB24ABD1321033D3DF2863D0984CC3C8AFB3ABD31B887BCBE606ABC31CEA0BDCD59B7BDAD30DC3C089BC63D9BBE913C1A0FC63D09929C3D2CCF71BD1A0DDF3DE087AE3D41CF90BAB28F073DF586893D7A7CC0BD73FFB03D25AE8B3DC947B3BD258D953D3F8A1EBD3B21BCBDD46370BDEB16F73C04CF713DF915AF3D0BDDB63DE2BBA5BD664997BC74B4AE3D4E7FDDBDD0A82CBD2EF7993A4219793DA339643CC0A5C13D5A67963CF5F55A3DBC08833C1953203C32F448BD6000193DE4BB3B3D2F23673D37C8A1BDED18C13C2A15D1BD7710ADBCE28B21BD9FC076BD45E6953D624AAEBBCA9F93BD780BAFBDFC853E3D31EAAF3C7E2B503B8BC0613DDCE4913CB4EF6A3C0DE1243DCE9EB0BD3E3D793C9E24C03BD228BA3DC510533D2D8A133B2353D73CF559663C861A4D3CE543ADBCFB247ABB2D9B3BBC031ABCBD61BACC3C6FDFA23C6A7456BC0925D5BC8FD2CF3D5E085ABD5294043D736D2FBDDA069DBDFCCF383DC279B1BD8CFEC7BCFD58B5BDB68EEE3DCBD01E3D90CA823DB0AA90BD85779E3C17D69DBD2CEE9E3D19CDF7BC5326C9BC129C483CD987D1BCEB4C783D2F8E4FBBC60CB8BDD59BD13DA2F102BD662FCFBD1A7ABA3D418E653C77D11BBD0D07043DC470503DA6AF5FBD36CFF63C958343BD7783C7BDFC9F2B3D4720593DCBCB3DBCF99E6BBD449E2C3D0A7EB9BD48FBF43BB69D5FBC68F99CBD987BCABCE825703D506032BD224B903D4E3017BC80136D3D61221E3D7CF2693C7D46753C4D5A46BC33D4903DC5B4BBBD7526333DFB18ED3BAB0905BDCBB2D13C36F644BD62E1A53DBE67D3BD049819BD578DC0BC9E5FB8BC4534303D32D62C3C76CD983D27B93BBDD4878C3DD624223DAF410CBDC7DF9FBD528BD73CFC49C0BD86C2323DE1F8583DE2BF913DAB417EBC5142983D213BC5BDE5A5083D12B105BE26ABBABDDEEF96BDC84A423D98B4933D62EDA93DD077113CC27C5F3B647A34BBE1623A3D84071D3D3596DFBB7EDBB0BDC3EFB0BDBB936FBBC7B5A83D162C5FBCFF0DB7BC6259513DF089063D582AB3BC1B4F763DA034C9BDEB36D7BD49F2BBBDB5B1A5BDA5C52B3D241696BD00C0043CC60F29BDAEB9C0BD45D172BDF7394CBD01A69CBDFD40A5BD0A7ADFBD52C20A3D980F803DE0BD0CBE2AA5D3B970DF56BD2B39653B147EB9BDBAD00ABE44CCB3BDB26E853DDDD6113D2A34B13BA2EB18BD36D3783D4B72B5BD956185BC4065A0BD31B69D3D52DA443D4CA37FBD2DA3E2BB443075BDE7DF443DB4BE283DC2086BBCF1B761BD3DB334BD7104283D9B6C05BDF796D3BD17D0EEBD0E2242BD08F8363D9A99693CB3E6B6BBFD698F3DA8E058BDE2A93EBDC1B79A3C6171CA3DF3470ABD8358CABDAF09C9BC454B50BBB37D61BDF5D3243DE94B06BD824D82BD037A6A3D5F4C1CBC4680BD3D0F35ADBCAD4635BDAF4EC8BDE519243D8A4B48BDA6A0B63C52CCA6BD02B75F3DCEB295BDEBB04FBDF82ADB3C1375C2BA03BB0FBC4E0B593DD03B80BD0A730E3D7BED553D07EF8FBD2270F9BD2530A5BD50F4583DF3A5093D09EBD63C873D12BCFDA5473DD85CBA3D3A12B43DB072A53D72930FBD4DCFBCBCADF74FBC6FF7DDBCE619373DEEFBB83CC3B6F5BCDDE59A3D8C98B4BC92D6A43C5B9EB13D8D87CF3D0B6B1CBDC2B7BFBD2DD080BD142026BDE32B8FBD5F664CBD7BA35E3D55B4073DA24A783DB272733DE05A65BD95E717BD1F6AC93D12088FBD624EAEBB7FA9C23D4C618FBD2FF83B3D7A9488BCE7F2523A7C4DA83D679AEDBDE625F2BD0C72543D705157BDB75FCF3D9F87923D34A5843DD5E13A3D216D853DFBD68A3DE66E023DD9FF7B3D776EC1BC9767EF3DFC4AEA3DB31193BD8BF839BD57B9CBBD794A273D2A13CDBC6659F73CAB696CBC7273893A5691753D600C433CE487B4BC85AB8F3DF5C09EBC8B59A13D351C8A3DF3521F3DA252A2BC405AEB3A26579FBC3083A1BD8D1B133DFC2E283DB5306DBD0129563DA21E5ABD0658B2BD2491103D25384D3C3852483D57ECBFBC45A18CBD5F6CB03DB175823D60B1523BE6EC8F3D3A0E6B3D42429FBDF000053D385ED13A4F370A3D9D65C3BD42B0173DBC3A66BDBD46233DA2079C3CD9A8BFBD91F6C4BD9DCCF23C9C6420BD7E1CBEBD65F59BBD95EACF3DD51025BD748DDE3DE78C1C3DC09A08BDC4928FBD31CBF4BCA6A515BDA4661CBD2754C03D91AF0D3DBB78A3BD696496BC0963E73C7451193D7C75B63D856F6F3C440DACBD6998A43D1F16323D028B9EBD9A9C923D4D5DCABDA4F8813DC1B9DCBD470521BD2CDA6A3DB77076BDFCDB6BBD1F05893DF893713BA168933C7FB1CDBD5D1FF43D5BFEC53D55D7A33C91782F3D32C89B3D782C183D7EEB90BDF03C86BDBB1BBF3DAD07503DC3AA053DB97A9ABDB25FF6BAD311F5BC30F790BD05D929BD5C23633C718C2D3DEE6091BD130C7EBDCB9F89BD12B1D93BA4B11B3D3949D63D8FF43B3D555D75BCDC6FD93D2805D93CE43B64BD957A86BD29D445BD8CAD72BDEB9E95BD7CA4A33D7B4F63BD1668023C7BCF1B3C671EB93D0B7B1BBD97F6A53DD8CA253D0D03393D6C0D7F3C7BB5CDBDA6D513BD6574ABBC4AC9E5BC1EDC623D2075253DAFB29E3D73CB173D4E02A53D75E19E3DB341BF3CAC8D1C3CD487793DFC63B23B8507EDBAC54A823C81394C3C43518F3D8B31D6BCFA8234BDD73838BD470F2DBD24E8063D40BF82BCECEF64BCABF8A73D6F59B23C5AD1B13DDD2A8FBCF837C33C63BD9DBBA0591C3DE80C14BD9267BA3D985C843D93C3E03D8B636B3DEAAB8B3B89D617BDB715D03DE7544A3D288FE63C3D2EB83DF7AB79BDC544033DE9CD0A3C55B186BDB808E33C02EC0A3B2F8ACC3D64AEC1BD4EF0B83D2F29A43DA1F6B8BDAF07B9BDC1D62A3C79DA39BD6C81BCBD3D117E3DFBF1D23D400CBABD3BAB783D4C41943D7D00493DE98A60BC9825503D41B178BD5246D4BDFC38BABD44CB18BD4A02503C4D62DFBC4FF479BD326F403DE17E3EBD5831803DF1A1373DC2A4523D35CFA73D756E813D2F8DA3BD58C1883DB691ADBD648781BD0EBD013DF5C86C3DFA69963D3B1168BD112FA43D8E30103DB72F843DB3DC1E3C11C4ACBDCA30D1BCED2D3ABD59D2643C2CA0453D8829EF3CC338CC3C15C296BD68279A3C83A6CF3D745EE53C818FA23DA17A6CBD9D67283C1D1E4ABDDD05923D09B52DBDA937963CEDAEA13DDDF8603DDF47C3BC5A1F823D630171BD7DE0F4BB5EC0793D14D2C63CD9C50ABD63580C3DAF470D3C7021703CDBC648BB00524FBC2EB3A5BB5BC2E33C93D9953D29F9A1BDB29B98BCF23AFFBC7764803D994F17BDA539FC3BF1AED6BDEF07D83C5F00933DB96EBDBC8C5F84BDB95B9F3D702D2FBD578463BD7C212EBDE7E3263C6C916D3DBEE5E13C9251D23B9298C7BD6732EFBC68B37DBDA7E9F4BD6E72903D04E3B43D395B6C3C247CF93CED2AB63C62B893BD949D7DBC1BE442BB0B3BA0BC6E95903D109E3C3DE00AA03DCA1F8C3DFDD0423D2AA17F3D9048603D977FBC3D229FA2BDD38359BC038C35BD6C2286BCE45F3B3D4EB8B3BDDC1E25BDE1B9C73D6D4EFE3BE69F9ABD241DC1BC12DF043D5652E53C3F488CBDF1F5383DD5673ABD7FCFE03D2197C6BB0591B6BCA2AC4F3D8FF413BD7AB7C9BD7A063F3DF6300EBD2FE4DC3DF8F0B9BDF802413C1DB37C3B82A19EBDDBDC2F3C9E6173BD8F2FB6BDB02997BDDBA09D3D2AFD80BD53ADC6BD13756E3D34ED8A3DECFB53BC6DA0C8BD0BD4973DA46B9A3D8DDB503DFAF798BD610D693C22CB8B3DA7EB9FBD0FC4B9BDAEBF3E3BD85EAA3DF2B09B3B2F030DBC3008323C6722423D46869A3AF6C0B6BDAA9D37BDA9F12A3D4823B93D822C1D3A1BA5AFBDBE44953CCA66023DF57DAA3CA26DAE3CEC8091BD2BA503BD6D337A3C0B1B94BD6274963D2DBEA2BD2B34A63D0294A63D83740CBDFFBC343DC19098BD0692893CBB9EDDBCDB779E3DA47543BD192CC1BCF46A933C9586B43DA8499C3DD69133BDA68BA03D520944BD0274C53C2151EA3CB908A23DEBE8A3BC74EC3EBDC3ABDE3CE81548BDE1C0E53C4B95773D0479B73D5A5C88BD651FA13CBD0308BD7644E4BC48333FBDAA7A3C3DC1DAF0BCA9E1873DE9A524BC60CA113D4A40A6BA13F7E8BC1C1BBEBD0F6A7C3D591DBDBD7BEBCE3DBA3F8FBCBF1487BD668DA0BB3C352F3D0A158C3D188B7B3D11304B3D1DB96D3D0E2292BD676930BCD9DF243D6B09F53C0793083D88B8C43D386C263DD222BABD1D5D253DB72EA53D7F911B3D874DA1BD79AA8F3D000247BD409697BDC72D15BC8D998F3D815F80BD5116393D483D60BDD3EE9BBCF281943B5652783D60D2953D21E6C9BD6541B2BB893D47BDA8282FBD77F19A3C485D783DF324503DA1FF00BD11A0A1BD304E1FBDC3F7D7BC1B50B9BD4F99E0BC253973BD8B53C53DD49420BCCA0FC8BD562C683C5EDB17BCF0C1C9BD4F47C4BD18D5D6BD610301BD15C9C4BD1DF84ABD0D2902BE3DCE06BD79C2903D9A45A83DA827283DADF84B3D4E91BCBC47D228BC51A68CBDAADB42BC64BB96BD18D482BD0190DFBC5C64E2BD3297883D0010103D755B00BDEEE1243DE4FBC9BD7DA076BCB56523BDD1F36EBD2CA40CBDF4BCD5BD7741303D83C8FE3C77C08ABC66021CBDFF8C6DBD9C075C3DD7694ABD3B3E33BD33C6383D011223BD812F8BBD3532AABDE987523D45975B3D605DDABCE28F5BBD587BAD3D5C79583D5B54A2BCB529A3BC46AC533C691364B81462BBBD50D750BCFC3573BD7DF4973C93F4853DC66F9B3C21B68ABDB85E3D3D3840573DAD53AEBB2772E63C4507DF3B21673CBD03D65C3D8B4E443D2BACEF3C690C3C3D8FBBB5BD4F7506BD8494373D49B415BCE7F3E93CFA1BD23D6252A33C8DBD57BD4308493DA895B2BD48AB133D4071FA3C8D1F6F3D1931ADBC78199FBD7204A8BD1FCFC43C9AAC8F3DBA31C63D015EA03D8BC063BD8AA921BC5F9789BD9E15D73D336B0F3D851E233D661BA8B9E634613CACB3583CA1DB663D1435223D01BABABDB370DEBCDAADC0BDCD1176BDF4EEDABCFD0ADB3C823C20BC913C60BDFCB29A3DB2F3333D6C778E3DE5D06FBDCD2E513DE20ECC3D2B33523DBD2A93BD3B3D0ABCB080223CE3CB37BD004897BD9F96B2BDA9C0E3BC6427873D1747E5BCABA6B1BD82249D3DD73EAA3C2AC0AF3DE317943D2E5356BD045959BD856C87BD5615B63DB681BE3D4D209A3D8862993DCCD7B03D85D574BD8BE67FBDD479C6BD89EFBFBD4F1CD0BD41E2E93C3653DE3C0B6F97BDAC321EBD7C7A8ABDFC7BE6BCE9FCEEBCB2732CBD873B6C3C21EF12BD5D4252BCD1222EBD9199993DD7307DBDA820CB3DFE5C91BDCCEC8B3D7162613CCA2AC3BD1485CABD050869BD9F0B813DE85E7DBD2277E93C12155A3DFB8015BD4CBD383D5841A9BD327C4C3D4093CE3C98398DBD674F113D5B199E3D90EAECBD2BEDA0BD7198443DF98C1C3DC77E083D455E603DB279AE3D06F3B8BD433AB2BD096103BD357E66BD8806723C150A44BD0F483F3D1B1086BB5A5D3ABD7D8A31BD4887D3BD9E0616BC0C1AA03CFA5A6CBD6484713D33219B3B2B7905BE6F9D1DBDE8D5FABC4D1F3CBC141BAB3D27141A3D9AFB803D7C32AB3D09650ABDB10CAA3D832099BD02F30F3B417EAB3CD6B21E3C9D44A3BD331603BE0E6EC13CA5A839BC8245783DDCC69D3C5CB2623D611E63BD7210DD3DBF04E63A72FE82BDDA187DBD632EB83C14004C3D981CA73DA89EB7BC03EE353DB19B98BDA628AB3D43CEDABDBB65943DD4F6603C879FDC3CA7ACCEBCD942A33D6F67D7BD69EFD8BB69EECF3CA15F59BC593950BD156D41BDE77745BB427AF63CF873ACBD121B8EBB9F32773D42EFA93CDC964CBCF8FB2C3D67CE34BDCA51503B131F29BD5DBD263DFBC5183C7BD3A1BD93FCC0BD39681B3CB2E4A53D798E673D35209DBC8A467E3DF1CB56BDE85E04B900611DBDA4368DBD1DD7503DBBC08E3D01CCFBBC7AE281BC402199BDCD47713D82AD1A3C8F0C3FBDBBF7153DF8164ABDF845DEBCA27085BD392ED1BD79D0A93DB534CCBDDCBA9BBC1D98A4BD102E54BD9D18CF3D767197BD7EB2643BE459083D80AC0F3CE067623DE368873DF6AAB9BC5CA59ABD2955A33D8819AFBDAB7FD23CEB841DBD83C21DBDE3E807BC821A95BD69B28D3D61033C3CF879513DCB0075BD9E52943CD1BB0D3DC3C39EBD144DAC3C3A4A843DA615993DA16F733D9F3DECBD6906493DB584A9BC33C9A43D63EC85BDED0F3C3DD96A5E3C4536C8BCE2038A3D4820DEBC21F6CDBC90AC743D62215E3D82188D3D7B68F33C7BDFA53D057D91BD14C1D73DCC330C3D8F8DB4BCF2248EBD4A0F393DE26299BD2FB134BCB055A8BDAB97013E1E3FC6BDD9D999BB52DB103BB382A83CB1B7BEBD2601BD3D004851BC74C8B3BD612F28BD204BB2BD15D639BCCB6C2CBDD2A4A03C355D9DBC4897BE3C345703BDF842113C8DB5CA3BD045A73DCDD8CA3D7151623D04152ABDC01051BD5502A73B7701393B2BAAADBD842A103D2FD5F9BC9A436D3CB62C763D5B12483DBDCF62BC13B14ABCDD2DBE3C88434E3DAADB90BD2AE6BCBDB0302CBC97ED8BBDAF7C67BD7070073D96599A3D6CCFA6BD444B82BDE016F23C8FC0243DE8D847BCA943843D6FE827BD14C4903CE2C3B8BC4849A23D3A2F8E3C6E558FBD5779863DE8C9953D50D2B7BDDA698C3A17E9A83D59FEB0BD332C673DDF1CAF3CFD30083DC610C9BDA7155D3DC595BE3C5C4CB6BD310F183DF98FB4BD4F6F883CF5D9913C679DA2BC46AFAA3D5DF98B3C24B74E3DE38533BD9CC579BDBA0A243D7F0C5EBD64335ABBD2E196BDD475B23DD5A0563DCB7808BD409DB53DE174B93D56A4F8BCBD2E82BD9019043DB052A6BDFD59AF3D6363CEBD35F94E3DC5AB033D955EA2BD004EB7BC6D0999BDEC4916BC1075E9BC07C50E3DA387B43CD59389B906389ABC84AC03BD8BDC96BD30B4B23D9F46DA3CBC943CBDFEE342BA95ABC33C20F2163CEF641A3D7DE45C3D27DD8DBC23127A3CDBB98C3CFD382FBB20609BBC185A9D3DE7BE603D2627763DE89C7BBD1A5FF0BC0098993DFCF6093DB6AC84BD3F9F0CBD0FB47F3D448DFC3C61550F3D97D8E8BB1DAC66BD1565483C4B085A3D0415983DB6DC4D3DB3F1753D99C6C7BD453F78BD24B0D83C0EA8393D411893BD986273BBE43AAC3D8A91993CD66F683D7F1283BD09D58A3D27C5013C5456EABCFFD9863DC8E1E53C02C8443D86499BBBF656EC3D563AD6BDD670B33D80CF1B3CD4AD90BDF1A0E23D8AF3C1B9089482BB9969EE3D53CAD2BDF6D93B3B5EE0EE3CEFA9883D061E673DE19EAB3DC59055BD209B26BD0BF74B3D9FEDA23D897060BD29D305BDF1CCFC3CEAF537BDFA2209BB1EBCC3BDBEE923BD3669AEBB3149E9BD83142ABD6D302CBDC9865FBD287E6DBDC89F623D804CAFBD68D33CBDA5C0C3BD4F1090BD7CE729BD0A6CD13D71EDB8BD44658A3D4D86853DF53E83BD0F1725BD55E3633D340EAEBD519121BDA9F28C3DE804813DA734BE3CEE17173DDE67DDBD2AB394BDAA09BD3DDC66763DA7C9C93D25AFC1BD3D7A793BE597A2BC1A9B43BD26303A3D91B57D3B792828BD12A0E93CBF5EB1BB70811CBB0A82ABBD2D5A6DBD90BA123DA68951BC791C543C400BA5BD55D0053CC342D33C80405C3DE985E2BCD47A8E3D34A792BD858434BB4F6963BD6B723E3DBAAB7ABD6215683DADE1A3BDA3560A3D3D12C3BD1EDCCFBC83F8A23D9680A13D5E733CBD40C42BBDFFD154BD15983ABDAA8CB3BC37D3CA3DA103EBBC43898A3CF3D57A3DEF92973D0F449EBDCAA8DFBDB82B13BDF4D00D3B83E79BBDCEA70CBC479AA2BD1342143DABAA213D28A89E3D6A9E6ABBC2D6B13D22128DBC5409D7BD30DA86BD07D0893D1E1CABBCB3AB5D3DD17590BCE46D123D7808EBBD50BF8D3D4A3C41BD3DB49E3B7E98183DA7998CBDA2074E3D8C79C6BDC979F6BC6FDAA4BC007D84BDDCBF09BC5CE4A73D00EF96BD5EAAB33DC3D790BD27B8AF3DB755E4BDCA7C91BC6E549EBDEAC91CBD1D12353DBF86963DCFF40D3CD670753D8C2D383DA6B8CF3C27AC713D518A253D9AB34C3CC47D23BD8474CABCEEC52EBD6B5628BDCBC0223CEA4FBC3DBB31DDBDB9750D3D396CAEBDF556F1BB418760BD75AC743DF88ABF3D97BE163A80DB8FBD6325A93CD555D1BD59A1B4BD8F09B2BD7149C63D80BCB43DA96CFE3CF943C9BDB08FB3BBDAAF613B3A03673DDC07413D9447203D86E28BBD94116CBD8A67AD3AEB9F47BD8DC6B6BD6871313C386E9CBD19FE4BBDBB8537BD6E46513D994A553DC506D4BD2A0FD8BD3453023E001FB8BDAFA9EA3C2945003DF706C1BD4C72F3BDE73D80BC10F0B53D0524AD3DCCB91F3D35DAE13C91829E3D1CB586BDCA61BFBD34A86A3D2E409FBD1FEE5CBC1762C93D760E9EBD5D10713DA603BD3DC78B5C3C3D76363D10EB3B3DCAD8B23CEA597EBDAF3C6ABCFB7A16BD4548E6BDAF3BB5BD78EC82BD7803813CB38B6BBD6800C53BA6F8ADBD1C7EBC3A6645113CF59F39BDEF2CCCBB7C9324BD167D1EBD0B33E0BCD50FAEBD608DF8BB92D9D73B4B1890BD0F9766BD6EB0EEBCDDE9833DA78B89BD6E938C3D1BF4ADBDA318293DC4B46ABD3EC789BDABF4D9BD05862D3CBCC440BC8D09AC3DCB07B43D219EC2BDE7A8B4BC2E8B3BBD95F398BDE1FAF93C99CE9DBBFAB4553D5C9CA13DE13600BDD4E592BCE49AB5BBA8A2973DB8B8D7BD86C8B3BDA501AEBC483642BD84166B3D9EF1653C58EDAC3D010A993C5832D7BCE615873C1F519F3DBB3732BD4527A23D99B440BDDEA2A83DBC39B7BDE2F37F3DA95DA83DE47CC5BBEF8E73BD398410BD46AFCB3C7F3896BD1EC3833CD5A8A2BC637D9F3DDA1FCB3D0691533DF964BD3BB15022BC40A1423B651197BD7A2D913D84DEC0BD711512BD71383B3DD32D2A3DEA46F5BB2ED8B8BC9A71D83C2B96023DC278C93907E92CBD5ED4FB3C8C5A59BD2B539B3D5FF36FBC31C080BD88BA333D5542D3BD8F06DEBD56532DBCFA4ABCBDF0772ABCB7CC37BD6407493C3A3ACEBD320C4B3D7CBFDB3C68AEEC3CF623F33C88F893BD2BCDDCBD9C78603CA4113ABD84769C3D2BC81DBDB4D9B43DC894C2BD0504483DA4303BBC2D65183B664B67BD2563633D510C0A3DE0846B3D1F7E83BD4B6B893C2D48D33D3A03D93C06AADA3DDB21D7BC3E3AA23D8719B03B949DB4BDF24F18BD8D8987BD69966F3C88C58DBD7A21D3BC84F9A93D616A0D3DAFA2EEBCBA1AA9BDE8E0223D0A66BEBDCC4497BD2FD1DDBD0F2B94BD688B46BCF8F7113DB6386E3BF74DD1B8D7746F3D10E02EBDD2C2DA3C338D3FBDF07E7C3D0F8E8F3CCA9887BD49EB103DBAFF96BC98FF983D3CB2663C7DF1B83D1BD27DBDD8718D3D32D5E33C8CA4D1BDB7878D3B80A8EBBD3611A9BB59BF37BC8850833DE197DEBD806B13BDBF6B153D1551993DF001F03CEB7702BDE6969CBDF5B8D3BD9DCF593D258A993DD53A193DD89805BD2AA9393D1229233DEB4E5DBDF7223B3D1E5139BD82E0F63D88D1D0BC0F32B33D2A8EAD3D2886F4BC2843873DE7E007BB232784BCA62005BD43AA81BDFF6E4BBD39D85BBDB36C60BDECA5D5BB4C05593DE8E17EBDDD24A33DE76EB8BD5CA7883DC7DA0FBDEDD3B13CD9FB48BD1B9D743C81AD0E3D842081BC8053A43D7598073CA4BF5B3C7B1EC9BD3CE0643D38DFA1BD52B161BDE43F51BCED82073BBFF6873D88BF013D864687BD5D5F29BDCF55AE3DC3BB88BD80A8AA3DF26D513D3B07D3BCBFF503BDBC62113D220179BD479EBF3DD01AEA3D058EAF3D8AF10EBD436B483CD9E2A1BD71039CBDBF1420BDCC747CBDC5D81B39716EBBBC344664BD2358CBBC4486A8BD1BC3A2BD772C17BD6F552F3D2FB0953D545E123DD671AB3CC63ADA3CDC89B63D7EC5883D11279ABD78A6D13C8EE9B23CA15A37BDFA7FC33CD793B4BC99EC9E3CFACDB8BC64B8AA3D54B0FC3CA9AEF7BC9A74BD3D71009ABD96CB9B3C37C3953C1F28863DEF56F73D32DC33BCFFA8993DB1BC5C3DD0B9A7BD4D22A23D3EF4583C636A6F3D7EE0833DD70F56BDDE28663D5957C1BAF049963D6F08D83D917CB53DCDD2F53C8E921ABD1A78253D9F1F9CBD659E7E3C8DC890BD4C3096BDCF1A8EBD887EAF3D79D04EBD3FEB583D032E983DD1D6D7BC745B72BD4707A73D1009D03DAE0B653D92A7AEBD7AD1813D4CEC9E3C6EEB9EBD05D6BE3BD8FA7BBD2DBD9C3D89AD9C3D5D84CCBCA5ED953B421413BD8B542FBDEB7636BD12B3333C196880BD83EDB7BD38A6C8BDB3131B3DBE17C2BD28CEA2BDD23A8EBD1356CEBDA6DD013C6DCFAA3BE04E553C78B5CF3C9A7BA4BC2414763C9AAE24BD341707BD1D86B73D7341C83D5ABE84BD6E8FC33DFE8E963DF108C23D821210BD77F181BD76F7093B178C543D7D1EEA3B9F31B8BD7897A8BD3CA2713DA13F143D22E17C3D46FC01BDD0FABBBD66F8ABBD9C7A1F3D6077803DD4DCB9BCA79D003DF4CB703D20F6BD3D481C82BD224255BCF8CFC53D50AE163D3C7D80BD14B5A0BCB32622BD12A85D3D398B0FBD450C01BDB9E51A3B341B86BCD332103D01A29DBDBC9D0C3C36B0F3BCABF4EEBCCAFC51BDFF550F3D933688BDF5D8BFBDD704283D8973543D505EDABC54D08CBDD3323DBDA4FAA93D68F8493DC080A4BD177120BDAA919ABDD3ADD6BC80F5BF3DBDB5443D5EBC3C3D8394A1BD51A7313D1EFC40BB4841863AC1B8393D2DDCB73D48188B3D4B3A6DBC128383BD3666E5BD5584953D79C968BD737D85BD0D1E203D0B2DAC3DA0B1333DDDE93C39749B49BD49279B3D81FD83BD3EDD8CBDE95C07BD116D8EBD8592F4BC7A16E2BC4C24323DF12C93BD85AA893D5CC7AE3CED4BF4BC620FF43C6169143D1143B73D5A2DBB3B9620973D31499D3D991CC0BDE8ED6F3D45130DBD6B3EC23D54EED93AC69D8FBDB1ED413D75107A3D09AF703D2D56D73CA376B7BDC2A58ABD839AAABD5340A2BD707660BD89E69D3C4544A0BD3DBDDCBD58838C3D0803AFBD0401963D31BA5EBD1E32B8BAEF004D3D7C0684BC1C087D3DA29914BDF48A24BD1080083D9D86613CA57B6A3DE367C4BC93AEF43C96FA10BD3337133DABEF4DBC51AD863CAA3AFF3DD15A393D93E2A73D6DBEAE3C90F169BDBE639F3DACF46D3DAEF0483D13BBE23CD93F343D6CAB2E3D09C80BBDF935DFBD1A1085BD2E99C33C60DFF3BD94D39D3DCA8F39BDD9FBA13D8063A2BDA9D6B33DC03A8C3D0842D6BD6460B83C42CAB33A090F49BDBD0A9A3C603BB83D6DD84BBCEB81123D8699A1BDEA41BBBDE5F1E63D33D8AC3C335344BD6892C43DBE72C5BCB9D89FBD80D820BDF58B813AC966AD3C0051D1BD285C383DFBFD9BBDC3C920BDCC716CBDFF25B3BD941F49BC0939F3BB6C3B01BE191686BB405E13BD3D0E49BD11D02BBD504623BD06D31E3D6D73C63DAC0B97BDC6EE373DA38EDD3D131B85BAF91F1CBD086E0F3D58A354BDADE8053CFD6CC0BD127397BDA444B9BD1AD1EBBD7A458CBC353C59BDE1163EBD03AC2DBD1C1353BDDB156ABD8AD6843D1AEEA33C45ADE4BD1135BB3BF403A83C6791DE3CA238D8BD45AEE63C7FF68D3D075B35BD0A3FABBC1D67D1BDCAF89C3DF4F38DBB113332BD0D8564BD028BEABDA2FCEE3C5BBC1F3DEF4EE33D461B3A3D3DDCF6BD4E1FD13CC09180BDC146D0BC7AF88D3D0AD641BDC975063D25A87DBD0D9313BCBF2A8E3B05ECBF3CA6AE56BD6DB6043DBF8E2DBDF8B324BD68DC13BD2A3983B86D07EABCB2ACA73DF570733D3FE68B3D58377F3D4549AD3D9CD2D6BDC6CA8EBDC5BCC3BDE48F85BD58AF9F3D954A85BD48B2FCBC4459973D3B12BBBB4B8BC2BD8550453C5E1E233DD4955BBD2DC5643DEFD2593C623D75BD74A95ABDA65D85BD90D650BDFD56833D130E29BD50F8AEBD1756BA3DA694FFBD66A7283D1ECBD83D1CD90DBD8CF7FD3D5929303D72839F3D64FE263D8E8754BDB317AA3D4A58A9BB6CB013BC45028BBDDE6AA4BDF6AEA43AC7F7723D50A090BBD3AA543D46B42BBDA864083BBB52043C1C637D3D253F9DBD8CA702BD22F8323D738C263DAA1A81BD7E89B4BD5B662ABD5C95213D943241BD70DAFFBCE41C3EBD6813993DAE4E073DD2B7593C01C6CC3CD834FEBC0EE1503D49A959BC6DE81FBDE1CE393DC85B3D3DD38B40BDEAD7823C53F74DBCAEE682BD8CF4A3BC5CD98C3D685BF6BC2FAF583C5C98A8BD89118B3DB81D9DBD63CBBCBD9894953B4A1DBE3CA91E7C3C61C1B0BDD6DBD33D8587323C47364ABDC940CABD2B2085BC55E3D1BD4189CFBDC17B843D32BCBBBD8823903DD2F435BD71EDC8BD38D775BCCA69B9BCFD3D76BA637F513D9B3C09BDCBE9803D21951DBC24AA49BA74F907BC6667253DFB2F28BD4CBBC3BD2DE7B4BDEA7197BD45FD9FBDC166A7BD4A59B5BC748A8E3DF6F5953DC295823DA3FA68BD37E9DDBB7A33CBBCA099BEBCB6DB5CBBE222AB3DED878B3D001157BDFDABC5BD6BF5903C1604363D9515E83BF6F087BD58EE34BDFDF7683B44467FBDB02531BC47F1CEBD2B59CE3C63E0BCBDF457713DE6F6193DF839913D4DB39C3DF17FFDBC522E9CBDA8E852BDCF2D9EBD26BD12BD00F2BCBDDEB81D3C1DD98B3D9296B23D534D1DBDED9F2ABB35C767BB59A0B13DAEA25A3D20ED72BCA0FD8ABDAA866E3C07C7A43D3C06AEBD00720DBD3D8288BD3AF40CBD4F502D3DD7E142BB0081813DB9BD5BBDDD60CB3D9F3590BC29D5A5BD008160BD01ED693DCC2F493D1A32A33D80D5303D87E7C2BD9AB1913DA4196B3C18624FBD02EFDABD56329EBCC2A3303D70AFD53D5D940CBCC3364EBD64BF93BDB61011BDE2EB8DBD9CBEC1BD44D9E63D49CA1B3CCC4E193A58CC99BDD111D4BD2C5AAB3DD877A13CE77D6E3D39AF9A3C7E442F3D6E191E3D26FB463D868D153D295F0FBD3DEF37BDC227893D5A6EA23D0290233DA8AA4ABC2D44703D1EE9A43D7A41583DECC3A83D9174533CAFABFDBBB5962B3D231A073C9D28493D438D043DE592CC3C075AAA3D4EA49EBDF098D73D0DA2493CEE48B2BCC288A73C391E8CBD2D83A9BDE558B1BB586A23BD9B63A93D2D6DB9BD71BEF0BCD15EB6BD2B76B83C65ADB73DFF394CBDFDB990BA71F9D3BD8B9F563C96AB423D2DF37CBDE5EC8B3C9D7A4E3D36E5803D3DCEB7BD4387863C530BE7BDF4C0C73DFEEAACBDB42911BDF6C50E3DC4CBD53DE694AC3D5402A7BDD5A602BD9C55A4BD254A963D4E7C20BD6332AFBD54CF02BDC5EAFA3CD8BE5C3D7BBBD83C53F64E3DFCEEB4BDE5046C3D24829F3C1CEBC63CD7B980BCD13D6C3D341EADBC8F7251BD9191BBBD3B5FC63DAF48DEBD4C7BBA3D74E5483D36CDB53D1E00BF3C68D8A43D49A66A3D15D86C3D191DCE3D1E9770BD5609373D06D81FBDD1CAB13DC711113D9B444F3DDCCE44BDE130333D0D72703DE78D10BD0821743DCFC6D43DE88D003C9B7E7CBD0902A93DABD1D6BD6530AD3D64C9E1BB8835A2BD6879CABDAFC9703D226CBE3D37F4A43D809E253DBBB79CBDF7CE5FBDABCFBE3D7C298EBD3B6F933D5D3458BBD189133C09C6643D2F6550BDC433B03DB98F55BDEF0CBBBC7869A4BD04C728BDE477BA3D999F4FBD42BD983B5229E13B5D7C733DD69AE03DDF1659BC4388B5BDDA56E7BD8EE14EBD02AAC7BDD5D288BCC92009BC8612BFBDB4D813BD9AEFC4BD4894C73C4845BC3C8EBCB0BD3280823D15E0F1BC3BE220BDC3B4843D5DF0B03DCBC9383C31EFD7BD027BB9BC1E69653D1BA9BBBD14624F3D575F27BC207821BD243B79BCF4E6953D1069123DA32D7DBDFB59C93D2DBAD83D3E668D3DCD19563DE14EA03D4D669DBD5A69DA3DE4BB8BBD6EE83F3DBAA1933AE4FA823DF869833DE873DBBCF0B6AFBD1AAF833D81AB15BD95A56EBDAE46113DAAE06D3D9F50C3BDAEF9F4BD3B40AB3DC7E8223C7F04933DF32998BD50DBA9BD5415FDBC1991903B727066BDB347883D56B2893DD54CA5BCBA5BC73C0C75A5BDE47506BD96FC9B3D797001BD1214D8BD94A18DBD18EA0ABE1CFF783CE9D9DE3C623636BB5D61E23BFDE8FABDFC093FBD1350D2BD8A3A0CBE28C2D33B2A5732BCC1581C3C35B219BDD2BCB0BD302D363D281BA8BD06A39A3DAC04683CA04A29BC4F23B6BDE2C5553CA34B2DBD49FC753BEC698CBDBECD7F3DBDCDA3BD6F73263BDE24CBBD889CB0BBA265F7BDB016873D592C583DACAAEA3C1BDCB73C6DADC7BD2764BDBDC9C94C3B750F503DF3D99BBDBEB8A03D0628B0BD8A0F77BC398CA03D8223ABBDEE2BA9BD492928BDA5C9AE3D57FCBDBD8F9C8F3D10FF623D0CF43DBD429B65BDD25D883CFCD50ABDB0E0593B6961DFBD19C470BD77B497BDF9DAAEBDB4CFEA3C9B13E03C62CB83BA810001BC6505B33DDE6441BD8605C93D9FAC4A3C13E5A03D5CB85EBDCF6E2C3CF522A23D5A7C13BDC3BE64BD23FA66BD4AA8C0BDC6AF47BD4E5F0ABCFE4C093D727BD2BBA3FB3ABD3535883D7487833DFDAA06BB70DB29BCB516FFBC52296EBDA7F96F3D91F9A33C0297C23D501062BD9BEE14BD0782953D8C98893D3CFD9EBDA27130BD7F5F273D35E7653BA5D2BE3DC132BCBD7A0F4C3BD86CA9BCF398EDBB3C37663C051FCABD608F54BD99B303BD714893BD36BBB83C2E07C7BDB4329E3C296EB3BD4D0D243D8DD991BD1292003C36546FBD9D08C23D67832FBD377D923DF1299DBD5070763C4CC8C6BD9E96D63C4CE203BDBC3FDFBD7648A33CA2CF31BD591235BC2B2674BD5A9C86BDA373CEBCC67B5A3D154DB13D2AD0D93C59811F3CFBA13F3DCA9BB53D7F8A4F3DBEA9B93D41D08DBD275F9F3D7B9AC53D053B6A3DC6991BBC94E7A5BDD5BD2ABD4B562CBD1A6378BD2F0903BB67C7AD3D3C155FBD2A448F3D4CC0FEBD91CCD7BC74431BBBF793573D31F9BC3C24CA8B3D3720C93C01F33EBC7F4DE63D5A7F983DE8B72C3D5D52D9BBFF258A3CBD20023D51636DBD2BC890BB2C6E973D7485953DAC5A57BB9DC2623DB54520BD2F52443D66E6A9BD2CE6D43CC613BFBD8629D43DF5D79CBD0B5C55BA5C909C398E33AA3DB4B03A3DE6571C3CEBD3733D333B10BCD3C0AB3CB3EF8C3DA891E6BB4259B0BD46A89B3D0A74A43D32571BBB081ECE3DFDC52E3C6883ADBC0FB49D3D2AA5CBBCD18E2BBBF2EA01BDE533FCBC46F71DBD8C894CBC705C843DACA687BC22500A3DE3F4A03DBC12EABD050CCDBDF99CA0BD5E81933D12522BBD54D187BD9343FFBC1601BCBDDBB93BBDC6724BBDA61DBC3D139AC339B54C67BDE35F453D9010B0BC14959F3CD86CA63DB59917BD5769D13B082A093D632AC0BDB8AB943C252641BD48A7AFBDBD8D643DABD130BDC351A53B0AB3083D415E983CA70D1C3D201B433DCDD4AE3DD343A2BC6C978D3C170D823DB233A33C1444933D267D2BBD235AB2BBDF34423DF1DBA7BCC49467BB08BD923DE220B5BD487E843D4E9DA53D1AB887BDB15878BDEE0E803DA68B353C09788E3D8CD56EBDEBA9943D31CE5CBDF484603D6B5483BDE329863D36B4CC3C1BA323BD01FCD23DF43282BD00BB89BDC9D12C3DE8CEE3BD251715BD664EBEBC26B6BA3D05249BBD4AC7353B6D909FBD6C7BE73A7E9BBF3D8D61323D804B803D91D8AC3DCCF313BD24C30C3DC6AF84BD6D65CABD176007BD8A98B9BCCC7205BD309A93BDF65DBD3D7C4353BCCA74283D567418BD36E3BEBDB8917FBDC47D553DB5E28FBD052689BD629DAD3DDCDE5BBD274DCFBD22A529BDD63586BD6E20CB3DFEDD09BD0A2CAE3D07B9983D9B16F0BCCD0954BD3AE9843C10310D3BF400A33DC2098B3CBB5F58BC95DA233D125D80BDECB1E8BDF7C406BD62551B3CF59A513D64B5503D72EB913D694F923D8AEA3B3B10221E3DA359D63CDE8CB6BCE311343D60855C3A330E3ABD1BDCDB3CAB13973D3769B5BDD09CA23D58FA993D7F88F0BDA64958BC5EC902BD109FCF3A7C4CE23BFD6109BD040880BC477E87BB6ED6673DDEA0AD3D8AE14D3D31C0F43C4587C33BD2C09FBD9B2B97BDF8C58EBC3A410A3D5614A13D0118813CAEB3A63C3A3EF1BCADDC833DFD1B81BC66303F3CD344BF3D4AC8B83A675315BD45EE08BD8F71A53D5AC62A3DA7F8513D1BFD583D9E68C43DF4FA3C3DE7904ABD9920B6BDAEC86A3D3E1B92BCE9C023BD5E49F83C3FBC893A2E50963D66C9A93DEA1FD73DA5EF8CBC274D573DA24E8D3DE75DACBAF57A163C44A4633BB56FFC3BEDF554BDDA4DABBDDC76D1BD8D75B0BD7038443D2873CB3B0E4BD4BC5D7EC4BDBFA9143C4DEBE8BC6B6923BC79499EBD270B3B3C04F4803D75A88ABDEFF51ABD8B2000BD534649BBA8E18ABD951A91BD7918393DA2AF473DFD40D8BD67148ABD079A133B5151073DD72F203D930791BC098B3BBD6BD8AABDD246CCBD893128BDB688AABC1C36D53D9253C9BDD807B93D826489BD2806173C7A3956BDE046FC3C037C3F3D47A383BC2FEEE8BC496DA6BD0B31C5BC6866A03DBFCE85BD2C71AFBDB8F3A93DCA2E4D3D04C245BD6F538A3DEDE425BDDE42093DBF8FBE3DBB4D683D7D6CA1BD87D9D13DA6BEB5BD77DE103DA7C811BDF5D1A43DDAA831BD3AE197BC3AD52ABC7A6802BD865ACF3C9D4D64BD8A6E863D8BAA67BD1D268ABD6B909EBC4431023D7545F5BC9061F9BC26CB74BC9BF69FBCF35B1FBDF8288BBDDB393CBD028783BDDE86DABDF0207F3D8D2325BDA50381BD109F74BDD8A0DC3AE686AA3C2CB654BCFF90973C1B7D49BD5F278F3D5237173DDFCE90BD1D7E2CBC0B0A29BD5C9AE3BD9E7F1E3C97BCB13D0C7E81BD7127753C8C96E1BCBF4122BD1B9AD8BC12362CBDBDB614BD8769D43BD155DDBD65E1D7BDEFB3493D693A98BD2E48B7BDCB5888BD800836BDE1791A3D62D198BC3620673D0F6ADBBC2262C6BB2BF87E3CA3EE30BD7BBA823DA4BC7EBB72078CBD04E3CB3C5ADD8DBD7B6387BDAEF727BDAEBE98BDC8D302BD8AB07F3C73F1A43B556EE93C3486A8BDAE82E3BC377995BD9D1DDC3D4040F3BDEAB196BDF9AFB03DF2A373BCB1AA923DFBFCDFBDBDFF793DF1EB66BDD1A698BD0D4E8B3D7C605BBDC7639ABD6FE93ABCACF0973D8FF79C3D1C807CBDA946D3BCF98D94BDE476C6BDB072C4BD4CBF50BB75C3BEBD351557BD0993C8BB76998F3D6BDDA7BC9F02B6BDA54FA53DFACB773DF0B46ABD9347613DE2FC50BD06FAAEBD2303D0BD69BCBC3D6AA3FB3C76D1D93B4CE4B93BFAC1C13D8D9D0A3D34B1BA3CF1009CBDD417BF3DF4C05D3D40AB36BCCF905DBD68E114BBEE5ACFBC79CF8F3CC79787BCE3AE95BB3C26D3BD87293BBD8F032A3D00651ABDA89926BC2A0A9DBB826EC9BCECFABBBCCD46CBBDDC7C92BD973C69BDD256C5BD70D6F5BCB268A83D99EC343DF1506B3B3323863C9D9E183D98768B3CC034D3BDC1FAC3BB9B738BBDACCE8E3DAF36BB3D2D2AA23D036D4D3B7CAC0BBDCD8DE83D0EDECFBBF16956BD5EA7433C309C353DE37F223DE737983D8445593C400BE73CBB8845BD9C6E13BC33CCBC3C2A4F173D562134BDA48CAD3DD7F8A8BDD105CD3B90F6B1BCE675A03D969E42BC35EC283D01CCF4BCA7C692BC9D1A1C3C1B6290BDDABC4C3DE6D75C3DC33BADBC0432253D1F8DEC3D4FE74ABD155244BD87F3B9BCEA1033BC41BD9EBD3771A9BDE48AD53C290710BD858807BD5DFFD13D1B75B9BD80477D3DF06DA2BB69D2D53D85A164BC9AE1923DD10E2B3D19F77B3DA37CBF3DDFE87D3DE098B23DEF6B85BDF2C21C3BC690C53DDA88AFBCC7AD86BCC5DA48BCB1625EBDD320F73CD6768B3D25BB46BDEB9759BDECCEA63D6B1EA1BC2A4696BDD0D49F3D0039863B5838693D26E0743DC6128B3CD156963C0255BB39AFE4A33DDDAE373D0943F93D1F38DF3CD2096ABD47729FBC8A1C94BD86AAB2BD5D58B7BDA486F5BAEBBB583C22BC833DB36D853DFE2CDA3DEC7E12BDC089C4BDE198043D5803913B6B20F63CC8CF52BCE523A9BCF6A6813D2C8C443D3A8AEABCBA33AE3CB168F33C2F08B03D82E188BDC7F2AEBDBE18BCBDDFDC34BDE4F7203D0254303D96E72CBDEDB7F0BDDA0792BDB5DF84BD54A454BD472E673C87CA89BCF061FEBC0ED788BD45CEAB3D6E41913CCC61C2BDD5B9ABBC3559823DE83CB13C576807BD57F2943DECD1A8BA28278D3D986F8C3DF73231BDE670653DB6AD7C3DC85D73BD204160BDC50E1ABB2DCC3B3DFC7CA83D937451BD821156BD5C10013C1D416D3DE35F363DD956A63BBE214C3D9F8EBEBDEB2CDF3D344B353D1A5A45BD4408B73D7528083DEA63C43DA1EE89BC272C883DB741823CD2BF9A3DD4BDB2BD1A7BF83CAA933FBD0E11363CE53DB8BD468487BD549C543C7E54C4BD8CB689BD2DAA48BD3802C73DDB7D1EBD3E2BA5BD8930B6BCABA11E3DEC15123B0120893CAAE64F3C337ABEBD3DEB5FBD292C3CBD7960A5BDF897813DB072803DB9556E3C55954EBDBEC2B5BD6E4001BDCEDF8EBC084AFABB38B215BDDC959F3D3CDF623D79AA4B3D949A68BCE05057BD737B813D81A6BABD1CE96BBDD82358BC483144BDCD15ADBD07115F3C2883403D189CF73CAA7ED2392071B53D4753B8BD77C590BD6BF3B63C19F5753D630551BD1290AB3D8E8B04BDBC1C4B3D7CE55BBDC70DF13C053F31BD33E282BDD2778FBAAE82883DBDA73A3D6C83813CA3F5553C4E71D5BDAEF06E3DFAECB7BD9886A1BC1735AABDAF6DAE3D1F0A6CBC27289F3D239E2FBDA79027BDAE79A83C3EB200BD7DEEBF3A37D634BBF482ADBD187671BB63645EBD5D14893D207BA13DFDC810BD91C349BD58D2B53D591BD23D39EBBB3D3F77873892C0A63C01E366BBF105C63D02D9993CD048503D63ACB4BD10571D3BD864BFBD96C3D0BC03798E3D429826BC6C65253D80964C3D5AE2363B5B818B3D14DB903D8798EABD6E8AB73CBDB525BD1085D03DDCD1CCBDDEDD4FBC01ADC7BCA900AFBC3A274BBD202A963BE6D55B3D157F31BD2AFAADBC5FAA0BBD0010973D408EAF3B997AFFBC9B3726BD9341CABD2A5DE3BC9DCB93BDBC1C903D78FEA3BD3C42043D9D55833DA00F03BD1036473DECCAB83D0988B8BD98FA333DAC0462BC3C71813DBF83923CA3B11D3DB0B42DBD9A3B6A3DD4FFD1BC63B8933CC60B883D1BCB76BD789C2CBD03709DBD82473C3D814E87BCFC83F7BC7DDB8CBDCA55A2BD013C6B3CB1564C3C33A9793DCD4993BC66D0063D3CCB41B7E3A0D03DC4AA1EBDA8B0653C27DDDE3D0A5577BDEDACB93C7F42ACBC1DCCB33D2766A13DE7669C3D05AC84BCC0025CBC7F9DEB3BD0C1BDBD681A5ABD16BDA83C82FA363DCAA49ABD490382BDFEEE393D9CCE3A3C9516823DDA959EBDCC0748BD14869B3CF9EAE5BC1B72013D1761823DECCC413D1F4DF7BB4F1A1EBD33E797BDE6F19D3DBC44C03DCBA49B3DA1FE073DFB635C3DC8948B3D45569BBDA6B166BD2639CFBC762021BDBEBDC8BB937DA1BDCD33893D82770BBD6ACE02BD8EC24EBD763D0CBD101B8FBD86B93ABDE48352BC50C2E33C7890F2BC5831C6BCD5EBD2BC61D97F3D2828E93B7B00C63D3321B13D6C7EE23D0C791EBD01639CBD67B8793D8819C5BC5BAF283D36B09EBBD03575BD123995BD9FE8BEBC384041BDC60DF93C435D8BBC90ECA1BBB827393D63CA7B3DB9C5483D73E87A3B23B70B3D571A69BD7BA5EA3DCCB4843D5E4E42BD655F8FBD3E3994BC7D6B37BD8AF5943D62D6BA3D6CF7A5BD059FE5BD29F8FB3C592840BDF457033DDDEE3C3A2CA00D3C9B1B6C3D7903823DA73B86BB8ED601BB06F0273D2B429EBD32896F3C7AE9DBBCC3B7A4BD60EA383D6B53953A57037EBC537539BD9D5E0C3DA8E6C23C4B7825BB929E133D0B87A73C24FAE93BF9D3B2BD28DC98BD113BD03D2592233D417A97BDAC3989BDB7742EBDCAF9CDBD07585BBD41A1183D6DB9113CDEBF8DBC443A8DBD4A8FFA3DE86D0BBD7F9EAFBDF75692BDA8924F3D3A3E32BC08667CBD5B34BBBD0AAFAABC5765CC3D40594BBC3DB98D3B42371D3D08D60ABB33A5ABBDC41C3EBD5AA81B3DDE246CBC50F80C3DE08643BDE1453BBC8BF283BD3A2DE7BA03BBAE3C7D2870BC7B9FD73CF076843D773209BD020DDB3C66533E3CF6F8413C14DDA6BD72923B3DFC9606BD4C39813D1AAB71BDC2E50E3D3720903C77620A3E0ACCAEBCF90846BDC539AABD4A4333BD7D4E48BC5E38C73D6479963D256BB4BD9444FEBC583ED0BB2A30E23C4685813CDB7B633C9C43C83CD7B76A3DF1543DBD9CBBAFBD82DBBF3D5486C13D2FBF2CBD6E711DBD51E19E3C37E99F3DE71C0BBD9F31A2BD2F5E563DA48F1D3D8E4EBDBD7DA690BDBD22C53DA98DDC3D1C2FBDBBA1B848BCB6649D3D88885BBD0710B13D0272213C1880943D8C88003CC7E8C93DF30E9C3D3585DBBC24DCD1BBDAD8A63D4BBCB2BDABFB593DBEFF84BDFC72A63C58622BBD3024B83D3F8F66BDF8BD8EBDAA572C3D4DF2763D4BD6173DA521823DF624353DCCDBB9BD333EC9BD9AC430BD283C2FBDE3E659BD861C29BD099373BD0C6CBEBD8559953C1D7A7EBB895D0C3D319A5DBDEB79103C50F6A33C15E39E3DD66352BD90BD813D1B95213DAA86AE3D5180FABAF8155A3DCC9A8BBDF95415BDE9E4853CBCF3AABCE6C832BB054CB03DB752F5BCC6F201BD465A00BB84A932BD1C1D8F3D98EB0E3DCC5ACEBD12E8753D5DEA8EBD220863BDFB778FBC2B05D03DAEFB82BB143CC0BB1B2FA63C28FB24BD46E888BD8E50613C0BC883BD32B35B3C259DFC3C0E90273C4F25A33D0E54B0BDFE0C63BDFC76813D7C7DA93D815F9E3D6C47D93D4B37113DA8A7B73D9A65063C991490BD4138983D5C3B55BD04D19BBC961BB23D766C5A3D7FD2DEBCFB1D653DACCA593D2B8811BD86ABC23D418513BD0128463D0373453894B383BD5870A33D755F243D5322BA3CD4229FBDFBF8BE3D4E7D4B3D4D9A73BD6D03F63CF5BD2FBBB7E5BBBDE1D845BD14D2983CD9AEB5BC3223DEBC2EBF8DBD661590BD1927203D93869BBD53EC993D125EC6BD05E7623C0B63C83D1C77EC3C25CE153DA343CE3DE6F7363DABAAEEBC3D7BABBDB48BA03D1BD574BD2CE80B3B16C47F3D4D2F273D238D9D3D846D28BD47E38BBDE0BA45BD7057BABD075ABF3DB31A093C7979403BA9F481BB03FE56BD93EBBFBD9DB344BDD722A83DF7630DBDC07A89BC5C1C493CC7C8A8BC367CC23D237D1DBD59D0F4BC1D0E963D1F3476BD6900583CFBAB583CAAC0D0BC44FCC2BCCBF1BCBDC43737BDE83A85BC58263EBDC86ACDBC319DA3BC6807AA3D77B7AA3D8490A93C5BB8A6BD38D6B7BCC28B4BBDAC8646BD78BBCB3CC23183BB8985B63DAFF1BDBDECEBA93C6F1328BDB36E7DBCFD64E7BCD5635C3DC89EFB3B148DAABDCD9C35BCB010A13D4AEF753D84B5ABBD400989BD2BEEB03DBE0D9F3D8088AFBDF3D9C23C9C77993C93B9E33CC22FC03CBDA453BDCF3A7BBC6607D33C5BCE86BD8B720E3D9D989CBD3C6A493D0AE7AF3DBFD682BDB40C6A3CF26EF43C62C3A23D6D6E5CBC41481A3D86EE753DA797BEBD0E218E3C02A8893D43097B3BD18A303D2E8DE8BC7C5E32BDE081093DE726893D3A68A3BDEAB8413D755A7DBDFDB74CBD0F57D1BBA4F7023EC4F467BDDB6F9DBD82D43BBD450BACBDBC2AF8BC8AF393BD36727C3BD160C8BCAB7CC33DEB0DE6BCA5640A3DDD92FFBC3D79563D3015013D9541263C46C485BB9DDA05BDCBFE7DBA6AA85EBB59C0973DBB0692BC42AE8B3C1727A33D1308753C97DE153D823F9BBD7B35963DCF49B9BD224EEF3C135A943DD2A97C3C8054943C9A624CBD50CC283D3EAD8A3C01642C3B150839BD73738F3D89EFD43D47988BBD61A2A2BC5637B73BBEC6993D507BD83C4109603D7499933D7A05D53D4CA7A53D6324B53DEA9F393D2B9635BDADF37C3D6C7F093DC18D8ABAE178873AA55B6F3DCE1EC73DF82BB3BDC62FE1BD6994A0BDA136B1BD2DE6713D99A7AABC07B79DBBA68265BCE4C173BDC144AF3D0ADC4DBDF46A9CBD9976C93D16A9743D08F1FA3CCFC5393D93253BBC03247FBC03FB8E3DEA0DC93D95A897BD224045BD65D1E23CB158263D651A2A3BC24EC7BD8CA832BD0328923DFB9B33BBBC33713DE6EAFDBC38530E3CCD90FCBC249091BD7922873DDB24853D793E033D0105AEBD9DFA7A3DD047CABDCBDD723DCBA9C8BD66ECC03C1E799FBDB3E38B3CD1300CBD8BC7513DC355FD3C278A843DF7E83DBD1ECA913C0D5AFC3C685239BD4B15FA3B24609B3D0239BA3C39D079BC6C899ABB63C56A3D9C89A7BDCAC51FBD1B356FBDC3E3E3BC79968EBDD3EB7F3DCD6390BD08FFB53DB436D7BBFDF6AEBD256A483DE727A73D1E3E893D620321BCC0E557BDBDA4D23B7A60813C18059ABD6C5F793DB45C15BC4CB1A6BD14E5563D9FAE393DA339873D5EDACC3DEBD1C1BD4CA5583D0A449EBAD96D523DBD88ABBCCBBBB6BDA0BF2CBB80B9D8BDED52D13D0B6057BD24D1C13DDC7FABBC6B0DD93DEF9F523D7466683B64D0E3BB932F2C3DBC988BBC2A2ED9BD6509F7BC80A895BDD9E3F1BDD7BD993DC50C06BDF14FA5BD0D72373DDC335A3DAE87663C8F1CB73D057EF23C811B92BDA662A0BC43C0933D2F6C2A3C24A381BCF86F5D3D2EA5393D9FABA7BCB645A4BDCDE3273DB726B63DF600CDBC1385B33D9DE29B3D1AEE11BD22BFAE3D21D35CBC9991643DAC72213CFBBED1BD78C2CA3DFEC2933DF89A913CE8DD113C0210A63D7D2ED2BDFD88A6BC130AF53BAC7EDD3C02464C3D91A7813D4779AFBDC7FEF7BC336A6E3D760429BDA6C09FBDB4FABDBD66CA43BC0B73D5BDB9EA7F3DFA6FB93DB20F273D3650763D9589B83BD5C411BD27CB1A3D91B03CBD69DF8E3DBD3FE03B9614B6BD962C81BC4E5BE13DB0ACB0BD37B74C3D953A5ABD11BB00BC2BA54ABDEDC23B3D1038D03DE247343D995C7A3D5AC5CE3C07E5DDBC059CB9BD1F69CC3B163501BC655418BDB6B62F3DA9AE3ABD7A262F3C724F193D9867523D95E779BDB4D75DBDC157CB3DE879A63D623CE0BA116236BDAA8470BD892277BD63E09B3DDE1780BAC4D1B4BB2FC3FB3C9BAC9A3CD51302BC5464DD3CD6F3933D6CC0AD3D55BDBABD5FA6EBBDE5539A3DC4C7CB3CD678963DD9924DBC375AAA3C6A7A3F3D9604AE3B1349713D7F16A9BD3C1F85BDD66632BD3EE606BCA3EF5F3D39478BBDEA90803D8F60873D8C8190BB0A8759BCC1A1F63CE10842BD0F1ABD3C653E6E3D61BABABD935B8FBDD6B032BD0B5FEF3CEC06A33D31BABC3DB1FEC53C5EB41C3DB1124C3DDCB06E3CD6AD8EBD0EFA623D405CABBDD2EF6E3C4ECC9D3DC0666CBB6E43783CFB31C23C810792BD012B9B3DE0F8143D230CF93DC352AA3D00B6773D58F18ABD4313343C25BBAABC54DD0EBDCD4CC2BCC267BDBDDD1B993CB7472B3C55718EBD9EA22D3DD2C7703C3925523D6413EB3C571BA2BD4299853D535D4FBDAE8E9D3DAFB2A3BDEFB3623C843292BD543DB7BD75DB163DC705BD3D4B0D80BCD8E6E33CD87D67BD1DCACF3BC2C2323DC6138B3DA7C01ABCDFE4F8BB14DD5FBDD5E3173DDC02B13DA8C0C9BCB38DAD3D5258153DAAE2893B38938B3D9DBAC03DFD02043C2F64AFBD297BC5BC23DD90BDDE3C2BBDFF779C3DF97B16BD6BB6843AC42707BD45BDD0BD63AD7EBD5C971C3D66429CBDC4328B3C2A5F753DE0F0743DFCC6CB3C61309BBDF33B523DE50F143D365A2D3DF770C3BDFFFF663D28C9C43DF597343A02CEB4BD6A7AB7BCEBC46EBC439A403D33507EBDD5D97EBD1084D9BDCE41B43D87901ABDDA028DBD641C7ABDCE6ACABB18D78CBD34482F3DE8989B3C06E9823D8C71BE3D0442B8BDAA2156BD5EC9D3BD89CC813C11095CBC81EFE4BC721CE8BDBD9095BD8E5D1C3D3F9C35BDD7267B3DE9B89C3D064E27B8BA85643D5225D7BDB029A83D5148253D2B910D3B3761A43BA3C8F2BD6D3B86BD2BE8C33DFD4BB33CDF4DDA3DFF9BCBBD8D1600BD463C873D108B1EBDE64EE5BCC2473B3D5A0AC83C65DB4ABB34160F3D3C3AB4BD747297BC5A1AA13C3773B83D6D378E3D9024C03D5808893BA2F1923C200CF6BCD03AC5BD1ADB803DD98E26BD9029C5BD0A4DB9BDC6DA62BDE01CC2BBBA5A96BD75346FBD596700BA2B57AE3D0351E3BC019D0ABCF7F64E3D68CA50BC1E30163C2CEDF5BA2A08D7BCE651DBBCD3CE31BD37D0C7BDB7BBC2BDEFDF3ABD56C6443D91D290BD5160763D3AC5883DBDCFC43DC14CE3BC063CA03DE780DF3CAFE8A53D5E5C383D43788C3CA880A73DB3151E3B35B0A93DF78935BCEECA573D9D99203A6DD1C93DD3113E3DE0D6143DE5BAA5BD0D568BBD7CB033BD6D0FACBCC899CDBC8E1ADE3C439617BDFB95B53D17D0D3BC0DEF50BD3D845A3D6F7258BC17238B3DF082EF3C17F0053DAC1ED9BD1A2FB03DDA984D3D4CCFF0BC3EBCFC3C40C393BD450BB03D0E7A0E3D70BC93BB8E0DD0BD60B8823DFE03E1BD03D7163A8F384C3D0E5E8A3B943EDBBCE0BFC23B45D5A0BD23B06FBDFD936A3DC82598BDD520E23D25D8293DF3A208BBA187A9BDDC4189BD9D1D803B6B4E963D1D81DD3DC4497E3B22E80C3DBBB3D9BD0D4E96BD118F7C3A35E20DBDD858CABDDD9DFABDC4028CBDE639213D676790BDDB8DAABDA7F3BFBD0D4BB5BD4F1F693DE7B2EABD0C6147BD0F19A63DB5C3AB3DB141363C5210AFBD73C0FD3C79CA803C7CA583BD7F389A3DB24E3E3DF15B88BDDD7E85BDB8F1BC3B32F16EBD596FA2BAD9D151BD603B0F3D7D7839BDBA823CBDA7A59CBDB2129CBDAF2CCC3BFCEC32BD631F953DC877363C09685A3DA48388BDC418873D15AE28BD405899BD1F95A5BCBD0E753D78E2FF3C8343213D35E3CDBDA86F953D6B77273CEB18103D9EEE093D2BBB583DE0CDC5BD9F84EC3C5FEDAD3D20F1D0BD2325BF3D5FDF233D91961EBDCC3C493DD22447BC8D32993D8D8866BD69BC8FBD0D408B3B0E68A93D7FEDAEBD52668C3CD6D6543CB64FD0BB864DB83D664C24BDEF8F25BDFABED83DDC129EBD0BBAB7BD84F3DB3C90038C3DE3DB88BD07C028BD2024F33BD3D46ABD892C523D494B2FBC092081BD106E4CBDC59E86BD0EA18B3D9D46983D31BD693D047DED3D20D74EBD5E450E3DCA4376BDE0ADD43C0812853D8A9BA1BD9F3ACB3D96A0B63C9B1BC23DF7D3D1BC841B8ABC93FF89BD71DC9EBD0507A3BBB1A8A43D2B76BBBBBE37FABC7ED4993CD6623CBDC086B83D592BFE3C316CA53D40A981BD0EF24DBCBD42123D73A60BBDB5FA463DEC7C963BB28A95BD08BAC5BC0302653DBAD0A83DD15BB2BD41B8B0BD9F742B3D7A219ABD4A17013C1188273D6F75703DA2008FBD1EBCB7BD908F0A3DB9BA3BBC2552DD3DD957CD393925AD3D900928BD298C6A3D75AAD2BB6A4FA0BD4ADFAD3D4AC31A3D2DED84BC8047803DB05C203D70D214BDB19547BC95E3F3BC73651DBD7EEC273DEE72683DFAD1BC3D665CB73D3488E93DB4118FBD79435CBD06B1B03BE6BF963CFD6CA13DB4DE9ABD90FBA7BD8A4DB13D6051613D71E8AABC2E22813D856FB53DEEA7E5BA76B6FCBCF89EBB3D9B7A7D3DF98CEABDB09216BDB414A53D5AB4B4BD58DCF3BC5C0BB2BD9B309A3DA9518DBD81A0613DDC32F0BDA3063F3D9EB09CBDE0B6403DD1679F3D25EDA23CD5006E3D4B00C2BD65B52ABCB60FACBDFF7ECE3DB44FBF3DF6431F3CDC0AB93AB18D193D69E34A3C0AE1B3BCAB0C243D45C03D3BC29952BD3D7ECA3D000992BDE770BDBD80F787BC4691BB3D21FC883CE647AA3D29CF943D46DF61BD581881BD0A6C96BC3C84A73D6F9F66BDFEB720BC12454ABD5B0276BD94428E3DA5DCE43C92BF0E3B5552893D9EC7283D6E499DBD4A83B03C764E083D0EA98BBC04D724BD6C64663D07B7AD3DDFD189BDCF5B573D9A7D783D57C2883C82424E3D576F813D24F1443D32F8CD3D1557D53D0A41C9BD27F8F6BCE6C1A33DCFE605BC90AEA0BD1B04FD3C1EEAA53D0A72743D61BA563DBF344ABD81F0B1BDE66BD4BD57C3BE3DF9D3AABD890EA5BCCDFAA9BD958089BD00323D3C500D6B3D9BD7DBBDE55267BD0A32FDBCFB0C46BD5B4EC7BD42D055BD9B2DDC3CC527A33D8D528FBD202A1EBDF145C73C991A34BD7034473DBBF9B4BDB3AD013D2C20BEBD1BC034BCD3F58CBD6086843DF10F403D0EE070BCE763F8BBD9CD333D03B1FBBC4DDD5ABDC195803DDB1591BD03834C3D7E18DE3C673E46BD5B4783BD447312BD6670E3BD935165BC2B37C33D4352AE3D1F7F923BD8B9C0BB7233DEBDA7378EBD4B9DA0BDC75A833D475997BCB13C92BD2255F5BAEC3B79BD8907963D99B13B3DE9BD323D606A513CE54D303DF46D86BC66F4B0BDF2401BBDB365AA3D1BF885BC1DB69EBB2377A53DC5A67D3B4DAEAABC32186E3DE7A2023D6618D8BD308DB0BDF0A21FBD2C7D293C9827993D8736BE3DBB1AE6BD84C3C43DEF70883D81710D3D299C12BC660E533C537C083D565884BC965ED23BFE2709BB70978EBC5A4251BDED2EC33C9A03EC3C068CBFBD09D5B73CDB66A03D0ED085BCAE2493394B6CE2BD9B3CBFBD7DA2AD3C4A5899BDF6208F3D77BE6D3DA4D82D3D04ADA33D08599EBCB667833D796CB7BBF3368D3CA38F4FBD394C27BD1B7A96BD8845073D9D9BD63C8B5C8ABC1C75823DA9004CBD10B652BD67324D3D63719ABDF193A93D10B59DBD75460B3C03A68ABDECE3C83DB8D403BC0942FA3C6B2FABBD54C075BA4396C8BC9B6F053D9DE5EABC70D7A3BDC72ED6BD6CA0A93D5F6CCFBD5340C4BD0A02A83A1AFA973D1FE8DEBCA8D60B3C53C335BC4E49B8BD339EF2BC070B193DF2AEAC3D188D253D1A3D35BC342163BD147114BD7B2BBCBD04F4993DBF1D513D625A2CBC3F7487BCAB1CEBBD0037C23DE8244DBDE567273D19D89BBD9F7DFD3AECDF223D0F3F4C3D9F4EA53D12D2C33DA859C83DFE641CBD72C7183B948C6C3DA4DC2FBD9A6C9CBD0C9007BDCF2C13BD707030BDCECAB73D8A23A73D513FBCBD30896BBDA22BABBD7330ABBDCD4D84BD8253F4BD370BC0BDF366AB3AB19399BC2A329E3D466BB6BCCAC69B3C23309C3D0ECB3F3DA47C173DB337F63B234584BB65669FBC900C413D6B7EB2BDE64D463D2AF4443DE783083BACB602BDD6157D3C73FB923D1CED6D3D5C8902BD9866A5BDBF79BCBD3FEE60BD9D3FB93D40E6AA3D247212BD439E62BC885D59BDFF178A3C98A1A0BDEFB8A0BDD0799EBD3AD35D3CCC9713BDCF83213D642EF9BD3DD6773D8090933DE0A573BD414428BDA35A1BBC1A5A3D3DC1589BBD23A7733DB86ECA3D5D8ED0BDD2B41B3DE180D33BEB38A4BD620D73BD5D5C3CBD5F64CCBD7A9AD23C815A673D25A3A6BC7E2549BDDCBB133DF498943C05D03B3C22F237BDF826EFBC4FF4463D9F1D743DD9E03F3DEF83BB3DA8ED2EBD150A97BD16C711BD31B3983A5E8288BD0C9D96BD218648BD4807AA3DD3F69F3DA52DC53D8EB6113DACD164BD992AD3BD3ECE19BC176FA9BDA08CB23C67EFF53C6D4690BD1ED092BC02089F3A23E7C53DBAA487BD02B74E3D52AE16BD5515AB3D26FB9F3C9113E13C295A59BD208104BD814655BD6E5657BCC5D6963D608923BD74A0B8BD5803ABBC67CA84BC4893553D8D7D30BD1344E63C7C58703DA43066BDE9EEDF3A4ED3C33D214171BCED97E63C3EEF143D2E3203BCA2096CBD4608BEBDC0663BBD5C48013E0CA79D3CFC9FBF3BC41DAC3D3298863D810818BA308FACBB7AC295BD58F39C3DA332A53D8937AB3D198280BD5ABB0B3DEC748F3C287FC0BC81B3D83DA17073BD60BA84BDF05D5FBBC3F4A1BD254EB9BD93AEC1BC4FDCFB3C959BEABC0B90453DD179A33D67F09E3D3CA0AA3BF24085BD6BF0AF3C74231BBD7E4FD8BD954294BA71A4553D67F96A3DEA4ACFBDE2BCC03BE53E70BD06E94A3D2EEF9D3DAC1316BDB0F34E3C7D91C6BDBA771E3C427C8A3BFE5EECBC77365F3C3430BCBD527EED3CB3DBC43DCDB15DBD5F1DD43D2214D2BB52DB4D3D70F988BD427BAB3DBBB3D63C8865813D7063ABBD5AD336BAE637F6BDD39C02BE961F89BD08FBA1BDE9EE8FBD90C794BBD01577BD6A4C53BCCF432BBD72AC2EBDCF5133BD6164B3BD9FEF64BD2FB4843D877A15BDE5BC543C56F926BD2E5414BDB4D8003C2EE052BC14D5B3BD106794BD4C5D27BD3581033D887B12BD7C71B23C9984FCBD211E8C3BABEE863D47B1023D2FAE113C80F8493DD1C4F8BC9773273D4106CCBD166A6B3D67E8EEBD7A5E30BC6FF147BD90682B3DF3398E3D9F7327BDFEB3CC3CDB8746BC6E0756BD8BF0DEBBB1188E3CF5CF843D3BB6773D373FD7BD5D292CBDF3E9BEBCB037303D0EAB8ABD4B31F0BDD86B003DB18E603C85108C3CBFA2FFBCAB0467BC7598863D0AAD603D246B553D77E85C3DB833B6BD3F980ABE9D69D9BDF1CAA63D508FD2BD4A06B9BD040B9F3C6F538CBA059D903C8D5323BD5FDB9A3B6A75C5BC99E9B43D6ABAA43D328545BD28EDAE3B8C3900BD6E0CB23CEB3A7E3B7F1B8BBDCF50BABD0C73D3BD4A063CBDD55C5DBCF6A6853C7981A73D3AAC5EBD0731AC3D09C5623D348A1F3C0306A0BC2C2F413BDE585E3DEAB3B3BD8D3E4BBD65504C3DC96D9B3D1683823D82A1933DD39E3E3D19CAB43DCE336A3D7567133D7AB1F6BCBD75863D1E3DAF3C79A6CD3DD2C9D2BDEB9F51BD97B01C3D812D06BD91C2BFBD8C6CE1BC451C473D5F27C23DF7757D3CD2228BBD76F3C73B8821743D2C8CA03D8AF6033C80AD66BDDC1C4CBCA2064CBDB502753D98B4A0BC5E0E6FBD89FEE73C5B7CCD3C8AEA85BD04773DBD2B82683CB7BC2A3C1B3334BC5E4E203C38E89EBD712BEDBB2589563DA920273D9624C5BD8F72EFBB5D40B1BD3C063DBD755C8A3DFDC94E3D1C3FB83D4C15973D3A88163DB117983DEAC2A73D80D3A8BDD2B4A0BD82E0B63CD3DB573CF81EA73DD6EECD3CCB424EBC36FA5DBD2D11993CF2B7D4BD4EBCBD3D78D1D9BCF93E84BD80A929BDF8DC23BA637AA9BD9F287A3D54E88CBBD31A89BD79D4353DE125A13A93ACA0BD049D9A3CBD6433BDFDBCB1BD6E80E43CD6969DBDD992423CD2D2C03D23B4D8BCA2AC923DB2B88FBDA9FF9A3C0C5A9A3D8A9AEFBC3E529C3CF0F053BDC2249FBD35D4963C60F901BD68ED5F3B0483DFBD7CB33FBDF4F210BD55C8BB3D675C803D6E9C3BBDA1F1A8BD12EC60BD552B2C3AC429B0BC15F0AABC4B8A813D3E487FBD3AD5BF3CD35DB2BD019944BDE11F8B3DC3EB30BC3398203DBA99163DB25BAE3DDF126D3D42894C3CF986E83DE630ACBC1FCA6DBCBDBB31BD3713603C017048BD369F80BB3FDD16BDBF789B3D8A67C33DBC9B40BDE11590BD8ADF8E3D37410E3D5C1392BB90B6DDBDDE259D3C1685983D4E1473BDE5DF283D2ED244BD0141143D42D7CABB0B00C6BD2FE5EF3C64ECA3BC380E643DCC3592BDF739B93D25BBC43DB07724BD7673BB3CE614923A0FD91C3D929B603C90E80A3DC683113D981C9DBD65E78E3DD1139ABCAE838B3C"> : tensor<100x91xf32>
    %cst_0 = arith.constant 0.000000e+00 : f32
    %cst_1 = arith.constant dense<[0.124383174, -0.0070151058, -0.0175288524, -0.0659423843, -0.0320610665, -0.0761952922, -0.0421681479, -0.0841854438, 2.99313338E-4, -0.0457721055, 0.071794644, -0.0426440351, -0.0757470726, -0.102704547, -0.0445701145, -5.992540e-02, 0.0595365204, 0.126622111, 0.00702808099, -5.598390e-02, 0.0215369537, 0.106027238, 0.0923645347, 0.0615128651, 0.0751247704, -0.0365737565, -0.106877811, -0.0262501501, -4.657830e-02, 0.0532151684, -0.0291753523, -0.0423551723, 0.0545743667, -0.086718738, -0.0768222436, 0.070224233, 8.239690e-02, 0.0939753801, 0.0583806783, 0.0938923433, -0.0357885361, 4.551150e-02, -0.0303120725, -0.0436273366, -0.00120102556, 0.0179543104, -0.0913814902, -0.0152858971, 0.0049399077, 0.133487031, -0.0911453515, -0.0463640764, 0.0541854054, -0.0445920229, 7.588830e-02, 0.0879601314, -0.0698611662, 0.0152402455, -0.0053748861, 0.0416878164, 0.0252368636, 0.0701711401, 0.0760904402, 0.0730597749, 0.0684981346, 0.100580223, -0.0751223713, 0.0140261101, 0.0956867188, -0.0269940179, 0.0145018343, -0.050701607, -0.0424238965, -0.10421963, 0.0297868978, 0.131208152, 0.0118707307, 6.14787394E-4, 0.0853161663, 0.0418164618, 0.00848991424, 0.0400667079, -0.0559251197, 0.00253554527, -0.0148050385, 0.0980803295, 0.0886328071, 0.0611803531, 0.0598570481, -0.0467606932, 0.0670426785, 0.111507058, 0.0915352255, -0.0945248753, -7.923330e-02, 0.0461530611, -0.0730285421, 0.119891122, -3.119640e-02, -0.059910953]> : tensor<100xf32>
    %cst_2 = arith.constant dense<"0x2FC991BB71A2AA3C5F84803D9085173DA29E403B9DAE79BD114360BCA853FB3C422725BD11C3343DC15EAB3D4DD278BDFE1C3EBDEB6CE63CE77B823CEBD8013D8F727DBC32FC8FBB517A92BD188B893D7486B13D08F069BCE23181BD01E774BD35BF073DB0D956BD8378673D4BC2A8BCBBE35EBC93990F3D132188BC3498BC3C0D8F973DC5D2B33CCB810F3D6B0F8D3B1B680E3DE7EC24BDBA2C953D2DCB9FBDB56B44BD8E65A53D378FD93CE06C8A3D0033AFBD793DF73C6AA280BD77774F3B2AA247BD14963FBD68E2883DCF098F3D7A5E853CCCDF00BD1F1E7ABC91CDD03DAA025ABD3E568D3DFD3D8FBDC5F093BD12F049BD1ABA973DF7034D3D2DB2CA3B0C47D4BC7859C93DB06E34BD1A9F953D1E75A43DB2923EBD3545963DBF2599BDBFD4443D6DD4933D0CF775BD3CF9453D488156BD76FEC0BB263DA63D8FE77EBDB75BC73CB2B8663D38F544BD3CDF4C3A3F38FA3C2007E43B3695B43D89C293BB69AB0C3D89B61C3DB745B8BCA5F4AFBDD5F4C03DDF5DFDBC84F76A3D62F3743CB8603DBD0941193D407860BD1DF769BDD1AF283CDD57703C7ED217BBE107003BADD780390268103D9FCA643B5D0BB33DE92C6DBCB6DA143DD820A23D804982BD8AE52FBD09DFC7BC0205A13DB8070DBD2B45973D429A693DB66958BD5F83B93D8CC8A23D890F8ABDB71352BD078970BB75575CBC396342BA2442A3BD433A883D49885E3CBE58293DA9E02B3D79F1C7BCFF3B813DF90813BC713B93BD595F193DA458F73B43AAF93CA076CD3C92B40EBDB691F63C213A943D072268BD2656E53C8ACC14BDBB05163C2AA050BDE59C30BD3DF438BBBA12803D24067DBD86A231BC074982BDF05A2BBC891B9639CF8F68BA45996A3C923EF93CDD89B5BCEEE67EBD87DD5ABDBF20D83D1ABB16BDD89E833D4BCA123D6F189C3D04E3A73CC543B6BB5CBD31BDAE45A2BDDBB51FBD396F683D1FAB803D5C678D3D4AED79B9AA83293D9B9001BCD919D03BFB24043CC422383DE2F948BD16C3863DB428083D96CB8B3C5253283D8A7C84BDBA509DBD3D8DED3C4D7EB13C955AFDBC3591F8BC5A80B2BD620329BDCD20923DDE0A81BDA09EB43D1D599ABD441B433CC7A1A23CB6822B3DAD58BF3DAE613ABDAAB294BC01CCA5BD7D16F8BCA1C3C73C91E64D3D9533933D2635B3BC09F5263D87347FBDD4C0933D7CC441BDCDC5653CB733BABD080A343C0B06233D92F9283D68513C3ADD6D093D001288BD8E98B03D943284BB52F945BD522C7C3DFC9DC93DE7B1C83CA2F886BBCA2C943D50CBA43D9919FB3D4D608DBC780F713DA6928C3D4B7758BD01133BBD2C790BBCBB3B5F3D47379C3CF021C03D11AE693DFA1E1F3D57CEA23DA57069BD97D8563D70BC013EBE4A83BDFE3B863C3E6AB0BD81E55BBDA6F125BD20B50FBD62E5393CCA6CFBBCDB6323BDBBF9003C17BC6C3D3C8497385FE5DA3D2424A53D6586E5BCD006923D7455DBBC92135A3DDE8A383CFB91923C02B4C63D40E4573D6BFB903D92488F3D2CDF9F3DD539053DBD3092BDDE9360BDC4C4A33D2DF3883DAC5D7BBA338293BD29DA7DBD019784BD7E844EBD8C426A3C35AFDE3CBF3A5CBDF771233DC2CF6FBDDD462A3DB8308E3D75D585BC633F9EBC152E9C3D0259283DF013B6BC759DBF3CC53C273D373A35BD8CEF9BBD19DD653DCAD4B73C1D1D5B3D26E6763D9E03423C7FB5E23DD0F070BDB1D2893DA04B1A3C0537503DB6E0393D6BDE4DBD3946993D786A47BB2C7E813DC09C003DAD545ABD0482AC3D40F0B6BC3A16CD3C5A04F73DCA368E3D5D8CC33DCBFF1A3C0F21793DB836B23CD1C6993D784E69BD8AC8A43DD1A42CBD1BD7B93CCCBA843D1960213D6B1D06BDB943113DA82FD53D4DE4A13D80828DBD80FAAD3D1456963D3E394FBDF90C3BBDFB3CE13C4B57853D96CC72BD027B45BD8698373DA6E3D53D6184C73D38FCB13D1C3685BD0E9AD3BCEC82373DFBA5823D82EABF3CB90F4EBDC0CD303D55EA67BC280DF13CEEEFFBBCF64C39BC12F4BE3DBD8133BCFFF969BCE4172BBDAB2D76BD334762BD49E0BEBCC8A8633CE078A93D38898BBDAC73A0BD5ECA873BEB56DDBC2EBEC9BC48E20F3D2835B5BDF988243D8DE3653DDAA7233D010D3BBDC92DAA3CA0DEB83D78AE5F3D400608BDC9EF333DEE7A893DE04C89BBB24FD23D56AC853D48DE45BD2073FC3C426C9CBBD5B246BDD94559BD213E3E3D5DB332BDDD451DBD8F3C8EBB2F3D93BD0F9AB0BCF3A6943D2B0D0B3D1D38BE3DE31701BDA4ECA63CEAF2F3BC30CA5C3D39B305BCEE5D243DA99153BDDAA29B3DA172F13C2C6498BD7E9F213C0709563D96C5943D23187ABCABA7F7BBCA7E103DFBBEEC3D79C7D5BD884253BD1FF85AB90984813DE4C6B83DDF711D3CFC37173CC7BF7EBD83FD253D1E788A3DBC514EBD8556A4BCAE087C3DA1A67EBD21782E3D9222853DDCD78C3CC1F7DB3C0BEC663C6F2E953D8106763D9191A33D29549BBC939D9D3D612692BD0C41483DBC0B913D06509F3D6F22973C0BF5953D2A4306BC1D5068BD91564E3D66B5D03D2A6E35BD36D4CE3DE854663C4CEF46BD215D60BDE4F0623D11359CBD5D15333CD995AA3D15C1DCBCA985BCBD59F1C9BC2B03A1BDCC44923D46C3DB3BE805BEBC4891993C73A529BC220B1D3D10DAA43D48457DBDB5E02F3C4C1F9B3CB4FF553D2258A0BD2D598D39455AE83C4ACB943DC250BC3D6F9D89BDDC6C493D545A8ABD1E5BA2BDC60D9A3C00D41D3DB74B97BD0DAA8BBD545F2F3CE435A23C5B62E73C4AEDBC3CFB4BA53D0DC6493D2EB4BC3C455C2CBDFF37BB3DAE73983D4834033D43E43B3D98B6BB3C70703D3D00C9283D791570BC066BBC3D8B0010BC72DCD8BC28EF193DFD2A81BD9124853D3FE6193D8417B73D2BCE26BD6B2637BC4050FB3C4914AFBD7FA60C3D89DC5FBC075E9ABCAB878E3BBBC3E13D81284F3D81DEF03C00BFF8BCBF94013D10A3EABCC52CAE3DA593593B5EA4853D8A85C4BC551C343C01C4D13C8DD90ABDCABAAFBD2EA880BD975012BD966EA43DA5CC5DBD841A583D718951BD686085BDBC76AF3D42D3B0BD952AD13716D69A3D238277BD5CC1BDBDDDDB8A3DD92CA23C28120B3D7D20393DB101B23D3BB677BD5185B23D5AEF4ABDBD2A8FBDCE29DA3D1A4B0BBD9443053DE279303DA4BA3C3DFB7CF9BC8BAE24BDA6F1003D0DAB923CB0D7B53B6BBA76BA639EB43DA7645D3C8F3EF93C5358CE3D55D5AE3D74F59EBD84F0D03C3486953DADF1953DC081593CBBA19FBBD7BEA83DB460BCBDCEFB3CBDF01760BB14D9A93D1CB3A7BDE23419BDB9F37B3DBD71813D5C8C64BD2852B53D2E34183DE994A63DD8CF083DA635583C82D669BDA640933DF76CBDBD3BDD983D708EB0BD32AF81BDCD7C01BDE5976EBD7CE9C13D45AADDBC624D39BD5F59203C4A19073C19AF3CBD4CBB57BD8638503B03311E3DA121373D7C7C153DF06A11BDD399D13C67A7483DBDB06F3DD29B743D4B824D3D033FC63D49D3E6BCF7522D3CDB1514BD5BED8D3C32E380BD175ADB3C1570993C7F68383D70C8363DC93E63BC8AE00C3DCDDE6D3D1F8E8C3D16231A3CE888053D7A40C23DB70DB8BBF5CCA7BDD8B9743D00249E3DC3F19B3DA117DB3C716B3A3C0AB3B43DE0DF52BDEEBB4C3CBAFA1B3CD01298BD23B9593C2B306EBD23BD9BBD0CA8A13D7DF5623DD84CDE3D64AC923C7140AEBD543097BD5B83233C2DC2B23C0CBBB8BCF3E6193D93A8BF3CD6B5453DCB5F49BCE9BDB23DA23D2CBD6BDC8E3D8807B83D2870383D749ADC3C5B2AB13D820F4EBC7B2E02BD067D70BD32CC983DB713A53D7836813D90B69BBD16746C3D020BBCBD6EDB30BDFBBC113D9A405B3D43FF35BD1817CC3C2B19CB3C5AD27F3C2247993D2486603D5FA78B3DF775A83DDDA21EBCB8D4873DF9B09C3DCFD8D83CECE709BD3430C2BD1EF082BD568499BDAB6DA8BD32943A3D1B51B23DB77A4EBDD7C2763D532D06BDE07BE9BCDB33AE3BEDED5BBD4F85103B7551833DD5D064BC3F6B753D1805223DDD6E2DBDF1EA973DA922963D037B65BD301AC33CA7F44EBD7295CE3C4A068D3DBB9A533C95B687BCC51FDF3DE33D8D3D4FA657BDCB749BBD531CAC3D96798C3DB31340BDABE20B3DC7204A3D25A6EBBB401FCB3C974DB7BD2AD01F3D869FE03C19A13DBD708F0CBDDFB4843B5F428B3D8B9904BCDB1C58BD6922D23CF57C783C961ECEBA4859E93C6E3911BB01B697BD4809D93DA56F173D7624C53D6558843C1C89663CAC1F2E3D8B05BBBDE9699BBA3693833C4F8D4F3C7373AB3C7F9B723DBD6CDFBC5D6753BDA0424BB8FB054CBDF8A29FBC1A425B3D1D4679BD0512343DDF2B3DBC4CAE7D3D1DC483BC9578983D47188EBDB7162EBD50F41C3D738F93BDD337D5384CE79B3D502C013DD21F2ABD60DB09BD19CD9BBD535A3E3ACB5CB53DB7D93539360F48BCA2D897BD94D0843DF2EED6B9AA779B3B343BAFBC8A9D823CCE85B8BB5FDF663DCCAF833DDEEF02BDADC1AE3D1E4484BD5CBA06BC7BDD36BD1678603D803DA03CE242FB3CE6BFA1BD56EB13BD4BECF83B1079D43C611E94BC6F2DAE3D2AA17C3C73C75ABD106A2BBD3E4C653C97E482BC252B43BD7A9A703C4504EF3A161B27BD6940393DF76030BDDCC7CB3D057C333D0FC6BA3C66A06FBC615EABBD21FEA1BD8AFA703DFF36113B7550CC3CDD5E523B9E0ED83B93A965BD3C0059BDB1C0F13C912AC93DCC1921BB6E48953D77FB5FBC99E41E3D8705323DB0A470BD58D981BD9C639EBD5235FE3C5C708CBC470AB23CEA121DBD352E29BC80B3603DDD2779BD3EBD7FBC6B78AFBC75EC393A80003ABD3F5CAE3D8376A13DAAAA3BBC11B3623D22E9F53D159D2B3D1B77413DFD69BF3C419A9C3D334FACBC64DB393D74B7A03D7476833D40DB853DB6A1D23C558A643DDB81463DF9DE8BBD1DE8C8BC45252EBD7161433D96FB203D936AC0BD849931BC44FC10BD073D71BDC32B2B3D5113A9BDBB60DDBC960C9FBDD286E63DD1580B3CB575AC3DC02F8DBD567FAA3DE595A13DE9E0B43D337290BD3DF128BD81DB36BC450F883CDCAD4D3DB9BB3B3DE2A13CBC78D6D1BC5D4D7E3DBFE88D3DA0FE9BBC788687BC5D8A6CBD19529C3CF203993D53782EBC4B41EC3CADDDBC3D859F5BBC7F1686BD6865973D47792DBD4E9A59BD68408BBD929F853D1FDDD23C653720BCE87FAF3B6B24963CE140AB3D923292BC8DFA8A3DAFB0E83C7CE8B7BD05172BBDE05739BDE409043DD21F28BDD2E4D53B856010BD6D3348BD9CCA87BC8BDD94BC7E1C84BC343389BDBAB3663D4C0809BC0CC6883DA9FC7C3C9FADB33C067AA23D1B4D7ABDC01339BD185DEE3901888C3DD3C516BDDA1DA1BABB7E563D5934893DA9418C3C0B6484BAF93ADF3C122BF63B6AD33F3D21DD8B3D96B33C3DEFB28F3C91AEA93D5F21A13D9BE9B53D4BDF61BD84EDE6BCB5D020BD0831353D5AD5F63CEF01E6BBE22F853D385B2BBDFF76783D355C02BD58356FBD1AFD44BDEEE191BDEB632ABD93856B3DC2C8873B3B8C9139087352BD19C57D3D2CC0A03CC2CB0E3D827F9D3D778B63BD0FA7B4BDD2C297BDB26174BD1ACA343B969828BC06A3033CF4F142BD7ECA85BCE5D1A7BD330EA83DA72F3CBD9D0926BC0254943DAB4BC23D73A2873DDAC0EBBCB104803B66F1EF3CC69AAF3D3FCFA4BD0D4778BDFFC0F03CA10EF93CA87C8FBDC6AB953D405B813D25C6A03D386EB8BA1D1C3B3D00224D3D3404973DAF2B25BDC01381BD9DEA863DD5E2073D3125E6BC8D49AABCB8BB79BD9873ED3C0DF51D3DAAF6A83C560D0CBD948ECF3CA69A83BD9A25273D2AA5943D486508BD562298BD1B38AABC120B023DAAB2553D283A4ABD08FE1F3DDAFA423DC5CF87BD63837EBDE55B93BD04B88C3D8BE4813DE9712D3DBE28C2BCE223903CD9988D3D140A233DCF3EC4BC03C7E43C74A7B5BAF4FB84BDC7BDF93BA282D3BC9B95733D4B17FBBC56CA813D38FC3EBD0DC6CB3D2DBD90BD7FCF84BC687084BD0359703D92EF1A3CEC11803DF1A21A3CBF64BB3CE7EBC83C3DF6F73C366F09BD7336933B89CE14BD051FC1BD2A40953DF08F533D1D4A83BDFA9A38BCE84C503C68AABB3DD2C850BDD69F29BD8FD03CBD6D3CBFBD6149B73D410DA63D53882D3D024FE0BCDD16A63D9B9C8C3C29D23CBD31595CBD47BA2FBD3558903D74713FBD5ADC8ABC17434DBD5317623DFBD8A5BD3DDEC0BC"> : tensor<11x100xf32>
    %cst_3 = arith.constant dense<[-0.0111629721, 0.0987016484, -0.050993707, -0.048310712, 0.110214874, 0.0880822911, 0.120780185, 0.0950000584, 0.0308808666, 0.0699572116, 0.0857323929]> : tensor<11xf32>
    %0 = tensor.empty() : tensor<91x100xf32>
    %transposed = linalg.transpose ins(%cst : tensor<100x91xf32>) outs(%0 : tensor<91x100xf32>) permutation = [1, 0] 
    %1 = tensor.empty() : tensor<8748x100xf32>
    %2 = linalg.fill ins(%cst_0 : f32) outs(%1 : tensor<8748x100xf32>) -> tensor<8748x100xf32>
    %3 = linalg.matmul ins(%arg0, %transposed : tensor<8748x91xf32>, tensor<91x100xf32>) outs(%2 : tensor<8748x100xf32>) -> tensor<8748x100xf32>
    %4 = linalg.generic {indexing_maps = [#map, #map1, #map], iterator_types = ["parallel", "parallel"]} ins(%3, %cst_1 : tensor<8748x100xf32>, tensor<100xf32>) outs(%1 : tensor<8748x100xf32>) {
    ^bb0(%in: f32, %in_5: f32, %out: f32):
      %12 = arith.addf %in, %in_5 : f32
      linalg.yield %12 : f32
    } -> tensor<8748x100xf32>
    %5 = linalg.generic {indexing_maps = [#map, #map], iterator_types = ["parallel", "parallel"]} ins(%4 : tensor<8748x100xf32>) outs(%1 : tensor<8748x100xf32>) {
    ^bb0(%in: f32, %out: f32):
      %12 = arith.cmpf ugt, %in, %cst_0 : f32
      %13 = arith.select %12, %in, %cst_0 : f32
      linalg.yield %13 : f32
    } -> tensor<8748x100xf32>
    %6 = tensor.empty() : tensor<100x11xf32>
    %transposed_4 = linalg.transpose ins(%cst_2 : tensor<11x100xf32>) outs(%6 : tensor<100x11xf32>) permutation = [1, 0] 
    %7 = tensor.empty() : tensor<8748x11xf32>
    %8 = linalg.fill ins(%cst_0 : f32) outs(%7 : tensor<8748x11xf32>) -> tensor<8748x11xf32>
    %9 = linalg.matmul ins(%5, %transposed_4 : tensor<8748x100xf32>, tensor<100x11xf32>) outs(%8 : tensor<8748x11xf32>) -> tensor<8748x11xf32>
    %10 = linalg.generic {indexing_maps = [#map, #map1, #map], iterator_types = ["parallel", "parallel"]} ins(%9, %cst_3 : tensor<8748x11xf32>, tensor<11xf32>) outs(%7 : tensor<8748x11xf32>) {
    ^bb0(%in: f32, %in_5: f32, %out: f32):
      %12 = arith.addf %in, %in_5 : f32
      linalg.yield %12 : f32
    } -> tensor<8748x11xf32>
    %11 = linalg.generic {indexing_maps = [#map, #map], iterator_types = ["parallel", "parallel"]} ins(%10 : tensor<8748x11xf32>) outs(%7 : tensor<8748x11xf32>) {
    ^bb0(%in: f32, %out: f32):
      %12 = arith.cmpf ugt, %in, %cst_0 : f32
      %13 = arith.select %12, %in, %cst_0 : f32
      linalg.yield %13 : f32
    } -> tensor<8748x11xf32>
    return %11 : tensor<8748x11xf32>
  }
}
