#map = affine_map<(d0) -> (d0)>
module attributes {torch.debug_module_name = "CldFracNet"} {
  ml_program.global private mutable @global_seed(dense<0> : tensor<i64>) : tensor<i64>
  func.func @forward(%arg0: tensor<72xf32>, %arg1: tensor<72xf32>) -> (tensor<72xf32>, tensor<72xf32>) {
    %cst = arith.constant dense<"0x67BD28BF150BDFBE1B7C993F782872BF9BAAD23F8DE68C3F26436E3E7223AC3FDBF08ABE2F03AE3FD50E9ABF3E031BBE579C0BBE8644FFBE807FDABEB13E753FBF6DD03ED6C9FC3E3C58C4BE0834963FA21B2E3FE6B751BF3322B83E54FEDA3F84D0193FA9F8953FE45293BF97AF2EBDBFAD75BDD752DA3F283CC0BFFE04DB3EB8FF2A406735BFBDDA5C973F864B3CBF17856ABF0624E9BCFB99B7BE226B7FBF91E93C3F743D46BDB9A568BE88C81DBFCC18833ECEEA1ABF756C1C3E6A2CE8BE256C903ED7B96DBFA71E653EA28983BF00F0983FFA405ABE9B5BC53EC412823FE93AF3BFC54F41BF0A69C73F1F42D23E86E3A4BF7A43463FE5EB06BEB8231B3EAD93B53ED6E4A03FE2F8A6BC02E90E40E6B9EB3ED3CF05BF7DAFAD3F380C73BF0DCF0F40ECAA09407D031ABF24149C3E2AE7833EB6248CBF5257AC3E6B6F96BF57A66DBFFEE095BFE34215C0942D993F43EC6C3FE4AE3C3ED94F543E1EB8E9BD26BE473F8AD9B8BD47C89B3FA71661BF4C72D6BE64C16BBFE665C3BE11654B3F69412E3DE6B6653EF078873F0DDD28BF436219BED2E8B6BEFFE4753FC54DE53DE8428E3E65019CBEB929E5BFB727CDBDAD683A3F4253493F4DA1833FFB5B06403CD0593FF744263EC5A484BF4D15A33E58A4D93E17AF8CBF379986BFB88232BF008E303EF5D3B1BF23C110BE674EA03F5CDA2FBF01A7E2BF97CDACBF8C0FA3BCF84311C0526A4B3E8D6B473F63A7003F09AABB3D6B83883F92B4773FB710F6BEF68EE1BE3B12993D01F2C23D2DAE1D40FDA0523FA7F460BEE4930DBE10ADAABF19557CBF8E80C4BF5E940B3FAFAFF8BE1A809EBE2B73633EAA04823FB732C7BD2317D1BD791FCBBDD38A42BF091330C037F5D63E4D33863EF43265BF408FC73ED5EAD9BAB250F5BFA553B03FBA8A08BE3DD8F53E06EDE53E02529E3F6594823FF0A992BFB2545CBFEE976F3F3034283F1452723E35D0343FC3E7DABE1BA2973B6220943F47263BBED0181BBFC4060A3FC7175BBF432AEDBE98869FBFB7341B3EB8BC413EB0F6F33F6150F9BE371E4D3EE1D72EBF2C5A9B3E0CF83EBF0AC5793D798F693F7D44A1BF01AC3FBFB193123F8C32743FC0A2DB3E0A3B903ED6C783BF167C7C3E510CE43EAC8EAABE528810BFE0928B3F09E1863FFB0249BFD159AB3E12AD933F360431BF7395DE3FFC7E813F485189BFC5C4D5BEE57E02C05AA158BF2A9CDABD1A73733F39F5CD3E224F5DBF215D4C3E138E703F2A18BE3FDDB35ABEA038243E61C808BF04D6983FDD3C883D484D70BE69D3373FBAA9DC3D09C7663FDFA0103F38FB37BFE28BEE3F445CF33DDDD413BFFAF6573EAD1E843EF1D04F3F1D66AF3E9844A43FD07910BFE8B51C3FE78AD53EC81B173F8525AC3E2FB140BF25BA19BD5F61B5BFD5F72CBF4771D2BF3226BDBEF23211C05078A5BF714E68BEEA83553F13EDA53EC9AB1B3FD18C0FBF98F3543F1562B3BFC62C4F3F5BA3883F3179E83E4FB6A43FB4155DBFB1651EC0226F04402CA0A0BF53CEB8BE12E81FBF9B36ABBF6EEB06BDA00B88BE877C8E3EFA6B803FE6323E3FFD9B883FE4BE023F5328973EDFE5B13ECA24003F3624A83F9E0A5B3F306A8D3F681B003F7621ADBDEEE2A93F472FC0BF436F57BF3C83003D2A03D03D5126213FCEEB56BD3A02203EC9A1803FEF6247BF35E48EBEA571BC3F84B6693F70FA20BE0774EC3F94D3ACBF8325BDBD00B407BECEABB2BD24B194BF6A506440E7FC5FBE7844EE3EB360423F28E193BFFBB3CF3D756D30BF8DCBE7BEF51392BF37D3A7BF5C4284BF5F8CE13F2B6556BF132B84BFCD0F063F09C8E8BC6EB63A3F7934513E548E2BBFC1B9783FEF67A53E4AEA9D3FFF654DBE67450B402CD1A43DB013C1BD86F1D33E2BD803BF446A9B3F4DBE58BECCA3AFBFB65D0DBF82611B3FC0414A3F2585F3BDA6754BBF51BEDCBFB7CAE83EC02D49BE2AA6A7BEA94FF8BD2E4C093D6C887A3DDB489ABDF721723E2A2C653FB409E4BEBF6F8DBFEEBD8D3FE82A72BE55E7C0BF58579DBFA3F8BEBF27CEE43EE9B4033F3DA5D73E8ADF813FBFF5AEBF1CC5F03F8BE5F03FF8CCEB3FF30E4A3FB8C49B3FF13CE93E103737BE1A0BB03E4BCB583FA8460B3F12ED7CBEAF9F033FC193C2BEC23F01BDFFC6E73FC617743FB7D3CCBD2758253FC74C29BEEA88663ED08A32BF3176B33FD986F93EF6E3D23FC6F1DA3EEA96A03F9535553F651993BFBD36293E2A96F8BD28649EBEB1893C3F6365B93DFAF36DBF5D7E5C3FDA05313FAA3A03BFAF2E34BF0824503F20F591BED0507F3FBC54463FA5EA5BBF44E925C0CB7CAABE6CD746BF68F1DF3F5B8017BEEAA599BFDC3E973D607D0CBF1476B33E3C80723FA7B99FBF245AD0BDCFA8333FF87AB93EF59ECBBFB638813F7FAA9D3F7E800ABFB050043F9AADC2BEE5CC923F62C0E4BE26F69E3F829BEF3F45CA7A3F5C3E703F87923DBF0235A0BF9356CA3F2842383F0ABFDD3E2CF34E3E54F7F8BEDC4436BFC1009ABFFA0AD3BF82C2B43E604D2BBFBF097F3F4C5214BE87B2943FE74BBF3FB4A39D3F1B851D3E7CCF653EFC5195BFF1659DBEB7C898BF4CCD823DE181D9BE61950E3FE365823EF002563D569598BFC954D8BF87DE043F5BD9923F08BE9A3FADA56ABF23F701BFD9DB4DBF0EA3413F05E7193F8FB7E63EA340B1BF0CAFD3BECBA38BBF9B0285BF77E5C4BEEC013C3E58DBE1BF5FA921402AFE81BF106CD03F9E56053F3B01B53E13CA1ABFE7D9963EF03BBA3EDD0757BE41AE8A3D8F0BE03FC377043F8AE4053F304034BF7904D83FFCE72FBFD2C8CC3EB575C53D80492FC089A2943E76653F3FD5A9993FEDB4413FA5974CBF3C791CBE0E245F3F8FC65ABE1C6511C0B73564BE785EA93DADDB8A3F2E39983F398F83BFEA93FF3E74E0753E37328EBFB6A0BD3F42D9203E4CF9F73FA384F93ED41751BF693B48BEDD432BBF8146D1BEC0F7AEBC19DD98BFD55C7CBF3948B03F33D3733E1A1C17C0F9DFAA3E247D59BDF033703EF5E296BFDEF3DA3F921533BFC4DA10BF5772B53E86E2333EB8F33FBF3F9359BE94BD38BE7405A53FA1CFCBBE189C973E94EAECBF787C94BE64718EBF9ED5CE3F3DB2FBBFAD4765BF4167A33E619A953D23C4B2BFB9AA123F7B7F4DBFF4D969BF61614D3D313666BF866D0DBF357084BE771E4040854A81BF0A48C93F8529263FF79C7B3DEE773EBF02CA9D3F0F69F73EF23098BF2EB626BF789052BE58613CBF919B7FBEA7B4AEBF9B1611C05E764E3E4223F73E3E25EFBD02AE53BFE21A11BFB364103E85C9553DEA568A3F13608F3E686661BFACF514BF3AA0293FC4B5263FC813413F52AD7CBD6523893E5391DFBE615B20C02AE3F0BFC9049DBE73CCACBF44093FBF1F720F3E557D993F4844243E31B9FCBF6831643FB77EC9BD61997EBF3AC584BE343765BF147598BFB5C1C9BF062029BE6DA78ABF7BAF94BEF424483EA3B607BF50CE8F3F67FE7EBF898ECEBFC7C714BF6F75683E9ECB983DA693E43FAC1E1EBF59ABB33F482767BE034E76BFCF65943F86CBB9BF3AA9923DD3E9713F7B2EB7BF2267D43F041AA2BD672F1EBD8F88F0BE970BC83FE205BABF194433BF43E9083F037F303C9B2005C092B6BCBFDD22923F4FA5623E4B00C03EB0B2C03EBF9287BF7E25B0BDEECFEA3E509F4CBF6D9C8CBF9F29263EA0FFFE3EB0F6AF3FC71489BFDE1C833F9564EFBFB9E5A0BB94C68FBEA2FB2CBE9145BE3DF0C7AFBF161A263F3B8D6A3E1ED2903FD476953F4CF43B3F78F7F23C4BD801BEEA5618BF59D8E0BD135BBA3D47DE36BF6665003FFF1D073E0F4C4DBFC14E0AC0E6FCD73E4C6207BF953845BFA78AB83E45092FBD16DDE83ED725563E91EFF3BECAE0E83F7E1698BF592AB43E1E4087BFE3FE6F3E33BB17BF438A95BF314142BE980CC93DDF508E3F58D9A13FC64733C0E22BD4BF262355BFDBFB0C3F3120F0BE403D25BF5EDCE3BC6DF48D3FE4CCED3E792C693FEAFA443E2838483FECA7D1BE8C8A5ABE1AA2A4BD576B783F4963B53D433D6DBF08EDF03E13709F3E79BF563D35C102BF20A35BBF24131D3F93E5153F1B24EA3DA44A9F3FC25816BF8A4682BF66035BBF3992193FB9A39ABE643A3CBE8D1BCD3FD91FD13E413315BFAD078C3ED1FB8F3FD5E8763F940A283D0B193F3FC97A68BFC525C5BF8B4C033FBC21293F7810793F914E92BFD8F3C3BF1564163F7E5D3ABE4FB820BF40EE98BF46BCF8BF1F64CE3FF8C1E53F4127743F8544ADBDE7E833BF8C4AD53F7E6532BD1E93CFBE65079BBFE409EEBFC939DBBF73F003BFBD6B623FA75331BE5DD011BFFAB62B3FA993D53F480FB3BDE9CCA4BF5B21AFBFA73D923F411F99BFC9CBA93F097904C0CCF3413F0BABF93D4E34AA3F5719D1BEE448663FEE16E7BFCD3040BFB57480BF9DD626BFBA5181BE4B0B5C3FBA3B85BFF32C12C055FABC3DC5B1BEBFCCE5C63F1B4801BF3DFEDBBFC872363F147901C0CC95973EDB388D3FD0DC97BEB80A563F7A6608BF079EE83F9E6ECCBC99FD80BEE9A7D5BD4F12333F792FFCBF74D7283F01791840063807409E25B2BDF32D5DBE7ADD80BF54429C3FB3E6D7BFF51040BEFD6A5340FC877C3F399D763FB795C93F14EBA93FDCC8DB3F0EF29C3E40F28C3FA969723F25E3803F63C0A8BE272C84BF822F1FBF1F40173F871B9FBF189C623FB1355BBF755C4F3F779982BF88E5B33D921E193E34CA863FC310B5BE9A74B0BF65D82640CF921ABE3DD354BF0CB0673F048407C00CD30B3F23B2C8BEB7ADB9BF6B1D2C3EB9F65C3FBDBE1DBFB177A6BE7FCE61BF257DC1BE0F3320BF7784CB3E5EAE3BC0542F623F7A18DDBF94C215C0D79419BF174E8D3F298B3C3FA682E73D67A3EE3DFE4FC53FC1BBB53F27989BBF9CF9DE3F04B6373D1EF4A8BD2979114044D8833F0717EBBE86AA113F011BD53E3773A33D7FF816BEF4EE9CBF1A058C3F1280B6BF3B39863FA8D18BBF178118BF488307BF019AE9BF4ADED63D264E2B3F97B8D6BC601E51BEDAA2DDBF78EC0BC0865F493E73C09DBE3319B33ED60B1E3FB8E763BFDC3C7B3F2EA1E5BF58DD8DBF6176E0BE2D1AE7BE4F91ACBEB68F163EAF87A4BF7FAD583FAB3A1C3F36FBCA3CC9C2613D4F98E1BE23DB4F3F2BF737BF9983A6BE360C853F253F1A3FF98BC6BFE1342EBF0E1697BF33EC103F5925DA3FA45CA63E822B8EBF689B33BF9C24803FF8ED95BF719EAB3F5166B8BEF26C093F4B9C963FFE1AC63FC01A263F05A41F3F6D9F1E4062CF213E1058953EEF527F3E631079BF5515ACBE360745BE453AF03FD341AEBF6A01C43FA528003FF339B1BF755143BFAF1C403EA7231B3F582BC7BE98409ABF98FFC03DE61E78BF683D1F3FCDE99D3E93F4C23FC0B3C73FF047343F84B83A3F8980423FD9240940134DA73ED499AC3F383903403943A0BFA1FE0EC071D1E8BF59D1A3BE4609F7BC0B40B83D870FAD3F43E889BF6644AEBE0FB2D4BDE2A0DBBFCAE66F3FF39B9E3FDB235B3FEA80B8BEF970A33E0B38463E44649D3F433410C0964DF73FA77C033FC556ED3E8BCDFB3DECC3DEBE0E3A034011E732BE0D13FD3D828A40BF7BAE073F0E49433F558C90B9A677FCBE53BDDBBEAFDA463FA7FBA13E11BB5D3F7B1890BEF125F83FD62B52BEBA5007C04A3AA13FC63E843FD339CB3FAF99AFBE2C1A1ABE603BBFBFB328E93F99599EBF70A18D3C9FCC633E2AB6A5BFECFF76BE3F8CC8BF88F9033FD8253ABD4960033F9C1A403F6E0229BE004243BFB1EB26BF9BD49C3F5FA7A73FDA27533E520F8D3E72E8A63F4E7635BFC45B8D3DDEF95D3FABD14BBF85E4F3BEF9A1B5BF94ED4C3F1F4D90BF4A16014031CE0BBF15D514C0C12C1E3F202DA73E141B8E3E9126E43E8168693FEE2F8FBF612C60BD68F4E43E21DCB8BFA721423F313C05BEEB5647BF07B48F3E0D5D45BF0055CB3DBA9EC4BEE0825DBE4FA456BE51779C3E6EA376BF904A83BD695A6E3F012DB5BFF004D63F32B3B33D0F9AABBF80CF063F6EB1B03BB3FBAFBE046590BFF55FE0BEFC5C7BBF1C84CABF0AE0803E60C6A3BEC7D39F3FC8578CBEE34FB43F94DD13BF5FEC89BDF7CD603F3AAAA33F40EAE83E905A303F8DA36D3FD763733EF96ECEBDCA393FBF7857DBBC9FA9023EC964C73E6154B0BEECDF2B3FABA040BF451C18BFB80B6E3ED7D32B3F1B3F95BE4CB5803F92EA393FF461E1BD7F3D7F3EDF6BC93F747EA23F81605BBE82C421BF16D90040121914C07DE947BC210FC7BF3886303D20075EBF29544B3F5DA5C13EE8C71C401C858D3EFAFECA3E41B7CDBDFA7A99BE2F7936BF1DA30DBFAE32623EBA1D873F7C243240D124543F263689BF2EA83F3F2D23593F7E89A53F3FAC063FE9AFB13DAFC0D0BE293B563F8EB9EDBF05EA10BE4FE39A3ECE6D5F3F71F55BBFE3BEB93FB3FD223FFF334CBF3AB9B7BD1AC9683F303F843E491E813DF5AC0A3F85E6D63ED30029BD9B0B2EBE8D5D63BF5F56813FA6BF033F87AEF3BF6251A5BF04F49BBFBE24B5BD49BF8D3F04192D3FABA89EBEBC94C33C840484BF984DF9BF298217BFE676E73DC8A30ABFF3E69DBF0D0D1B3EA7C48ABF1386EBBE9FC070BFE215D83D6D3D4BBFD867CDBDEF7B45BE6A9F4ABF2E19D9BF5B45DF3EF6B07ABF642B5A3F9B3F423FDE8CC93F1261A73FCA5485BF7614E53DB011AABEA11BD7BE1E8105406F8ADDBD6C78FDBE99EF39BFFE7BD03CB62301C00B362FBD66169B3F0FBDD53FB5268F3E1F17FFBE450B123FF68603C0BED8A4BF853B11BF2D4739C091EE95BF756333BFC2537C3EE477DDBFE56DC9BEFF1464BF677BB3BF79F33EBFB598973E2883DEBD36BFCBBD457B82BEA7A6923E51BF6C3D50C2C7BFDC1D34BFE3D7643BBF6A88BF2D9767BFA95B99BFB2F99CBE42F39FBEE23EC03FB20B25BEB82E343FFC12A7BFCF0297BF087C50BF6AF2A73EB57EB2BEB03A0FBD3A09DFBF9739E43F9E98553E33C103BFCC0BA93F9E0EC33FA6B3813E0147A6BE76B6A43F1614A03FCE7941BFD17207BEA951B1BFEB31ADBE68BC7E3FB911BFBF38259BBFFE38503F66BDCC3EF845A7BF597FB1BF006981BB7817E2BF94CA8FBFDEFCBB3FBC39793FD4582A3F2A12F4BED897D63E2A491C3F760833BF20CF333F55F59EBFB937943FEB93653FDBFA993F4557053FB2A92DBD4484123CEB38DF3E502F073FC69B703FC20A37BF416CD33E484C1E3FE336A0BF422E0CBF4832883E28DFCEBFCACC6CBF08731840214251BEB4DF1A40B21E8BBEF218C9BFEB4DF23F97AB9A3F4B39A1BC77628ABE62BD1CBFF2AE9EBEA575863E708AE1BDDF7C6F3ED8E69D3FB79608BFFE0727BFDBBA3FBFD21F27BEE294BB3EBACDD1BDE5D076BF21AC7C3EA256024001A0E53E79E4AC3F93CCA73FC9CBC0BE37E703BDAB8647C093DE9ABDB7092D3FFFDEDB3E84C6B93E1C95853E6FAA15405B7DE03E94E2903FC2A8C93F4D1F0940C8FC1E3D6F8D53BF1221BB3F9E400140DE30F13C084DB5BF2885253EDDE83FBF041EB63E64EF39BE1BD887BEDE20423EE81B453F87EAED3F2F4BE7BDAABFBDBF1F89C13BE8EF4E3FF77BA5BE3EE8593F7CD68F3FD69203BFEC68203FC57B343F7D001FBB6329D73F82FDC8BDB85FC03FA13A44BE80DAA83F449E4BBE9BE25FBE0CA9423DA30172BF2C459F3EDBA21DBFA068673FB7DAD9BDF41DA53EB60109401BE0C3BE19C0FBBE735D6B3F078774BF0CEFDE3E498D80BE17EBD0BF705552BF4F9F8A3E7B9FA9BF7FC4DEBEB770FA3F08B7B0BDE32A833FC3F8FFBEFEB80FBF4544C5BE0D5D0EC0483F203FAFFA353F9B2EE23DA6C3CFBF6A5BB1BFA1083EBF8884913E857CD6BAECEA373FAA29F23FE000DBBD45D5633FD6C732BF9E8EBBBF3FFD6EBF515677BFC34CFA3EF65CD9BD317835C0EF154E3FF3F8B53E7AA629BE9570E0BEA084DE3E93F93ABF351FD6BF85D97F3ECA176D3EFEB6583FAB9D83BEAA99433E1AAABBBC7034DFBE7E3AC6BFEB0E433F1CF0A03F0E6DB4BE7B5CB1BE0294C2BF020AA73F938CB5BFA8DD9DBFFDCB9F3FCD1664BF9696BE3E368895BF0CFEAEBD5A736F3E1E468A3F7CB8EEBFC80E883F19B0483EF36706C0A81FFABED7BDEA3FF5A4383D33882FBF1D1A0DBF8D19993ECA7303BF909990BFB0EBDE3FB53047BD20884D3F74205B3F811A063FE5BF17BF3AC91B3FA515153FFC3F1EBFF82227BF063B8E3F35E59A3E96EF55BF4AD073BF84177D3F4606943F6DFB463F6BDFFB3E0F26A8BDDFCCA43E84ACC9BEBFB6A8BFFF4125BD63F4FABF384738BFA110903F7D0262BFF53BAC3D1493813F351C663F954042408EF357BF8D918FBF1273123F18240B40B40774BF2D2DAD3F4ED7273FEDFFD03E819836BF4655143F2490F53E78CBBC3F1B8135BFE033843D4DC375BF031EFA3E27FC8ABE70E531BE15FBE3BF5BDDE03F344376BFF33EDBBF501B803E3FBBA63F2C04953EE56115BFF802543F54BD5F3FC71DDFBE77CB98BE4AA38FBE7B4E903F25FA13BE1A971CBFD59B3ABF1DBC1D3FC36D083F91910BC0C645C93FABEE223F1807A6BEB8259FBFA8B5243E19B3013D971BA63FD31557BF60F5B8BEF984EE3D5FBC17BF4B0C0BBE455275BED82B8C3F046B2ABFBBA10BBF5A48AA3F85A9BBBF7271793F514CA63E1D206C3F1AC629BECC9394BF0E41803F171F84BF76F3E93FAE70B93F012E6E3FD72AC43FFC23763D7DBD13BFA3F247BF5603EBBFD5B51F3F14193BBF5A6DBC3FE97EC5BFD0FBB7BEBA451CBF974EB53E3860B7BFA503583FEAE8043ECF24B33ECCE8D23FB5710EBF0DE695BFACEB893FAF2CC73F52A6FEBFCB07B53EC88B2140FF59313F341083BF45D92ABE101D983F56277B3E1E1D97BE71AAD73F15838A3EEF8729BF5FCAA23F804F1DBF8A07AA3F1D25CD3E1D520CC0794F57BF9163E5BDC12CD33F092517C0E6FE503F8B320B3FFD968BBF0F59D13FD7EE883F808B803F1A39B5BEC2FCC1BF3E603A3F4CA5DCBE83B1E0BFDB2614BF3BE9F4BF3461ECBFD1FA6D3F4D8306C0D63BE93E155C12BDD542593E6CDB773DD96467BF06142C3EF8D25A3F3BC800BFA067863FAA23F2BF70A1A8BFDDB6FD3E5E3D83BFD5305F3F855DF43E5AE4CBBE44B8983F9442233EE761A7BF05E0763F8D7810BFACC2743E7F6258BFA7A5FD3F8076B03EED5184BEA7DBC3BE400D573CEAE80D4082228CBF909996BEC240F4BD94A275BF3A259EBF1707DDBD9C1B0D40551F5E3F6A09423F4D4BB1BEF055A1BC5CF8B3BF23A98C3FEE7B6B3FAF2B4D3F525C7E3F37E8F7BF5BD122BF4CEF253EB301D43E214975BFEB4093BFB7FC01BF741DFBBEDFE0533F63CE833E8779ED3F1E4B11BFEDCE56BFAF3E64BF58FAFA3EB53881BEB241DCBF768B023EB310043EB2BA723F71FB3D3FBF2D32BF679E843FEE17F2BE35CFC3BAE35F113FAC1EF63D395979BF8C616A3EF988153E321C433E03318BBF1D5CB4BE31540ABD3FA19F3F6A2436BF700FF5BEFA17BD3F76AB2DBF502A813FC27894BFBD679FBFAF5CB83E0B5012BF62CF97BE96102FBE619F4FBFC2A53640AE61A93EC3D3823ED943803F0071F03FC9F0EEBFA127D2BED6A5E63F0BAFC1BE4785B03F44B9F0BE3207403F90E14B3FB4EEE9BEA9A7BCBE71B4A03F10C50ABF210397BFDF3FD63E643391BD9418A9BD08C8FF3E540A7E3F3A6C073FF163E6BE3221353FCD7249BF7F80973F7906403EBABC493F423B1F3E4D62873EA8BBB73FC0A8AEBECE8357BF10DE0E3FD27F1DBED90768BF533A673EF192293E6068103E616EDEBDF711E13DAC40203E05A5E83D18BC69BEDDF1F1BF884AB5BF3947523F5F12D53E34997DBFF86022BE2B3EE4BFCB15E93DF7EB113F9662B9BFA9D81BC091479FBF6EA683BF0BCC1840A6830540F40AEA3D585656BD356B81BAA927563E7F306D3F6F7B10406AB1713D6F8E9ABEC9359B3F7A88CA3FD1F6723DA3BAA33C734C30BF85ABF6BDE0DB26BF9C4EA0BE4200B0BEDFC34BBE8144BBBEBD85D23E7531253F162BEF3EE0F885BE71CB2E3ED658A93FB68684BD7C388ABF34C080BE3D871B40AEA49ABF1AAB5ABFE0A991BFD4D9BF3F9B7FB83F80B4FABF3A4475BE545E303F0B5579BF69F882BF40D4A7BF2901373F0E7F6EBD8075073E6B3409BFBFFFE83F55108A3F959BB83FBCC13CBEAD361240B4C6973EE20C43BFDF8D733F040345C06A9C044019297EBF56EF67BF1432B4BF4AA5073FB869304075B0103E83F2143F746702BF04E5BBBFB03D97BF9DE5893F503C8C3ECFACAB3E44EE563FF5881840C2FD7FBFB80E853D02FACDBFE9DF393FD2AA97BFBA6E82BF112B9E3EA5C1B83FF94245BEE6ED2A3FC8A9783E76DB69BE7ADC6DBF2E5321BDCC899E3EC06B024096F843C0A3721A3E8F13263CA51743BF7120993E3BB73C3F9B2C86BEA67AD6BF88FF9D3FD1099E3F98ECC1BFE114C4BF117EFC3E030B5C3F0959913FB619703C1D958EBD2C528F3F0AD4B2BCE99A07BE6E377CBF80C3D53E8CB007407DB71C3FD90E9D3D8177A53EBF6EE2BE873817BFAF73F9BED819463EF72C8BBF1E37AEBF82869C3FE13A183E439E973F1668EEBFF1B7E23E041C5DBE14B929BEFC8A1E3DFD37A73FD7B589BF317AABBE9990A0BE1F5D96BEB810CF3F0863A93D766552BCAC823D3FEC43CA3FB49916BFDEF8DE3E91D697BDE8197A3FAA5CAA3F6FC35BBF282965BEB27CECBE4CF1603F1DA2803E08B0283F6C8AAB3F8C4B27C029819CBF5C89213E1EB50B3F54FA72BFCC2C413DE90AA8BEAE7104BE0F6A3FBF1690CCBF0606E7BF0CF9113F2C5C014069D4CBBF33C8B33E6A9CEDBE7F190ABE93EF59BDD3850A3FFBD78E3E787C433F1261B23FECB1843F48013A3EFD0C983F3229153F5EC112BE0388A53F800B923F8346F1BE3819C73FC00887BE56D4583F5160873FCC4EC1BE97CDE53D53CA4F3EE951D23F75C19A3F66BAF7BE1FC3084030277FBE4941BFBD582E0CBD4FFDD93FFA3102BE99267FBF8872AD3F2970E83E274078BF4F74ED3E9308BA3E54837CBF7D5E1E3F62EF413FA8237ABF7EAA5F3E0802B2BFCD00D33E5B807F3F7FCC0D3F971767BF7D7086BF6CF2053EF628C23F9CA1FDBE8372613FE223CF3FB5EF653FCE7EA4BEF669BBBECF27353F009119C02C6AAC3FE82130BE890478BFC2153F3AD1CDEB3EBD1FA7BC1F1F25BF0BE9773F991D1F3FF2A09F3FCFFEE3BE5AE615BFA34B09BEABABB7BF58601DBFEF68773EA6B2D6BF73F696BFBD1A1A3E9E53AF3F125D54BF647F253F50BFB5BE3C48913FCF7E2DBE288396BFDD04F83D4FC5C6BD9371813F66B2603E97441FBF086ACDBE3F76B03E07752E3F7D9AE2BF48F84DBF15CC453E2F2BF73F127A893EBD479EBEF06E5BBF4CF71F3F254E91BF9C09E4BFA16A86BEAF9CEC3F34081FBF3E5A83BF4AE200BF46A9FEBEC439223D106E853BBB6D12BF74FA863E27CA1CBFF4F79D3E7F61913F43E90DC06FEFFC3F1F14CEBF224024BFB4F18BBDE30FFEBDCE4674BF356B0C3F8E8DAABE75FC6E3F5FF64EBE9BABE63EC8C306C0CDD6EA3F912092BFAE9B88BF37A4953E838DFEBF94EA183F58C475BFA2E3593FF1C2E1BEA37C25BFEA4F213F48F6BB3F5B2CA5BE6B5050BE173FA3BD3FE6F63E4D9D313FAEB7333FC80E6CBF79A69ABFA854F63D3D77D6BF698C264081542FBF368A85BF5478B23EC58188BFB62C5B3E1C2002BE3DEAEF3E84A712C05A15F4BF83CD463E1EB7333EB8F41A3EB3D64ABFA808BDBE7A19313FEEBE253E57CC0E3D81F639BFE4FBD03E4F62A63D1F4816BF89F55E3F77326CBF46BD243EBC96173FB7A7F13F79BF373E6894A73E08E4F33EECA1B03FE6E9EF3E1F762CBEFCCB1BBD503B3A3F7EA6083E6CB5F2BEB90668BF9DC66ABE982C7BBFCB06F23ECB91D13F67963ABF1E51C93F7C91C3BEBFE56E3F92D11ABF126735BD2B08043F36DDA8BF14F838BEAF86FB3F4CC39A3F85B1243F2FC68DBE0B30493F0FE85C3E4E85683FBFD86CBFA90DED3F894B89BF54108D3FF707A9BE812650BFB95B253DE8A99A3F6E1E783F9212D43F0F5C17BFA570D03F2DFD21407AAE06406981DC3E8E98973F191B07BF4074A53E1A41F23F0DE2C1BFBF14033F0CA1F63EAE0AD1BEDE267D3E8AF19E3E683380BE5865C73E95D704C0E07A25BF06F90A3F48F2573F9132883F5D985BBF5A771D3F03248CBEE68682BEF6FC9EBF5318513F3B839DBFF954003E29649A3E8B7C323CD177B43F6FBBA63EBD10E83F8FBB5ABF2AC9663FA3FE64BE07EE853EF026313F1DB506C06F388C3F220D3F3FA83070BFC3BEE5BE8094C1BE12B10CC0FE5385BDFDA880BEF2C5D0BEFCF010C0C95D4F3F9DC6E9BF776EF6BEAD90DFBD77020A3F4479A03FE86C9CBD1B611C4058D584BF8B0C61BF993127BFBE12C83E1B05853F9263CDBE4BFA80BF3BB69B3E3D27E93F4DC0E2BE3133323FD68488BFDBCCD53E84DC08BF71EC85BFC857433F2CD453BFC479283DD5B0493F0A76D2BDE7AF8F3F26A2DEBF29D4A63D72E69F3F739466BC5755B63F16EB55BF0850B0BFF9E4D1BE139A213D0C068A3C924C923F9BA122BC0F950E3FCA209C3E7FE34FBC6753A53E79B36D3FAAE788BF7CC272BFB88ED1BFD9884B4092CE903F3009F0BE1CD92AC029359DBDF4A530BF24BB8D3FD65C753F0B3083BFC098F6BEA084EDBEA8E06CBF154B0040594EB53DC172453E342863BF26ACB33F65AE623EFD26A63ED73C3B3F3452693D964D5BBF9DF4C3BD2B391DC04867A03F68CE2C3F1326B93F402492BF1291803D5B07FDBF7952AB3D8FF6BE3FDB9A6F3EEFE0363F73876D3EE50F65BF45114C3DD0ED3E3E2519C93D975B68BFE32A9A3EEEAA763F517E31BF777A3E3F3E222BBEDB00AA3ECC3DA23F16D4593F7168B33F8344D8BD47805EBF56BF1FBFE4297BBF1126393ECA24BE3FD1175CBFD27B1E3F4EB52BBF7658F43E69F0883F3B82933EB053C73F62663A3FF95B403F008A8BBF9A8E51BF670BD93F89DAAFBF20CC32BFCD0CE1BE4F104A3F38BA96BEE17CD7BF7CC503BFEA6CEE3E504D5A3F92192BBEA00E85BE39BA9FBEF60F763F096B143FECAE2EBF95218FBED1F5A1BFCBD41BBE720C053F4B88303F3FFE6D3F58B3B6BF55549BBFFA0B5ABF8976C93EB8E1CD3F6665863A067FC03F7E194DBF8313B93FE246F1BF4892EABF43E6883F9DDBA83F0F7D0DBEBAEDB9BF66576A3FB63A42BFC24F2DBF8E7346BF8199DCBFC064023F75DC9B3EFA6B30BF56E36FBFC35D3C40A8FF543FA0936CBF1772543FEB2618BF0285F83E8A8A613F8918343F4678563FF6ADF1BE634564BF5395DD3F7588F03E39F578BF07D9CA3ED3B811BF16EA8DBF67B2DEBEF856ACBF2AAA97BFF4D24E3F89C6B3BEACDBD13FAF26763F49495ABE6356333EDF34A0BEC57BA0BC25108C3E9B93D1BFFF2BA7BF6CBD97BF33D0363E5B53BB3F106E31BEB6A9A2BCA0F2FE3DFEA8353E67FDAD3F5C1F04BE1DA29BBC8AC5E13D1F9F84BFB82201408B9636BB5C9ADEBF90DE363D1A8D93BFA41F1C40268A913FDA7B30BE5DC12CBF72B6E8BEE9D36BBF675249BF825849BED9F6983F8D5DA93E64230DBFDEC11EBF14EEE1BF3F3430BEAA757E3EBAAC01BFFD1115BE61A70A408D2C843E042D923F389F5DBFD38B9FBF04B529405F4725BF0991B43D42928E3E1E62173DD5209DBEEC91B8BF5929793F32B81CBF401FE1BE95EB14BDC4226A3F773675BE1A2BCFBFC816E83D640F983F10E1E03EA8F9BCBD371F8E3F6AE804BFBF7D033EE8EBCB3EA6B2B8BF8FDA323FB307A1BF3B37E5BE1A00AEBF6784AFBFA3ADCCBFF39A0FBECF002A405D953E3F132B323FC4C1B03EC3E635BFA4D2104025752CBEBE22B93F3EC8EEBCBA66C03F5BD274BE02AD2BBFED6A34BEE3CD8FBFB09E173F6173523F3F7711BE88D340BF59E6E7BF3F4BE73F51FA84BC81C9783E464DF43E959685BE02D7CDBF46486DBCCD2B303EDB78AB3E670E633E7B43823F93DD253FF6098B3FDA7415BF82935CBF62BAEA3EFC56333F337ECB3F6B85483EF83C0EC0F5DBAABE4546903F2FAC623EA30CDE3DC79B0040D1F3963DE301D13F8AD0C83F4FDA18407AD3173F8C6D083F8EF7143F5371D5BDB872B9BE4DF5673E2E8D44C0D69C57BF9DA9B23F6188CCBE105A0DBF2560B6BD3F53593F679AF03E810E5B3FEF98ABBF89C9113FC662A63EA094233E72F0743FFF04C13DB7F9833F4BC894BE90CAA73F8C92B6BF094041BEF7F59F3DF8D64C3F8D59E03F49DA023F6441C53FE1918D3FDDB650BFDB391ABDCF6C4A3E118E40BF3F6B503F1BF5313D8937F2BF960C74BFBCBEBF3F1C3C4E3E4D136DBD6DF291BF6920AC3F954C903ECF9004BE5C49C63D003B6ABE6B9F893F7E369C3E3E64CD3F5DF9D8BE62AFCB3F4AFA4F3FC9E67F3E155C593F7BE89B3F085FA73F7A0885BD307F8F3FA196A4BF7114EDBEC209F33FEBFA44BEB878E23F8E63853F02337F3E17F4A8BFBA6C3E3F113966BF175F76BD093221BF732770BE1040963FB8B3B03E56EF943FCF3D2F3CF13D8CBF9C373A3F82D8993F616BB83F0908F93EAFCED0BCF35A1E3EB583A23FA1D2A83F607D603F0A89A53ECD24C6BE8E0BE9BE1EB603BEFEA1883FDE82843EE84C7C3F512D87BF91FF55BE759B0FBF204EEB3CEDB45FBEDF69723FA57B553F20EAB5BEDB522E3ED2312ABFB9164B3EF5EFE5BD362122BF8D29453F814486BF0880273FE93ADE3E6FB11F3F8E7833BF642F79BE209B0E406E2A353F3174D7BEF4A4C13EFB14F5BEFA05683DE5342ABF6F61B6BE46D86BBE6F8F71BECE5B2EBEB0BCA13E14B12B3F3C00A23E47AF99BED1D2E6BEB44580BFBA129A3FFC6719BECB7FAC3FD9628D3E43B0B1BE7F945D3FC0E4993FDE51953F2320033FF0CD72BE0C9FB8BE1A56E83E9B58C23E8E6D87BF49844A3F160991BFDF31813F2BE5DF3EE277913FB318A3BEA31BF33FF2C42DBF02BBBF3E1D24F73E7B2123BF83955FBE8B0F17BF4F5119BC3BDD32BF1462943FF75AC7BF8DB8D1BE18F86DBFA124CBBD0A40EC3E6C189ABF87F8E23E3BAE8A3E08078F3EA050593F982798BF8107C03E3B7DA13EF7DA98BFA26A56BF40B280BFC91A83BFDF1C0D40197C343FD155FEBEB91A6BBFBE1845BFE86831BE3D61DA3D4E3B873F0205063FFABB92BDD2B997BE84092FBEFB37AF3DF940753D830FA9BED9D8F93F68B7EDBFD44D65BEC275D8BD0F15333F8A2C213F81587CBF5B2E2BBEDA60083FD4FA53BE276105C0F9F04F3FE804CC3E27BE1DC08CE3A0BEDDC5DABE5E162A3F168D0040D0241EBFEBA3383F6C7F673CA02013C0F403B13FF5C69FBED3618FBF665678BE4FFEA43E83B3FABFD27AFCBCECEDE2BFDFF4A33E31D6D53EA48FB2BF99B4F7BF8D726E3F21A7693FC9DA9FBEBA266CBF0BFDB33F453836BF345B1B3FB9C3A8BF40E3B5BEA35D72BDD447DA3EE21D3EBF1F40AD3F3EB290BF29BF4CBF3AFB0EBF79687E3EA59DC4BEEBF12F3CB28ADCBC2B8277BF30CEFA3FA26F68BF1D365EBDEAF68E3F78420AC0359913BFAF13E9BD5573BF3DEC0ADEBEADD6CABF7B65193E2365FCBE20374BBF00B2BABF83540A40588E62BE8FC8F6BEB93CE23FB2B868BF5540343FD4AA0CBC4DED1DBE2AB6C03F1B1BF03E74B7A73FFE07123FEB20A3BE83BBF1BE2FDF8B3FF78DA03FB39251BFBF90FCBFEEA69FBFCCB1AE3F186C31BEF005F5BF90BD803F713446BC8FF7A7BFA447653FDC7633BF78CCCB3FA7E4113FC0ABE5BE11929DBF6341FA3E05F87CBFB7D425BE1A3F18C04CCB973EC428093E66FE08BF8D6828BC4F7890BF08D4473F5B5FA2BFAE5BA0BE46185EBFB4D602C0FB8A64BF470136BF7A83B5BE3AB0BD3FBC1BF63E67E89A3D621BAEBF61DF89BF81EB733FD494173E3812673FE666673DA339E8BECB6383BF242CF93F2CE7673FBF59D83E889FE33EFBFCE3BE475B8E3F84A2C7BE8B49E3BD7C0689BF15E115BE122DF4BF2F62413D10ED06BEA367563FE52106C028469ABF8474064057F68ABFE5AF8DBFB02578BF0C4F92BF7585E03EE6FE993FFE2150BF2981E1BF8ED6923D3BC733401671863F0666D83FD6D5153EE4F4BCBF3594953E386565BFD9965DBFED96DB3FD6E4AFBFA5D85B3DFDBB10BF564911BF4FE67A3FB3EAE23F35826DBF3ED68DBF78904B3FE7FD5D3D06709A3F9AE6DD3F8827B93FA1DEC5BF6605AABD9F8D683F40254C3F5E0DD03C910594BF09AE533FEA139FBF9BADBD3EDE186B3F57D1EF3E183236BF59F01A3FA548E93E09AD163FDD1D6840A0625E3F633EE03D0C602C3F343522BF4C7017BF9F194DBE75FE743F892176BFB03383BE640F02C06E8B46BD26D1973F3DBAD5BF4B68893FD260853FF393ABBF827DDEBC08E4BD3F7AB16D3F401019BFFFF7BFBE3FEDED3D3377473F82D099BEB7D2D63B161506BF283C863FD9FE15BE6297BE3EBF68A2BF0D3E1FBEC57F8EBE2801F03E6E2DB33F2C8BA2BD38AB1FC0BF75DBBEA2CF88BFA68F80BF89A4133D73CDA53FB26E133E64F2B23FC705094003972DBF3FB72CBEDCB4923E7A92023E02F9CF3F9A69B03F7963B9BEECC52CBF5B4117BDF16E6BBEF5CF05BFEC94573F7B367ABFE507B13EC5B144C0048D4EBFE7847B3E824DDBBFDFA55CBE3232853DE2BA61BDB66600405FB0C33ED340D0BF2C6B49BEAE021BBF1F5C003C5DD0F13E5DD2D63E81BF853F6F9E82BFDA9789BF3762213D3D9721402B07C1BF56FB39BF558E1DBEAE24C3BE50C28C3E83F46ABF4BD644BEC906803F0D8BCC3F70179E3F5FD3923ED8D9003F5135D43F4827D13FB2643A3FDF7CB03D3452C83E695CA43FC55DAC3FCDA49FBE5BD1C0BF45F87EBFDE2738BF8495D83F49FA5BBF34533C3FBB9D83BECCA38A3F3DD511402B7FCF3F75698ABEE0B2A23F0E6ED3BED007E2BF541CB5BFCE141940542C25BF7BF88D3DBE4D45BE0F138ABF51533C3E066F03BF6224DA3F2879E23F3F9A123FEBF9573E312A5CBF1A535A3F05B50EBF5B6AB13ECD7BB7BC430AD93E3B590C3FADBFDDBE952E53BFFB1274BFAE84833FB818FA3EB15C133FF3F6613FEBE656BF83539CBFD3141440D32707BECDDD16BF179971BFD3D3953FBF6A993FB0C183BEE77A293F98B8DB3EE3CDBABE163DBC3E91DBFBBF02CDB73FB45AC7BDCE0EF13FCC4779BE32E305C0309D083F2FE60D3E010522BFD2FE8CBF9342BD3F378AD13EDCB8FF3E8CFE20BFE70561BFA92D96BFAD8024BF8D4CCABE114C743DB24E62BFBC34D1BE1F25A9BD8CFFBFBEDE2C763DA67670BF1890103F281B9A3EA4A32EBEAEC2B33F52FDA1BF2A4C913EB65FFFBEA96E53BF139E2ABFA3F3DA3CD4F53B402CAE2CBE0C32A03ECD169E3E4BD3173FF148AA3F8F08EF3D9BCF543F09A2013F4EABC7BEE8018B3F4E810940B1ED523EC82EA53F4FD7523FCFA378BF57ED7DBF048ADE3FE0C57DBF8E4E16BFED4513BF2AC1D0BF2A8E83BEE67A003F75D428BF2798013E5E37123F5C9E9FBF24A61FC043EFA63E9D34B4BF1FF1483EAAEA88BF1DE5BABE6ABA85BF1F23613F914635BF637859BEB4A0AE3EC729C43F9EDD963EA353D5BE3EBA6CBE6779F0BE5CEE183F1EA710403CAF96BF4C442B3F92A6833F1B8790BEDA2C403F08C19B3F5251D13EF623653F9344D6BEDFD942BD7F8C50BF4CCF05BF5CD6C43F5971683F9B62533F99593DBF71F9473DC5A79CBF224246BE4EAAA43F1376CDBEB7217E3E04D7BF3FCC7CFA3F31074A3F3B7F653E680FB7BCEC5B553EBBFF03BF66F867BFB5A75DBE11E9B73EB675763F47B41B3F937C2EBE902D81BFD065913E443FC7BF23B92E3FD2C0343FDF5B4CBF68542E3F53C893BE26227EBF250A5DBE2EFE78BD845C3CBF84973D3E7BC07ABE2C30C7BEA22130BF2D8DC53F8890E7BF68E9B6BE4C7BEF3C5FCC2F3F1B16B6BF952E0FBF0989B23EBB8F7EBE8C2088BF759F5D3F55963DBE5F1DE23FB84E1C3F8224733F699742BE7F249BBE07327EBFAFEDB33EFBAB15BF77F06B3FADEF85BE607FE83E7089B2BE20CB0DBFF6CC40BF88ECD03FE4A01A3F29F9CE3F011B00C02354243F12B4FBBEC8EE2EBF95AFC63E4258983E50233F3FADF2EFBFD37226BD5E0FABBDA7F6ACBDA47CBCBF7999B4BFF5FA183EFBD5483F6C44943FDB77C2BFF90858BF30F154BFBF75523EB043053EB42966BE93EF353EC2FE703F726D623FAB8FA93DB7442B3FAC3C2D3F26670F3EBE568BBD941893B9426EE8BF4C33EEBDD50CFABEBA26C8BE166E9EBE8D3159BEBF1CA3BF75DFDCBFD1BEC0BE046854BF7B3214BFBEB5FEBEB2193C3D9C1894BF35E1B23EF3DCDC3FF314064029D2713E0092763F1BB2D7BE8D9CACBF5B2F1EBFFF65533FAF60DFBE858B8EBFCAEEC63EE65485BE1F772C3F61F0FFBFCB7EC5BEBC3D733F1B1EE6BE6BA2E33FC04BCFBC53C8AFBF32B8CC3DA8BAA23F95E2B0BFB245FBBF9AC369BFBA890BC0C80BC6BE1B32603FDD20203F3DD98BBF0DDB953F467655BF05FDCCBF5183443FA0FDB83F0E21963E173B233FF34CF83E056ADDBF979D523FEB92693FB090233FF10C05C05B7B06403A1CE7BE772077BFD3EDBCBFFE8C733E44BD43BC1B109EBFB203843D7DDBBCBEF688093F774064BFF25BB7BF2C8428BF8F98583FAC94B5BFFD8AEB3E0FF1993F35B6E63D6D12323F1340BEBE89EA12BFF7D72DBFF150E4BE15B89F3F799ED7BF0F4F89BE777CCD3FB45BF83E599270BFA261C2BE17A4853EE7819A3F7F50A6BFF3A5B73FF197603F1D2700BC65AA2E3FDBDBB03E072DC13FE192ADBE42EB03BEF6ED3BBF97BA883E829ED6BEF8041A3DA4932C3DFD06F53D40A309BF7912FC3E395D193E7C03A3BDFD38DD3E4F8FD9BF31C77BBF21F1AE3FD676DCBF0BEED3BE758048BF5A10BA3FE3C9ACBF3775B6BF6A49C03F5C5443BE37C206BE8E7C3B3EFE44BABD485DC9BEE10788BF98202440E51E7F3FB7AD313E2876E9BF3925B0BF8FD68E3FB2E2413F96600FC08DF246BFC1F630BE0A2035BEA570583F0070D73E82499A3FC2FDAA3D38AB5EBED651213F5C074DC03D20C13F75292EBFEE73813FC1D33FBFEE6E86BF35C91F3E70B997BF5F3206BF0696913F74FF2EBF282DF1BF01F387BE554A5E3F84910D40E1A2B83F645AE2BE579FD33FF450BABFBAADFBBDA399F8BE994C7D3FC270D3BF792498BEDFA2A93E11F38F3F7B41893E630EE63EEAF4F8BE960802C03EDB3DBFC5ADD23F3537933F77C301BFDF6738BE59E966BFFCDD98BE504A9BBF6935A23F8B9D9CBE41EAA13FDAE2B73F994ED53E4C9F6C3E5BB31BBD60763ABE44B1E63E937F1440590597BEC13DC23F3E13D53F1F4E4FBF9D45553F29155A3EA6DF753E7A6291BDE5C3D7BEC9B613C01DB2DEBDBFFED93E26CBD83FE6C80F3EE9C8B03F76A999BECBDB77BF27FBDEBE18EDAF3F5331053FFB42F2BD985BD4BE9F7284BEBD6ABE3FC9A96FBFF33632BE00111840901E943E80F69D3F781EA6BF30DD9BBFB728B8BE791429BF289FA4BFB5E1943DD64890BD5F95DD3FD70C1D3EE1AE37401D20013EF24CB93E46A9963FB1AE833F1AA58FBF4FCE6A3F0A7619BFA1D2E5BE8E8E043F745A89BF3C580FBF9E5310BE7E5B933F857761BF143082BFFD12003FC3D8D43EA3EF943E6A82DD3E793108C059C8643F1CE580BE622C7EBF5AFDA93F0509C4BD3DEBB23E63188DBFBF89DD3E7B951F408ED83B3E738E13409E4A5D3F3035B0BE84436B3F5582C5BFB9A5223F21E617402638D13E37BD14BFAF6CDA3E3BFA85BFEF11493F3A648A3F802CD03D87D528BD28F0ACBE843F1C3F7AFD6BBFC4E4C4BEC3970D40BA89DCBF92B5233F2555C4BF6240243F68B66CBF43A314BF91B8B1BF4C39A3BF1E5B9A3EB5F8DABEB8A4ACBEA4B11ABF921A843EE36A17BEB77543BFD924D23F3ADF83BFA3E4BABE69FC06403EE998BF388BB03F8602C8BF99798DBDEF5F55BFB465853DFD9C66BF023C42BF38F209C0E9A1E83E3544FCBE97AF18BE09B576BF73F1FBBE885C3C3F189E5D3FEBF9E3BF6DA9C5BD8915503F43D49DBF3055B9BE0DB8104014CA2A3FF3B70FBF8D92693FE745BC3F814A623EF3A4C3BFB5B0BD3E0A7F4DBD89C09E3D626FB8BE15252340E7BBEBBEEE44E43E6E245F3F89E28EBF6E37A1BFF051A5BE7EF2613F3341893F387FAEBF1F7800BF3D95043E1EA51EBF9B2643BE24EEA9BF732ACDBF345EE83E1AC6093FF9C657BE4C601D4099738FBDACD4F4BEC09603BFDF5FB2BFD616993FA85A083DB2CFE83DC115C9BF67367DBF3C9B073E5BA8113FA5B1E83EA6FD2E3E1B6F9B3F8F1D8D3FA7E6CCBFD26CAEBFC33A5E3FCA6D63BFFCE7D73F2713153E8ADD99BF276D7D3EC6707FBE217D6BBF455C9A3F479B7EBF5EAB2EBEAF0C13BF79FBF53E62EC25BC8C6621BFEA91E83E242E563F98B2F0BE6DCC463FEAFB853E5B03C7BFE4099ABEBC7E883FA6F59B3F55A3B7BFC63481BF5E998C3F368699BF61102E3FAA65B6BFFDD5DB3E37F77F3F9EF944BFB6D2A7BE852FB93F8A101BBF936506BFCEFA94BECD5B533F6E0A0F40F4FA663E05D6353FC757303F50178BBF30FDF73C4D76B2BF3778863F28A5763DDB8AF33EB92923BEFDC2823FAD3DB73BF8B010BFECEDB6BFEAFE843F5E13C03E42C2F83E167A663E8387C3BEF867D5BFCAE1623C40518ABF8D02473E8891153F34963FC0E53A93BFBBEA8B3E6876A5BFE8DBCABE1A3E22C0E67F33C0870D063F2EA50EBFC99D03C0BC5CBABF6C37FCBEA2A7C9BC590D463F7CC6B3BFD7AF0CBF83F8373F733A1CBE437C42BF2D63703F9E2B62BE90353D3F85A8373F523989BF8858C83E289B0340F81C9BBED79EBB3FF4B3393F9FBE9ABFD9A82DBF847C9BBF397134BFB41C903EC5ED2DBF206D5B3EC88597BFFDEA64BED9D8C43FDAD2993E271457BF0CEA0F3FDFB9473FE7B8E8BE8F0461BFE0F808BFF0CF6E3E852515BF52F87F3FE9F634BF9C5930BFAEC4A93F28030BC06E1D9B3E93AF34BFB5279B3E47961DBF71E553BDDF46323F78392BBF915A1A3F0BBB9C3F99497E3F6350163F1512583F04C1D6BE7563333F13E3E9BE37183ABF0607C6BF95A15C40EFC98C3F550830C06C92833EA63CEB3F8FDF8F3F434AC0BEB2C66D3ECABBCFBF3234E6BF85A455BF57B1BD3E89F665BE285DD13DEE16C93EAAFB9E3E1AEF9EBFE0C545BE0833773C7D5EB8BE300718BF619399BEC4BF963E543D7CBECDEB72BF3B2488BD0BCA2B40A2EB3CBF22C8433FC0BDCE3EECDE99BDB50CC53F2E411340B839A5BFC917D7BFA6DE5B3E7A6518BD13BB8D3F928E2B3FCF0F5D3EB787D6BFA1DD3BBF3230AABEC0B2003FE328E43EF4CB3B3F53E9803F1E27D8BFDEAE0E3FCA073DC06F851140CB853C3F519EE43E1EE4123FA31C783D10DDCC3C94B0A23F238BFEBEB2B00E3E1AFCF3BE83915F3FAB98743FBBB52A3F4CA2723FC15A4FBEF629273FE1EC023F2B330FBEB114803F0C9E2E3D85D345C00CBD3CBF352290BC2FD51440A96F81BEE24DDEBD7C9BFA3FD3330E3F390BFA3FB5AC8E3ED7072A3F3C17DABEF060DCBFCB31BBBFEE7476BF2F0C99BE18C8B9BF95B10DBF28AA8F3F01D487BC3C0DE53E923CE0BD70E1803F3AE6903F28784C3F5D3705BFAA5E5EBF516035BD1D234B3F52A139BF86C651BF039A83BD9927BDBFCF08683F2F351EBE458D6E3E39AA5BBEDB110B3FABA2ECBE11419A3FF566F53F3A740DBF7EB6493F39AFC3BDE7F3153EBD1B9D3FDBFB2C407B459ABEFE58F4BFBB00B33E3805E33F740BD63E563E933F61AC83BE2E46963F2126C33E3567DD3F5C2F383F5589B3BF49C5A03F1F82583FA0CEA5BBA71A40BD9A321D3EE4D050BEFCBD2C3EA922C13FDD050540FCEE07BD25813DBF71E7813DF5000ABF8BCBC33FAFCBCD3ED13F60BFC5C1233FBEF4B23E09E7CA3E0AE22A3FEC2EBE3F76206DBF08A37B3FF297BFBEFF7D7BBEEF6BC7BFA1F278BF32E6CBBE42EB1BBF862A093F4F1212BF87B328C0E0E74ABF9294953F4B2F2CBFF101843F89A2E43F7920D53FAB62B73F8F32ACBF5805AD3F85256D3FBD12C8BF5903343F28ECD23EC3567F3E36AB593F819D89BE79ED0FBEE018723EA4A0FFBE887E9C3DFA12263F0700E9BF9567FBBF3589363FD307783F21079F3F2A2B953FCD4D913FC8B36B3D564B8B3B21A8C2BE012B1BBEF24A913F75DEB23FA474843F391C183FE25CB7BE638892BEE59C843FFE7AA43E46818DBD34E3773F2BFDB1BF1D4D9B3EE151013F111FC9BDC6C9353B7B50A5BEC0C514BFBB7FAFBF75944CBF9C3D13BFCFFF25BEEEE3A63F8550C03C7A4386BE912A733F252CBFBEB7A9B73EE9A44C3FEDF5E1BDF51B86BEB5241DBF3648A0BF72A09A3E1FE8B9BE21BD043E11F1FEBE2BB3233EB1E9DABF07C66F3C718F833D28C2003F21932EBF79615D3F022E8D3F8105F8BFFDC02C3FE3FE04C086505F3F87A7E73F6F5EA53ED2E137C04D3FED3FD5F5CDBF7F9C48BE65F1C13FB49F7FBFE145543F67C872BF59D035BFB6A078BF75253F3F8CA689BFB8C41FBE571085BFFC05D63E6610573F85C78E3F23487EBFC445A7BF9751C13E4310F1BF4D9AA4BF520D41BFF641C03EAD186A3FC7F01ABED7D62CBD6554F73F1BE25DBFF15517BF012B40BFF9AC573FC28C763C292BDE3D2C86083FA30F28BF06A163BFD0D1B8BF9165D63EEEB6163F10E3C73F0E9C01BECCD204BF3B6490BFA1000EBF987C1B3F33CB44BEF451673F458D563F53D233BF743F053F6199CABCCAB73B3F1339503F8978653B6C77243F1C3DF13EFC7CBC3F11F0D23E60DDA33DF19A1FBFB12E32BFBF3E0ABFE3173CBE9500D03FFA6A0DBFE21505C000092D3F9BE3743E460AEBBF4F4C413F75F90040F081B4BF35DE02BF8CA2053F1DC194BE77BED7BD39DEDB3E15B2883E69DC98BF2207553F8A699DBFEE84343EB8F64BBF373747BFB018283F76B7433E1504E83F4A6B0A401EF5AD3F65C491BDD17825BF3B731640C7EE5E3D223CEEBBA60B5DBF5A55EF3E6F3A783E55BD0A3FEBBE1CBFCD0E16C0289E4A3F35940EC0640767BF28800A3F8594783F3E0978BF008678BFF28D37C07E55243FFB3FE1BF7F401ABE71C10FBF9097513FCB78163FCD55803E792D78BF0034153FDA90613E0248303F91BDC3BE6A96EFBDA69E54BF94BA273F8BDA163DF3F0AE3F7EE88BBF8D245F3F119AB83EE85EAA3E05B07ABF493B2B3F45B7FC3EB2B33C3F510EA43F87CA083F08FA07C00B6FAD3FE02D373C57E9213DD6B5723FA0F7B4BEBC3F7CBF278EA53FD21CB73EC5CB9C3E4204F23C566EBEBFD039D43E0BECAFBFB58237BF6B311EBF14D7A9BD07B9953F67D09C3F92C0AD3F74D7A53FC943CE3EAAAD50BF7872133FD7EDD4BD0855ECBE746C66BF54B89D3FF99E18BC2A287D3F74F557BD72C317C05E4BB33D6BDCE33FD0C683BFD2C2C3BEA30F943F7242CC3FE5B51840E3F31A3F71F21640D1F8B13EBCF00D3F501126BE9CFD613F916E33BEFDC29A3EA7E84CBE762B4EBE76CEF7BE4160153F6AFD573F0600513EF2E2A83D8F764BBFF013763DF47B473EE9DDEFBF784D5CBF5D4DF23F03A4DCBF14F8B43E72A276BFB25D96BF84FA033F521E61BFC3FC7B3F3973A73FE998E6BFFCDBB03FFC7ABCBE1E229F3F87F82EBFAC17A23FD98ACEBF267A1EC05485B8BF6056BFBE5C7D703E200835BFB97FB93F76D446BEEC3BACBF15E5C83F0634943F003E463EF3375F3F49A7D43F80C51A3F2389113E693E5ABF424200BF19122EC0CE4E913E448210407DCFEF3EBD84C03F8418E6BF58C0B6BEF9D737BFC49DD43C41380CBF75AD243F029E383F3988413E1E98CE3E3428993F896C2BBE38EABD3FF2D5E93F421690BEF8A986BF61ADB63EA36CCF3E809103C0B77448BFF65BA9BEC766023EFF0001C05FE5B43D891D02BE0DF336BFCC83A33E0E54E4BE836DFD3EAB292DBF327A613F910B513F71A45B3F7A23BCBF8F5ED33C9CC4263FBB099F3E5D33E5BE4D1D21BFFA2398BF56FCA9BE06560B3FCD2771BFB8C12FBE58FF00BF5251923F6426923F6942373EDD1366BFE1910F407743FA3E15B6213F7DC2BA3F70158A3C6D7F90BF5D4DCF3C8500363F6A02923FCD13EB3E97869B3DB176CEBEF67A2D3F8E77023FEC9414407CF1DC3CA78D643FF978493FF8F522C082FA5EBF8250B43FE225343E31C7C1BE32C31E3F11DF0540508C873E0F27773F232358BEDD3DD4BE7851E43E6E20A3BF54D7763F274BF3BEC4187DBFA46F473E0EC6A53F3C12963F18102ABF27DF663F3E8685BECD2ED23F24D1B8BFC682E5BE9A05783F8925BABE856F99BF0F28D5BFC9D9243FE658013FA0CEE6BCFB0F5CC092C92C3FB1E7D43D742A84BEC13BC93FC352F13FAE75063FAA0C6BBF6F899CBFDE219ABF6ED0C5BF28E7033EC9A8CD3F3EBB103E09EDD2BEBBF6A5BF1618CCBE4915BB3EC5833CBF27EA15BE1590A83D5B7A873ECD39E23EE236D33EAADF8EBEF784E6BECFD6FF3E1D01123E53B6C5BFE863673F3BC6BCBF7CA3943F5915603F36C0C73DEA00D33F31A70ABF483C1CBEB7E69D3FFA4183BE1273B13EDF9DF03C29BA08C06F3F093FA1DAD1BD548E89BE95ED8ABB69B7A03E632A243F4C52AF3F84AE933F7D50BDBD39D4863E9753733F840D99BF369B6BBFCFE68FBF548B0FBF03B2383F160790BD6C130FB9F9F6AF3E656B51BEEB695FBFDC559BBFA0D55BBE224D5BBF319211C0220EC83FA34D613FB1AEA3BD8943A93F61C4F0BFBAC1EA3E4476AABF9F3B87BF7BDCC33EB6987EBFE2ACB3BECE5EEF3D3A67DABF964F9B3F81EC6FBF8404A4BED556653EA5D1B1BF5BB5603E5545163F57DBA0BEFE53A0BFC779D8BFF175C9BF81A0573F375F03C0DC4A19C099918BBEAC74FDBEC85AB9BF75EF49BFFA386140C327A73FAFF92F3D5022A0BF9587DC3FCA1D703E0E4C873EACB201C018C10DC0CABABF3F9447043F488AE23FAEE626BFEDAA89BF527E8F3FE805513E46279C3F8839C8BE15C731BF55CBA63F11E83F3F6BADDFBEA34BCC3D5C7214C0E5A7B6BE2D8D9FBFE8A399BF8B6E01BF12C512401350423FB178C53F11EE53BDC6724EBFBD8F723EB04537BFA9AF89BE8DE6B5BE7850A03FCA0597BEF474B13E259308BFA8488DBED60AEC3E913A49BFFBAFA9BF86101F3FA122803F3FB274BE49E1023E759B11C00CDABB3F07D415BEE6A83FBF880EF13E36B473BFA471543EF3F6E3BEFC6A8BBE950D0E3F957737BE681F0D40965015BF802DACBD9E9B2B3F991AB93F9BBD82BD7EE9093EA4AD49BF501B423FC70E013FB9E16ABFF5275BBC38FB45BFF42691BF6162633EDF39173F1730A33E188053BBE01AC6BFAC62E1BEF1EA003F9B86303FBD914B3DF9E751BF900FC63F73AC00BFFCE0C5BEF4CA82BFE9FE91BF05400DBF5219CABFD051AB3FB0000FBF38248A3D154099BFAB5BD73D08C200BF36E80DC0D3F0F83F79937BBF0BE1443E875F9E3F8373E73EF8F33C3F1E3E443F4027DE3F3C35B23FAC98923E9E933EBF27C8B8BF212EFB3ECC4710BF6CDC2A3F89496B3E0D0AE5BF914CFE3E86393BC0DF5623BFED673BBF615348BE087D36BFEE55903D13420ABFDE0D22C0EB0FEB3DB6296B3DD98DA2BE274A403E76921B3F0A2B923F186AA13EC3848A3F3CDCC6BE5FAC93BFD3EE543FE0D2C7BD591FCF3E8AEEA73E137458BE493D033F5B2B703EF825463F93C5F13E710CE1BE9BE54FBFA4F21DBF8A63E73FCCD503BF3A3BAC3F6D17B5BE4D7E763E1934A5BF8327943F5E6991BE8551A03ED4D5F43E17510F4023997D3F4E771CBF2B16B1BF03E944BF320F9FBC8AEBEBBECF9117BFD0D0A7BFF9D13B3FF54AD23FD8E2B8BC57F3E5BD5F9DD4BF704B9EBED0AA1C3E45F4563EF738D2BFE2284FBFA735C5BF2F13A93F25F99A3CF1738EBFF732E43FC009E83FFB7D59BF76B4B13F073830BF47C0DCBEE5BC9EBE10EB7EBFE668DBBFCCAD563D367E42BD944BA73F5CB269BFA54B7EBF269F503F2125DABE75C3A13E133598BF4DC948BFD2665D3FCA95053F77B8283FBEFF253F16A2DFBD8F8B223F6898D93E3D24EDBF03CE7EBE0E9A17BF3E2D963E5CA383BEF952CBBF1A1229C06568DC3FFBB1453EA7A2B5BFD025A9BFB638833EB3366C3F0334E5BF3FAF633E210E333D"> : tensor<64x72xf32>
    %cst_0 = arith.constant 0.000000e+00 : f32
    %cst_1 = arith.constant 1.000000e+00 : f32
    %cst_2 = arith.constant 5.000000e-01 : f64
    %cst_3 = arith.constant dense<[-7.038060e-03, -0.0487358496, 0.0287619084, 0.0263099875, 0.0489705503, 0.0142859416, 0.0271760914, -0.110095546, 0.101317726, 0.0249059778, 0.01980271, -0.0683195665, 0.0720070601, -0.00227573304, -0.0620669797, -0.00378762488, -0.104518525, 0.0640528277, -0.0739491731, 0.115856685, 0.00517188199, 0.111700714, -0.0328119546, -0.0621630475, 0.0676230863, -0.00593441678, -0.069919236, -0.0399858691, 0.00405691518, 0.00658434909, -0.0779491812, -0.0250443034, -0.034095522, 0.0540005639, 0.0789524689, 0.0509581119, 0.0629127249, -0.107475489, 0.108034164, -0.0355583839, -0.104822025, 0.0327516831, -0.0829758793, -0.116297022, -3.967210e-02, -0.0656491667, 0.0473235771, 0.112084292, 0.0133893369, -0.0632709488, 0.0783388242, 0.0591901205, 0.106182955, -0.10160771, -0.0556929857, 0.106130287, 0.0413874052, 0.0967216938, 0.0919588208, 0.0775814875, -0.099932976, 0.0744980946, -0.0533472188, -0.0124230227]> : tensor<64xf32>
    %cst_4 = arith.constant dense<"0x133EA73FDB327DBF1704A5BFEFE3233F969B8D3E6B6A9CBF5B66973FB1E699BFB541CC3F6ADC50BF57C636BFC34175BFF013A4BFA6E00DBF155B493F85E1E6BDACE3D1BEB7C12A3F055B30BE8C0AEF3FC037323F7D49713F02C347BF1C1D6D3F0254B2BFD9A5763C9C35EB3FE15269BF60A04BBFCD04AB3F5AD2B03F05AE5DBE887119BF64D392BD187C03C0B57805BF378A75BD0677BBBF7D4C9D3F5228A73FE282BBBF6EDA1C3FC1ABBCBF67D9A23D9E747C3E55AE8BBFDFEC18BFF066EA3DF05E863FB0B5EBBEEA263A3F2579713E7C075BBF6F721840651C01BF2CFE9F3F4D156EBDEA85D73E164BB13EF8FF41BF0367B5BF018142BFE473D2BEB8A3C3BFDF8E1BBF2AD84EBFDF9A60BEB8C781BF1F9B903E54B6BDBEBE1D8BBF598E8DBF027DB6BF8E98C9BFA130623F8DAFAA3E8DB5C9BF0DAC5EBE4919623FE4159E3F40CA13BF6DCC863FF316AD3DBBC68BBF1B08B03E387B33BEECC21D3FD6CC0ABF3BA76CBF94CCFB3F2F8312C05CFCC23EF8F706BF17508FBE5FC09ABE431DA53E132FF23DE642E2BC3CBBBC3FD8616ABF213A4DBFC6B968BFB68816C0662DE43DB66FBABF2384F73F6439DD3D48BC68BEAE1E6D3FCC2D2F3F700653BFEF3090BE5B4720BDAA66933F80C6EEBF47A6A2BF82C6C3BEE08B86BD2600963F2A441340349D78BFD56E6CBF140786BF86C8F63FDEB2A93EE53D103EF4E6513F7EAB41BFCA44ACBF9037CC3ECF713E3F1499C63EEF3914BD98FF9DBFB0A6933FD212CBBF9B3E263F292BCEBF019A673FC00BBF3D06F92DC0466267BFF6013A3FF37DDA3E781564BF08474CBF10EA21BE6C39163FC9DB103F9FD2973EB897ACBEDD166E3F4822E33E31B9593E96008EBF45D52A3DFF8F6CBE886B79BE9B2D163F42D9B4BECC2F32BDFBE4EA3E3954123F6A43BCBF6C00D33DFF4DDA3F03B41D402BB3E33E71081C3F16262CBFA52E8C3C2B474EBEE1BAA4BF5236313F7C3B1A40E72D04BF1585D43F483434BF523C173F0B54733F4C3A5A3F612D46BE0DF904BEA87892BFD1AA6ABFA6A3AB3EFF62B73ED9F42D3F4B93063FAE9C1FBDF9AD413FDCC9333E3A80E83F987888BF32BB0640F01F91BFCFB0034034267F3D173E043F7883763FA301E73C3FD96E3E640501BFDD6D02BC91250DBD266AB7BD9339B73FCFD59B3EA8C68ABDC3C12FBF50D7AC3F3D232FBE1C23E63FE55838BEA8DB133F8C05C63E48F2EEBFE50EAEBE5A7F933F4DDAE5BEB9F63D3FA3CCA9BEFC6FFBBD102713BF2B4C54BF2C0D70BFB2FE903C63CF0E3D9E6A3140F257D73F178AA03FD6D49D3C0CE54E3F097C453E170FB63FCCD47ABF1AA8183FE7AA953F1F0E00BF7988563F3B0E07BBBAFD9F3E1A1B573F0C228C3FE06DDEBFF0E391BE4CA018BF80099A3F9675D73EDBB98EBDF26654BEFB9BC6BF98F2BCBEE7A73640DB0157BFAD63AD3FFC7D983F74A4BB3D5F9DE3BEF732953F49DF233F59FD7B3F88318DBF09F8ACBFC851D0BFD45612405584C53DD0D1603F11B3C93EC0C6B83D85A9DABFDA5FAB3E2F89D93B1026EABFA34520BCCF816E3FE984813F110393BFBBFA413FE56FD43D226FC13F3688FFBF7A88DF3E453F06C053C24EBE10A0B33E1EA90240E1D2B5BF873B193DD025D23F927017BC1CFD303FE57139C023C63ABF2BE2213E926360BF2C91813F0388423EFC930F3FDF7B4FBDC159123F859572BF9A8A023FA51A29BEB529AD3F301006BFFA94FD3EB3E327C0A7EFE2BFEC6259BF1F3F4DBF7238143FD2DABE3EC258F83D4F685C3FBD88084048D9943F7831D0BF0045CCBFF1420D3DF2F7AE3F381BFE3E71A4BEBD5702AEBF02090CBFC98C403E28B6273F03E581BF454B4A3E243008BFF9C8FF3F926D2ABE7E4E903F55B6034037C3743F9E12433FDA35D43EB31A88BFDF5FEE3EAE89F83D2CC928BEFCA96A3FE389253F5216BD3FF3D4BEBF8145CA3F4595A93F636B09BFD817ADBF9EAD87BF18D64A3FC1FF2C3FCAB7B6BEFDEC53BFCAF42ABF2BE6313D6AEE42BF6F7307C007AD2E3E01F4F53F836244C00E7C2DBFDE678A3F37C79DBFAD7A1D3FAE3509C021AE99BF0F9853BF18EBBB3EC8DAAA3F4FB2B7BE86C65BBE43ED50BF6022DABF5D1692BF8374B33E227DDABFFEBD3DBEF207CBBEA48EE3BD87E0AD3F7F553F3EAC1CD0BE0A0ECB3F8EB9E7BF08F60DBF86F710C05AD3273FA50AD23EBD8378BF3C4D89BFEFFE60BE5F9BE43E8F38083FE551E83E2E2E003E8167B1BE6788F8BF2E5EF23F43BE833FB9BD173D449829BFFABFFDBEA3BC38BFF5EC104094E08D3D895EEDBDDEA105BF1BEC033F180536BFF20D8DBFCFB2AE3E0A61013F4115153FC4087FBDF875DEBE80631A3F8C088C3FBE50D9BDF2602DBF2AA883BE8E2EB7BF016E86BD582389BF4B05923FB979C43F83599CBFFD40BABF1D4679BEDF0481BF762D3A3F195A623F23513B3E7A1E77BF53CBF23FDE548FBF6C9FAF3E45AC50BEE493103F5C9B10C09F525CBF45CCCDBEE8563BBFBBBCD3BF93AAD6BE8889B53EBBE09A3FF4D6203F7954AD3F8E12A9BF8658F3BBFDAD53BE918C5F3E8E3DD0BF90FF07BF0C4583BFE6704ABEA18A58BFB6C680BF5CC2CC3DB15EB33F0E7935BF90E2AA3D021E653D6C85753EE195613E4D629BBFFC81BABE399D1A3E3B7311C034FFFABEEF7B113F204494BFD8CBDCBF8209F93BAB972B3F8F6C8F3F48AA71BF384DAE3F9C8DA63FE2B8263F7CDBA7BFCE59373FC414883E808CCB3F2A0F203F01E48E3FE886E23FAD359B3F2478D8BD2A25463F68C482BFA7062C3F4B30693E8D23B4BF58C09CBFCD83823E0B4F4E3F69D13CBF15E400BFC3DD3D3F1BA885BF36FA83BEDE83703FEF6B6EBF801C483DCB9A3DBF5B91713F033CB93F4685613E22EDA03EAD448CBF2A2C2EBE08997B3FD03920BE423BC83D2D331BBF60CC9A3F20D40ABF7EFF313F340D9F3FB0FD8E3E49220AC0B6D4483F7C36E63E0C9ADE3ECD6FF93F14C7563F27079B3F2731983FBB4C5DBE25E883BF45FE18BF20A8A93EB7D3D4BEF023B33E3E06783EB970BA3F2B5CD53DFCB14FBFAD44963EBBF418BF1C3FF93EFBDC9ABE4B66B33D5135DF3D41DE7A3F5563683B32138E3F264B523F171C3ABFC781403F0E8FBA3FDAC585BF4CEA91BE1BE0653EB3A4013FCDE6D23FE613363FE2B2EBBE38E8A73F792333BF2FC74ABF51D25CBF8C4F8A3F6F40B53E9B80823D1617E6BC600DF8BE64AFDD3FB6842DBF288B293F6DF7E1BE239F28BDDE12EFBDCBFBE93E215EAE3FE582C7BE26F367BE74A2F0BEF701B4BFDE4FA13EDE6448BF6589E2BF8F6611BF065B803E2CB93BC0E1D708C0D511F33E47F14F3E9CBD04BFBE910A3FA011C6BF8D9393BFC39C763F7E093B3FFCEE3BBFC6E4D63EB8B0A13E4D9DAABFF8B643BF5B37AE3E393F4CBE4DFAA73EAADE0CBEC13419BFF1EB0C3F1442CA3F8F3546404F25B73FED4F5BBFE8F6293F2A00443F7C4307BF6AAC25BC3C3DCB3E95D922C03A56503FC7386F3FC133B6BF4544773FDC2AAB3E844691BF6CEF7A3F9A1D203D6AF439BE7C82473FD8EAB8BE55C608BFCA2BFBBECAA7633F4DB1B43E7464B03FE97F763E0540573FCB80A53D919EAA3F4FB80E3F448F82BF16439E3F934ABE3E5029B93C019611BFBAA65D3E2B8042BEA4412FBFA6E323BF87D2433FF6EA953D490126BFA067F63F03FC4FBF78BDA6BEF26178BF3EEBA73F680DFABD0843153F71CDD93D21E48FBE269811BFBB1083BE099F89BEB5D89ABFE103B8BE4A503A3FD4AD663F5C68A5BEEB11E53D4A608CBF956ABE3DB5752ABE31E6B43E2F7DBABEF0533E3FBF371F3F136DE5BE6BD6A13E980D773F24DA523F1CEE88BF49CA03C08B94F5BFD32A7ABF627EECBD66AA4A3FCF6778BFB6AEF83FA7095EBE574F663EC3C92EBF475998BEC0542A3F8BA794BF5B476DBF9D6CB3BD0F7E983FD79132BF2865303E4261193FE30EC43D096A2B402F6A903C0C960B40C03661BF3F6C8B3E4A3A573FB83F3A3FDFD7FABE92E0593FDC3A9A3F3277B43FFB208ABF22F3E7BE22ADF5BF1966843F76F68C3EEA0888BF35BAAFBE9C578FBF9A0F70BEDDEAAABD22FE12BF0EB1B3BF504A75BEBCB9893EB2B020BFCD4DF9BF0A0F0540F747A13E8B1973BDDCB69DBFF5CA433D13651D40EB4D22BFC8C24A3EC4A929BF02E0A43E1B6EA8BF290A1DBD904F513E34C46DBF623D75BF705B02BF6B8796BF39FA57BFEDA0A4BDEFFA30BF1BA4DCBEA0388ABE8FA9183F330D8FBF026982BF67EC733F5A470ABF29FCEA3D360587BF5DB971BF52CC57BE89CFF23F92E5C43E8B4CE63F51928BBD3A736FBD6F03313FB39B7D3E466199BEC6D038BF9B1431BF2D66CE3D85A8AEBF21F1E93FE291ADBEDD41C23FD0A7E83E4882AD3F768814BE7F50F0BECAFDE3BF843BC03F57449BBF234FCB3DD279A1BFD7D40740933B0D3FAA49463F172E4BBF25BB82BED88B3D3FA984AE3F15E84ABE78333EBEB3C08DBF58DAC4BF91131B3F007F3A3FDDB5B63F469EA83FF3C14BBF0A0D203EF2EAE6BEBAC90CBD6F606F3E948B6E3F2CDEBB3F0630663F522A0440DF37BF3EF4258CBF10B2BC3E92B868BFD5593A3F6404ADBFE53EE53E07C6CFBF0DE244BF4BE387BF58BDF53DA451173F73ABE43E151850BF5CCD833EA3DB61BF4DC0B83E207FAC3E40D7A03F5C00F5BE0495373FC2C0A23C57939ABF1A235BBF4D36BBBFF116663FB45C3A3F1C7D9CBF095A4ABF20798F3E857A6CBF26925F3E543295BD2499E7BE01330540A259E6BF8CB5FEBEA17AF8BEC00C01BFF0948B3F24F8DEBE0D5208BF3CECC73F7318BE3F53B3973F779B133E4CA903BFF0B6BF3FAEECA1BF16F99FBE3177B43F7AEAC139D52FE5BEF015FF3FBFD739BD43994A3F9D6B323FA22301BEF1EFA13E8F8AA0BEEE0DA03CEB1160BF80939DBE824C363FE10A273E444BED3E1FA09DBE087B8CBE04D919BD00B3AF3E72F4443DA6CB0940DF45273F2705C63F4EC1AABF7D8BBFBF32A9E83D4A94903E3989A4BF460A593ED79947BE6BDA863D10AE15BF7B1DA9BF5B32053F53800ABD097A863EEFEFF3BD43B977BE107D68BFB376B0BFC390D5BFD3C71D3FA82F5D3D5AB58B3E0A1B12BE3141133FA3B6343C9AC011BF677520BC448129BF314B5B3FCC1D113F5E732C3EE78EEF3F90EB53BF456FB0BFDF24E43D172DC8BFE26BA3BED6D0333D89B9163FB7D7A0BD27741DBF9AA88A3CC1C88F3F0BB911C09883E63F78D3553FFCC975BF14F5C1BB41EDA43F43DA5E3EB058B03FF4A60B3FE74F72BFBB2F00BE81EA003F453455BF8055A03F16226A3ECA9532BF85749F3E189D85BF30CFD53FD5160BBF0CB29EBE2B9A933E4C5341BD2D6DDEB9C11B80BF7DA3DA3F40B8853DB1DC10406C1A05BFF34BDE3EEB41A43EE21391BFA3850DBF6EBCE5BEB8024DBF0AC5DABD6D07D73E3CE86BBFDDBC81BF24935D3E9D5AC2BF7ACB113F6695A6BD234919BFC160A3BF9FDC953FF703F63E6D65D83DD678283F6534AE3F866025406425123E0F1449BFA5E3A33F1F2A9B3D9AA5ADBF2C66FDBE15E8943EBBF0B0BFD56523BFC24C083F6D8C5B3FBC11A23F647AB13EC98C80BF79A9A93E1CE8DABF6BA530BF4854913E4DB4BFBE4E7C1F3EBEC6813F61590F3FC478BE3DB7B9A43F93AD323F84EFBEBFF9B045BF6ABD014028B4DB3D42A1D23F127BC0BEFD326EBF26B3DCBF0C6BCEBF90519FBFED19CB3E484644BC7B4A803FCB07A03F863BAFBF12319ABF00C75FBF9BF038BF25B2843FC3B011BEF52394BE27FC52BF0606153E1949293F227FBEBD430940BF64D7263D94840FBF296F32BF1011C3BF97FD7E3F7EFE25BF2D59E8BFC49607BFD5578B3EAA587E3FF3FE913E3BAF433E9B18F3BEE6322DBF269EF3BE74D2A5BF9662EB3E579610BF632F173EF05587BEA59F813E9350C43EEAD6DB3D9526AFBF290914BE152331BF8D25093F81D462BC3C48AABEC64A3A3F29DCA23F3BA685BEA18449BF9FD7ED3FF977C43FFE521ABF79D29BBE86904FBF4268D0BFEF3E04BD98A1163DC3EC9DBFB77DCCBEF7A3E13EB04A99BF7B8BBBBFC3D292BF39EF0E3EE9A9B13FCF773C3FA0CD1340B39A94BED86F433E32274CBEFF2E973EC9C9DEBE4CD06C3F6F0372BE5BC68CBFB3BD383F6512F5BF7551E83F9BE8603E76618CBE4DCB9ABDD482B6BF2CEAB2BFAC88C5BF299BE83FCAADD0BFCB3675BF2B0174BF5ABC86BF249F9DBFDF6DB73F613140BF039970BF849CF93FCBB0DCBED806343F1C23683F3D1ECD3FB3FED1BC4D50AF3D92A512BC1833BE3F8EDDB53E468E813C7A7CAFBEFDFF653FBE1EC23FFB7416BEE3E235BF1BBE8ABF736256BE4F5795BF26785BBF37B71ABF0A11D53F18CD4BBFD822263FF922A33FE3CC0A40218D40BF55B99F3F4BAC253F204840BFF05A553FCADD983E8FCEAE3F6924C13F9DF61EBFCC45073E46E489BF03D7EEBE186D003F513C8ABF2A64F23E09F7903FF7E8DA3E4408413E370F9A3C97BE8FBF9F3E7B3E93D650BE63B7DE3FC1BBEEBF1876EDBE3422E5BFC4BF8D3FE8F2ED3E1614FABFE652833F867966BE4957DCBF7ECB1DC0FD99CE3E63E0993F030C8BBF1EC279BF645395BF6BE88B3FEDD483BF2F6B22BF398EC93F9F50E83E0E32093FC95488BDA0A880BFD364293E2615783F34612CBF88892F3E15E2743D12B215C0215A0E3FBF1D113E5F59333F8129573E09C1DD3E6A96453FDF88ECBF3AF19B3F1152C33F0CF9B53FAE1F96BF8A89A43F29E25ABF757B2A3E5FB383BEFEDA8C3F631C633F3E2B02BE8D5FEDBD3D9E93BF9A512ABFC02E2B3FAF76E83FA01B293F269817BF5BD0A9BF17F1313FD84E313EE0C296BE1518D83F25D8833F3BB25D3F8B406B3F083C033EAC4AE2BE211A733F69C6B03F920F0ABFBD8825BF628C90BDDE0856BED2DC4EBF9A027CBE4C47D9BD554887BF34A466BFABA28FBE5D81A83E827EE73E48626E3E07631EC0FBD7A23F3D3DEEBE1B9E0A40BA5E123F2B692A3F986DBC3F3601C8BE39BADF3E63130D40778C763F5DD0D33FF512A43FC7DCCB3E865C443FF54DCB3FFBAC723F0D0C603E7E7B90BDF878EC3D739B253CE33953BF719A223F160AE13EC8B111C0B2171CBFD158643F79597D3E7BC2AE3FE5D0413F7673913D2829CE3EE4F402BF90CA51BF1716A93FD147813F032A353D631F8FBFA8C90EC0D7D414BD1515B0BEB44D99BF5C59833FC775BEBF7C2CB3BE4EB9C33F55AF0C3C88E31C3F0D9BF93E964628BCE2A4B6BF91CAA3BFDAAB923F4F3ED6BEA754CC3DD93F81BF78A5BDBE53AD84BE0D646B3F114812408289223F4691F2BFB18969BE2FC0433F018F08BDF91D1640E8C38A3F078A0540E686C2BEA7E8E43ED22DE93EF80A1E3FC75EBCBEDA13A5BECCD30440116725BFE89EACBD42DBB7BF07D0703D4908353FBA06BEBF9B42B3BD3097CFBC33733BBF631FCC3FBEAF28BEFF6F043FAE3DA83FDE8D2FBF4FA2CDBFE24CF5BFCB9680BFE1BF583FA43AAC3F640414BF9A7110BD081DBE3F7450D0BEC9DA923E529C21BF597B043F121A933F642A253E1D1D76BED1BC0C3FF5CA90BF60A3183F63BE0D3F21B88F3E89A3CDBFA8928C3EFADFCF3FFC90F4BD63300DBE1525FDBF39DF473ECD68EE3F0DC4583FAB66773EACF52FBF0FC41CBF54EDCD3F70E4CE3FC59B94BE203902C08F8E88BF84DF5DBDFF458EBF20189B3FD52D97BEC1EEB1BF75228A3CB777133F4F624440553B09C06CB5E43E13DAB63E1A20DC3F81E2F4BE7813A23E18B7A3BF7F365ABDB61132BC488872BFEB25F6BE2C2F71BD8D63973FF216AFBEE0160DC0E081913F78A351BD17641DBF3E2C45BF4BA3B7BD67D9C2BF641E023FACF2A03E820E5BBFB9C30C4066921DC077B70B3E70E4443FD88308BF551E253F33B4A33FF8219C3F553A5C3EE7C9EABF02E61BBED054CC3F00D31C3F823641BF59919D3F097FE3BF6F8C14C00BA6293F3374C6BE69BFC33E72C3BF3E567706C009D09E3E3C8EEABF2C4D803EA99C99BE681A77BFEDB812BFD96C7CBF5E60B3BF8FD8493F17B0173F4790C5BE0BFC5A3F2287F23F0DA78BBF02A94B3FFF5C68BE785151BDD45F1E3EEA4CC1BE54C0EEBDB42CDEBF58EFBCBFFD11FBBEDD52A6BE61332F3FA142AF3F9653EF3E6BDB143E05999D3FD14C57BFF59E0F3EE6880BC0A0DFC43C6420473E612DB93FD4C130BF88C4F23FBFE91940A0594E3F40F7ACBE928DA93EC66183BDD7BABABE6B40323F46E0CE3F8642A73E432B95BE7DE5033F8614EB3CC9FE2FBEF6DBAC3FD1BA07BFD186BBBE096F84BDA2ABA63F19C9DA3EC7782BBF3C08A93FBFCF1E3E5856EA3E09EE4DBFCB4E28BE011600BD625BC03F96011D3EE5C835404090C13F7A73FD3E8FB5A03FBF5083BFE2E4973EB1B1CEBFAC3A1A3F2E708FBFDA28E03B3517B9BE92FD533FBCF3A6BF37BDE63F07D9AB3E6EDBF3BE5B31293F46B9E43F5D6196BF5C0EA0BF629A563FEA6E8B3E76C92A3D985A27BFF89B86BF99A487BE43BDE5BF4CE904406EC481BFF6D60FBECB0994BE7CDEEBBF42B7A0BEA52A3CBE2BFDF03F57DD5E3E722B2FBF67FE7CBF0EE784BF19210C3D7E86903D2F2D1FBF06D7CBBE42FF513F02A1EBBF6691323FDAEE7ABF5A5E84BF968A1A3EC0B3343FB0FC4BBF64986ABFEBF5843FAF0C523F2E21EA3D36C36C3FF586F53EB2C1B9BFC6FE48BF448444BF5C82B33F78FC77BFE2AF0E3EF30F0BBD5160A9BE1C0C3EBF026B3F3FC7EAF53F8A31BABBB1F519BFAFC9F83F9B7DFA3E051A9CBFFA1B83BFFC267BBD8E1B113ECE7EC53E9B7D7EBF917E8E3EEE5D1DBFC74A4B3E2DA0BC3FC9AE4CBF074B4EBEA73F433DFFA013BFF2F517BF195C5FBF754C733DC036933EBF8A263FF1BA0A3E5F2B004013735C3F8AFD8CBF58477E3F3C400A3F7CF2E1BC6269663FF930B23E020BD03E1C20B03F1F7E12BE4DB62A3F3CA03ABE32A707BFA3029E3D7C33893F922391BE78C112BF1A64C13E595C1E3E83D62B3F61BFAC3FFDD6A8BFD539BF3F144D4F3FAF16223F626EA7BF86CD69BF4500BEBDB5BC2A3F23818CBF91E717BF99D18B3FE6C8843FC412B53F8F5B1640D894A0BF8303533F0F4638BF9A743440B1781D3E4E6ADBBF43F188BD2321DBBFF874A53D14FB623F078A0640DA2618BF891648C0DB37843F89FCA83F957603BFBC9105BE79DE8C3FE184D4BEB08F1140BB7FE83E529A463E6DB3023F6EC5943F112F653F98B347BF8C23CC3FB7B6203F113C6E3F10B98A3FAEF2EEBC2737B9BFC68975BE63ADAF3EFE49913ED70E9DBEE54D233F99F85CBFEB2B6D3E65D92A3FB08BE03FFF329A3FAFAA883F00935C3D4B9C91BF98B91040F3B710BF9D2881BEB05764BFC61D95BFC36D2140A8BD1ABED781E7BE9D25B7BF83EF093F34921640DE22DC3E3498C33EAADA613FCAD8D9BF657EC5BEA7B31FC0047DC33E6ABC633F661D90BEA68F2ABF93B4C7BF7462AD3F00ADAA3EAB33B53FA4BEE03FB021263F07B29F3F9646B83F2884DD3D5B5367BFE1773E3FE8D39B3FD4E8A23D39A69CBF992F943FD1273ABFD29720BDD7A9153F7C26263E3BB0F2BE7C823A3E70881CC0E2399E3EA1786BBFE29808C02F52CCBF490C6F3F5BF78DBFEFDBBABFD17811BF191C09BF188AD63EE17ECB3ECB8F4C3FA97D843F7F89103EAD21A1BF7D0E73BE376D8B3FFBFD8F3F4D02AC3F950AA23F262FDEBFFCA61CBF8D4D2D3F7BA555BFADAA34BFD52E213E34D25A3E5F13A3BFD77A303FD71BC53D61A517BFA11397BEC0B7BBBF89A4153F2890013F699093BF37ECFDBF9162203F03C7A2BF8A47263F756A96BECF4E803FB41FC2BE30EC0CBE25F4AFBD52F9CC3E32051F3F6737A3BF5C597ABE9AD74BC04E9A2E3F7F90873F5C0FD63EEB37293FA96A12BFA7C7EB3E662544BE44A0A9BFA7F6C23FC857893FB8D189BA8CB50CBE81EB91BF329BB03F0622B73FA693983F2CAC4FBFEBBE84BE0A0788BFA42BABBDBB3E563F6722BABFBFBA41C0588DB7BF5ABC8F3F6580733FE0A43A3F2A0FD03EA7AD91BF3078A6BF8DC5393EE99976BFB4C239BE79C778BFEDBCA7BE65FB1E3F07E672BFFA24134090A4E03EC1FFBD3FB7FE2BBF29E6B43E34F835BF043F963FB0278BBEBB33A33D26241F3F87DFDB3F0F88F2BF7806E73F2EE03F3D3C4190BF403EAB3FF330B3BF6F27ED3EE122BEBEA1460EC0888B30BF6328D5BE7A08F53EDBB5243F63972BC077AAB23F382E4BBFAE10283F7B6F8ABEF1B235BD2526A6BFEE92BD3EE7F38CBFCB1A22BF4EED463F29758A3E099981BEB2A52ABFDA013340C0B8303F3B6DEEBF35D8CEBE54162C3FF57BF6BF649A7BBE1EF9EBBE5762A83F0D0C92BEA9C0F6BFF2F6823F176AEE3E2330C73EB11D65BEE6FD61BF45379E3F48F89FBF7C3CA33FC79712BD000BF1BF66CF1ABE6B3748BF709B46BD2757DD3FE1ADFC3D3E6A20BFDED2A83F4BB73DBF60950DC0013E1CBF0E31A1BCF47522BE13F3CCBF81448BBFF7BAA53E3BAD9D3E61CCAB3F633D04BF1562DCBF98D88C3E2C0492BFFD6402409A6FFDBEBF3AD7BE19BDA4BF6D1FB53F3EBB01BF19B6813E15075C3FF2B8743F875175BF09ABB0BF5F8876BFA6BFE5BE6AAD8C3F32A3D0BDC462A83DB74AFF3D96CCBFBF8ECA14BF5CB2F7BE394A603E02616D3E26D85FBEB3CBCE3F3103AABE62395B3E214CB83EE6A9AABC95F5923F391D8B3F1123E73EE107A63FBB89B93ED22CBA3FE2EA5DBF6BB9F23F53ECDEBF5C47C63F226F8EBFC7A78C3FAC52BFBED8AE35BF05BE953F5F9F13401347A4BEFBB315BEAE73A5BFF0BD06BE54DC843EA8B3B93E22F1B53ED4518FBF36CC6ABF1802A7BE413251BF4AA801C02A46F6BE8AA052BF0C6F4BBFB8F3093F43451CBF796FA9BCAC760640DB282B3F03403EBDDEFE6C3F4D69C6BE9D0010403EF188BED11130BE28BF863FA611383FF08913BE8EB4D4BCD536573F7F98823F89C24E3F9FCB743FDB4E4BBFA67206BF7EB456BF30272640E55F133FFAA7A53E76BEC0BD2FA5853F8E40843EC3E0E3BE8A66CC3E9879D33EE978D1BE6C11C33EE00B11403E8FBBBF043C993F0301FF3DB43B363F07179CBF500F843F3314AEBF1749FC3F85C59B3F3A4AA93FB02DB0BF98EB143FC6A82F3F401FA23E2892B2BFDEAF313FA6B5973E92EA67BF5010693E18D11CBF004DE5BE980C913F317414BFD9D501BF3C7BF4BED0A97EBECA5681BF32F4483D3FA53FBF4FC64AC0D77102BFB4B17F3F3BD251BFAE62DE3FAA6BECBF3790DFBEFB2B03BF6F38253FC8E42A4092B0144011B54B3C7E609A3FF93968BD25973D3FC3E9F9BE448E1A403EDA96BFD62876BF7E0BBEBD9A69F03D8628BABF57712F3FFB8BD7BE4F1962BFA2842F3FA21FC43FFACD2D3F3E680B40C7868E3DBECD233FA89C8CBFAF37C33FC595FD3C5B169B3FC396473FF946F43F59B85DBF092DC3BE0021CA3F4B115EBF6EFADCBF46AE0E40E5930F3F204250BFAA426CBC68C60BC09DF92EBF7B6DB93F7BC728BFD39E9F3FA79A07BEDC74023F36085E3E0AB1863F14D12FBF7FE5943FC08A923E3638B33EF9CB33BF6BA6493E0375CFBF286697BEF35490BE388A313EE040FEBFE111C13F871966BFA31EA7BF82D022BF44C9CBBE0B29F2BF7D8F3ABFC6589FBF1D1C51BEBF177FBE2736B6BEC0DFE1BD34FC5D3FCA4CFB3F3BF243BF13F223BED2508CBEFC1877BF19DC95BE0C228D3E5B5619BEE8FEA3BFC2220540405F3DBEA9D99F3F1E4B0D40F9B09A3F504116BE2932093D3E9BBEBEC8650EC02D7614BFFD55633D6D9B5DBD8F5B5DBFD9B183BF9D3BC4BEFAAEB2BF958DC03F0D37863F31C2933FCBE8D4BDB893FFBE72C413C00396C03FBF34DE3F2631163ED56C4FBF8A9F48BFD0457D3E6F1CF4BD82EA1B404091503FE887373E4E5024BC60135BBF035B7DBE13D1BBBF20CB0C3F703B3C3DD5EFA53FC66705BFE29B48BF3AB509BD103E3CBF6C5490BF0EC1813FC82AB3BF6EE6BC3F9E2482BFF30874BE721FC93F3BB39F3E9D3A1240C0700540EF1BFE3F26DB423FF25116402545ABBF935D713F2F6BC93E5F08343E247853BE672B72BFE8BFF03EDA88D5BFCDC8B13D09D3AFBF057C373FE343EA3E674EBC3F0738EFBF00DC513F3503FC3EB155CDBE0ACB8FBF48320E4086EBA4BE2448483F90ABBB3E77EAA0BEDF3D813FB4BB5B3EEAC94F3E7771E4BE8D4D80BF49732A3FB7C6EEBE92EEE7BCB88775BC3D4BEBBD4DD08ABFBF4BA73E83690EC0C76B473FDC99893DAECBE33EC602833FAE65133F66B5523FFF6594BFC67C823F0C501A3F00F8F4BF568D6F3FF01F08BF2BBCE33E965638BF869B983E17BB903FCA9A3EBE1F28803F579C283FBC0A10409078C0BF7779B8BEBCF648BF9A20A53F961C8DBEAE9BE3BE7A6A45BE51F8EC3E508030BE18340540DD1D7E3F1AFFA93F015C01BF19A6CCBFB2BAF13FAD5667BFFF943E3F588C6E3F5E17CABE3AEDCB3DF35504BF5508A3BF29728CBF2D6BF53E8023AF3F9CF71C3E092AB93E841329BD2EAC633F8DDB0540F16B90BE8561143FC856C3BD6BBF07BF67AD26BF519E94BF5F85A3BE7DDB763F07C152BF954F3BBD114E22BFE5091DBDC75B7FBF4B2F883FCD5DAEBE309382BEB030CABF47870A3F6DF3B73CCF477A3FD3868BBF8C49463F8B72C13EF8D7BE3F60EFC0BFCEAAB13EF7B96EBD0E2AB23FF4A14ABF021009C0E601053E5FDC933EEF74973EA64C84BE7E320F3F0B19D4BF05516DBFFB78D6BFA4323A3FEF5B983C7EA54A3E344D0BBE5720DCBD49EE99BEDFFADDBF9E9B8BBE9988AF3E3AD50BBE0CA2723FDC626E3F0BEBD1BC54EA923F17B9F8BF7EF88B3F3BFE0E3EAF9BE13FEC9F3DBF59AF27BE2044FABE5A4779BF9C058C3F36E93F3E3E08D7BE9EBBB93FE440CBBF9ADC6D3F6482EFBFF985853EAB244DC080B9CDBE50F17EBF5A0FA13E4186823EAE6DA13FB4A23FBFA3ABAA3FFA36EA3EBE1859BEA8687BBF11B60240B633ABBE56CA10C04DDF6C3FA81DAD3E90BA0DBEB353E1BE46D1AC3E2BBE7EBF27B704BF549F1940F694D4BF950F1540727BB9BF226614BEB4E833BF607FAEBFEEC5AD3E088F243F90C1BCBE68A8D2BD066BF8BE7A1237BE2FC628409BE7EDBFCBF565BF456249BF6CC6203FD248793FD3828A3FC305AA3D582B103DAA0A1CBF89519C3D96EEC23E526B4FBF7F3C0FBF47C8C7BE3030D0BDE3DAAFBEC223D6BF9006863FA758FBBFB102153F1641F73BD6090DBF425D22BF061ABBBE52BC35BEE47C1E3F6FE557BF7FB14F3D105489BD1125F5BED59B2E3DE37E17BF70EF1CC0C87B8E3E1A79C53F09BD923E848387BF4768B0BD5F410ABF3D7289BFDFBDBFBC840C8BBEA77569BE6858D1BF21C369BF25620E3EA9D683BF3133C7BED74BCD3F33FE503FF719BB3F659309BF0D75293E13C63E3E3116D6BDBE5CE93D1C768D3ED0FCCCBE06071FBD0FE468BFF38CE23E0A248C3E2FCE743F10F8D3BE049A253F8CD2723F23E4323FA3C0853F2B1C1D407DA40E3F85B300BFEAA585BFE8F8BB3E1B6511BFC3671DBFB43D983FA06F0A3F5D8E693EC51EF03F1835913EDA02833FB40C203F6389B4BF03E2B3BFCEB797BEE68EB13E7251803FD49C83BFFCB6F43E38C6AE3F69B1C63F886B9CBFEEE5FDBE2F65C7BFCF5D3E3E1BEF38BF71AD913EA0FB09BEDBFB8E3E774780BF791E843F401FCEBE1AADF63EEFB2813E90E5833FA806863F3EADC4BF5B3258BDA41BF03F191FD23FC1C1993FB35D563FA5E7EABE124BF2BE1D986B3DB49F95BF064557BFE5B12EBFA1FE7BBEC6FCC73F7A36E5BDC7871FBE35B971BF1EFE063EDFCF223FE30C4A3FD7671EBF9EA0D1BFDEAA653FE93A2D3FBA9EB3BF5F30213F6FF7753F3677C03ED663BDBEDFF60E3FF071313FDF4889BE53D9CB3F0717AEBF3C4D1D3F43888CBF61B5D73EF4E55F3FABC97EBF23860D3FB9928D3FE08309BF5428893F3935833F7B4A26BFF6AF0DBF46EF23C05C3612C0DA5C393F254127C06A3A5F3F690349BFB0D34DBFF410273F5229FF3F53B702BFBBF0883EEC83B4BEBD9CBF3FF6E30BC05812A1BFE698B53F7DAF59BFA7F6F7BF3C81533F35DAB43E53EBED3E4EF38C3F20D210BEA8071DBD8334E73FC0B8A1BEA6CCA13F1B729F3E5A3012BF0965593CF3A400C0049898BF153F43BE95239D3E3EE536BFF7138BBF853E5F3F38D68D3E47C601C046A6483ED86A8F3E57F8F03F96BC903F79036CBDA802AA3F1EEC843F36CFBE3E7E5C90BF267428BE3DE9843F21A7D83D60B9533F6BA5AEBE3F3CFEBDCE3A77BF3B8CD23F4481863E421604400634373F8809C0BF01E9F6BE90E9CFBFC16BECBEBADE2B3FE4F7F3BED4BCF43FA9E880BF5397343ED15796BF8723E7BE4C305E3F5D4F7E3F0D32853EF52C6CBF1D5DAABD8833613F0570ECBFCBCE1ABFC146E9BD25651FBDCBB6A6BF6BD0EDBF83AF553F7A99A63F1E5240BFA47F8ABF984CC03E059EAD3FAC52D2BE241632C070FEAA3E277C8C3EF3E3C6BDC3AFCE3D59BB973E55C37F3F8596C43F92301F3FCCBD3A3B559D503EDB9DC7BD34C936BF8865703FEEE7953EF13E513F751D303E2B4B1E3F907740BF3D5A8E3E8C06443FF0058F3F736466BEFB499ABF1EB867BFC8A8853F2937E6BF2C41673F03B088BFAC601EBF4FFB5ABFBE9488BF997151BE8A4A67BDD4BA163E88BB9EBE60563DBF85FA01BFD1203FBF94F5B7BDFBD67FBD281211BF6C93243F2F21983FDA2013409DF045BF9174973F362E9BBD9D3F40BF924F7E3F644F78BF19DDB4BF760B4FBF087760BE7062373F55BC9C3F35C793BFBB6B8B3FBBB704BF680926BD886C67BFE15B1E3F0F7B53C041424EBF8C5760BF2FB1473FB29D05BFDE117DBFE5F5DE3F5545ACBF03F311BF559F993C0A28DA3FC744243F0B71AA3F8916C23EC9FFE9BEA529F23EDF22D13F7FB10040218B75BF0118BFBFB68E73BF1FFC79BEF5ABB53FE0CB02C0DC8D43BF5F91443E931C03C0266E693F0FD5D53F04F4093EDB7BF23E3AF1C63DC1B982BF7336913F66D1833F2FBE0F3F8B4087BF7A0D12BF5974D6BE944E403FC74C86BF5C1F9E3D062F403F28918BBE964F11C0B29FCFBEF88331BF56ED75BDFC3E7D3ECF0B903F95736B3FC834883FDDAC90BE9A4E9A3FAC38AD3EDCD36FBF53A432BF3E090140C720A93F0ACBB5BEC1320140E9A141BE9725E2BE0C8EAE3E85BB613E9DFB3CBFD79A60BF65B5AF3F6B2AC3BD03421E3FD40496BEE1736ABF657782BF5664EC3E13EE87BE5BA891BE413517BEAD0C8ABF2870A7BF53EA44BF2D05083EA58E3B3F41688F3E0624A63F7020083F5129BEBE02AD6ABE9B095DBE219115BF9024BF3F01A467BFBC17143F1C9AD93F58D6663E555A8EBFA42ACEBD2D212A3F765E0E3E0D8B1640052EB5BEF09E833FA5EA5D3F75C4273AB2449ABF5C203ABFBBB8BBBCEDEE513E05DD293FE9CE1EBF3F78A43C53E8CABF173F67BFE948603F9BC7AC3F564AD2BF2038F3BEDEFA0DC08E22D83F71A5BCBF7C6E04C08F8F3CBDC3568ABF6274B73E8A056ABFDE3934BE0910C03DD742C6BCD42D9DBFE89AFA3E610027BE7FAC053FB5BA05C056D5823F3C54043F67C7C3BEE70368BF9A6B27BD551BACBFAED467BFABD84ABF26CF5B3FDF98D7BD8F26D93F90B11340C2E82FBEBE8ACABE5931AB3F31E9433F4CFE36C0A8E8A5BF5DC4773E65B261BB5BE50AC00083B6BB0196A03EDF7AA93FEAE4DB3E5ED131BF57FAB1BDB1ADC0BF9DBA1A3FD461B5BFC1925C3FAEDC623F4713BBBE2F8B843FA000D3BEB9DF933F939B923DBB5DB8BF751E043EA231ED3EE5E229BF6D3DE5BEEC5C9BBF265ACFBEE40B3CBFAB3133BF2AEB873DD71D4A3E2BA5D63F66AA15BFCEC1F43F61BB203EC1CC95BF1281343F4FE933BFB29518BFBC2941BE6BD051BF360D47BEFEA23CBE873C803E98DEBCBF391ABF3E594404BFBBCA623F843C0D3EB4433F3F11B0F23F706BC1BF7A02093F32C1013F479E4F3F3EBDAB3F3A8D913F14DF6BBFFC2073BEE27B1CBF8510733FE9E2C4BEEDCE54BFCA6C323F72232A3F4BCEA23FAFC7A5BE6E16BBBE9D05D53FFFAD213F02D1673D22D25D3F828DCD3E0E25CCBF728FAC3FC8EE0BBCD94AAE3B08BE2C3E56B0B4BFBE796F3F488099BFC3E7F03ECB2221BFA434343EF7D72E3F119ABDBEAD0606BD969EA7BF6F2316BD4ABAA93F2D39AB3E6A1DC2BE74CA22BF2306ED3FA1CEEBBDF0D065BE684372BF49E1B33F71D2523F33AED63F773A233D3EE1C03E312D90BD0B4B2E3F15BE893D7EF43D3F15B92F3FDF955BBF3A73183FDDD8123FA0932A3EEFFF753F38D5033C88AFA3BFF53E053FC9B3B63F1407383F0F14753F18892CBFDC4D0C408A46AC3FB1FD153F194B633FD816903F7FA9923E189AB93CEDCA893F4D18D6BE75E0603F4C5C02C01756303FA85CF93E196FC1BFB44E053F629800BE94D67C3F5A6E8EBF528F863FCEC798BE0F339B3D1D8C65BF14912E3F7569ECBFBE48823E4757D7BE51334CBFB8B9B83FB46D3F3FB19689BFC8B3463C5D3AD43F61E8E9BFA0B3DEBE4542B7BC01076E3FE502643F77D9ED3E075C8FBFDCF65FBE2D108BBE7D88433FC23928BFC8B0ABBEDB36513ED49ADA3FCF3F13C02153BC3ED7E1033EC95FEFBE2BBD42BF0A04203FF78079BF54E27F3F09F20E3D1566353C1834F63FF8E6F0BE59EC74BFD7FC0B407A41EABE09CEFEBD14D246BECC2704C04908BB3DD0B0843FBA14B2BF964A403F062ADC3C6F43FD3F15FB0440D569B2BFBFB9F23FE5A9AC3E43E3C23FCD3C44BF77E3E23FDD53503E244D84BF582B82BFC5873ABF6C895C3F07A5E2BE9CE90EBF11D7A93FE44BCD3F76C1C2BFB61685BEE4FA34BE47D937BF48A60FBFCAD249BEA8072FBFADD6B9BD7DB0E23F4817F13E37B4133ECD50193F1612803FDBD027BFC466063F7E350640BAD73F3E655D21BFB12AE1BBC79E04C0BFD76FBF036E1D405FCE0B3E4F9E373F1E05353F7ADB84BE377BCA3EF9EA40C0B18DFD3EF61421BF5E0204BF66FC8C3F71F7B83FA4025A3FFC78C33E3D432D3F57DD1F40881DC1BF86CBBD3E8621DC3D7AB5F53B5A171F4048CD31BF2640883EA8B21C3F8C75613F2F634D3E0470A13FC57619C00DF156BFC32394BF93A82A3FC17D1CC0B71993BFB77D6B3F04BA8C3F096F26C09BD58F3F27D1993FE902FA3F1457FF3F9DCA97BF92977B3F8F688F3C2A9014BD83B58CBFB6FF1DBFB4515DBF1500373FC24B03BF1096383FE3BD81BF5AEF0A3F2F9636BFA0AF7DBE05C818C0F391123F22DF6B3F3FFFBDBC7DCF133F739EB5BD053CB5BF1400C93EDA1051BF07E6BE3EFD21C6BE7E85D0BFD5EE09BFEC21E5BEEBFD293F15C6833E80C5D4BF055A773FFE192ABFD18C82BF1C0DA7BF102CE4BE3AB2D43E0369D5BE69862EBF0C4BAB3F973C90BE93B4C8BF3ED0AC3F1A26ADBF2785FB3ED32900BE25F327BFBDE3D3BEA1227FBE205F90BF48ECE9BEC35857BF1F6319C0E3811F3F2F1A87BF1A3BD4BF5CADF7BF2C4A25BE1EC14FBEADBE313F740E363F0B2BCF3FF41E8D3E806410BF64BE36C00038A6BE6D0556BF0526613F8593E23E565177BE156F0E405158D5BD15F5BDBF4FBAEABF26EBBBBF801DC23E399B17BF36B1F23EE353A33F518EB8BF758862BEB548AC3F5E8EA23E524469BF5E19B93FB911DE3EB6BC463F67E6973F3F73A53EB7A1D1BFD746893DA3F035BF7683A4BE764F913FA1A63CBF2455183FFBCF88BE03AAD4BFFBC5EFBE298BAFBE23CE523F9D1C813F043A59BFAF2DF83F794FAC3FDF42813F0FBB1EBFC0A6E03E9E57D4BE82281A3F407489BE41B19BBFA2DD91BFE8DDD23DD93190BFEFA3363F3B121FBF2F008D3F2DBABABE490EBF3E08A9C6BEB6D4DFBF3C219A3F3A599F3FCA1450BF06C9E8BF62A3F1BE7F272ABF7448AABF2A28313C4655E83E5D0875BEF028673EA190233F7500DB3F8A3C993F1D9D10BF085F7FBFAB501E3ED4D60740934298BF88AC8C3E6E0EFB3EE97BBB3C7CBFBD3F9096DFBF4AED34BFCEFE653F74A35D3F21150BBFEACE9C3F18C2953F4D43E1BFDB87A63DF53BCABDB3DD483FDA3397BE2517033E1A33533F106F3E3D1C78B43DA572F33EB55EB7BE0814553F499D5ABF14889B3D216DA53D9E1049BF0C388FBEB569B8BD3C250EBF8B8FBCBF0F11B0BEFB87333FBF0FAABF839EF73E35B99B3FC8ECDB3D2BAE943F3DBF93BD7A4286BD9566CABF0AFFB5BE138CD43F9AF59D3D249CBEBE9239AD3F6B730ABF6CBD7FBF92F5863FADA700C02EA41B3FFC90C93FC0EEB8BE3AE24E3FA0168FBFE880DEBFBC69E0BBD127073FE6400E3FEF158D3E1305173E07A3073E9CAAC2BF556F85BD73994EBE788AAFBF40D9853E57C75E3FCADCA43EEB63B6BF5D1B0FBF569A723E277F3FBFAABE853F20B48CBF1D776DBE244D82BF0B64893FE554D63FFEFA933DDBD72CBF8346DDBEB5C031BF2AFA8B3F7EE4643D0A0F1840224C03BF1263A43F6D8747BE7ED28DBCA7850FBF4F67193D38C276BF7472D5BFAD5782BFED4A01C02D4336BDC275E9BD081DC83F08FA933FE083AF3F73FD4BBE7E374E3F255C283FAF539DBF4F0C96BD2250C1BFC36E173F481AA73FD874CA3DED1C86BE6DCC483FDA85EEBE23F58B3FBA75BEBE80F87CBFA6E4A8BDD56565BFDEC99F3F0E9E563F0E779F3F8BE002C00868653F02252F3F527BBFBDE4750B3EF2C40B3F8D9E25C00DB2103FD194633F778A453FC7F3D0BFC37C47BE24FAE9BF1CA21F3F1DECD33F018F333D1634EC3C5BEA67BFAE94ABBF256B6B3F1E5B793FFB81A43E0732903F3C41783F04FF3ABF5D7BE5BEFD462CBF03A7D5BFCD8E013FD04EFABE8BD23B3FEE39053E0EDD4E3D390FAFBF4C92D1BA42F4D53E3B5A31BEF1AC663FDBB20D3F9ABEECBED8C5F63EE604C3BE78B9553F2541C4BE982864BCD8BCA4BF306392BFCE91A33F9B4551BE2C74B1BE81FB74BE49D5A2BF47CF173F4748BA3E535BA2BFD79C80BDB7E98F3FC064B23FC17E9EBEEFBF1B3FA6BF0D40A5C3E73EFA39873FB9E4B6BF412A493E9C917EBF173650BEB6A31F3FC04942BF860BC7BF1C4C8E3EAD2CAEBF38346F3FA3D7403FF8C4893FF5A3FE3D6C8A9ABE589B1640B4802D3E5CF3E8BE8F9906BF340D043EDE218ABF649F4C3F50A70ABF8FAB443FC59D473FECD071BFF72DAF3FF14E97BE7069BF3EE1D056BF64279A3F813E993F030713BF30098B3E7E5C4ABF237A9EBE38DAA2BECCAFA13F64863FBF3236C73E867EC1BFF81863BFD8831E3F86B31CBDC12CC0BDD4CC03BED0E2483F4F8ABC3F681AFABE6AD8413E02644CBC0CE61DBE4F2B1ABE4C1B26BF31A8A53E003DD43F5DA7903F4EF58B3F479BE53F3F66CDBE271D963D938003C0735898BF2A0A813DFC8D83BFB949E73FAD5D8D3D6064CF3FA3E5B33F3305E6BF6B2585BD707AC1BF6B5C15BFFDC0A0BF36597C3F3626D83FA6D78EBF0FAEBB3FD554953E8E8154BF5AA3CFBE9344573EBB8F223DB892E4BE07E1743FA84D59BF599AF3BEDA1C9A3E09E3863E13FF2D3F74DD6ABE95FE8B3F7E7B4C3FE5735ABE2673793F31B368BF0F387D3D7A609E3F5BD0843F8A3949BDA753EDBF46EAAFBF83A9C1BE00528B3FD36ABA3F12AB88BEAAE8943FF22052BF6EED2FBFF7418FBEE62CF8BE38FEB13F9F6EA43FDBFDB9BE0A4AF63FCEA170BE4E170DBE66DD0D3FF344CFBD767ABE3FB48D943FDEC8D83F2606E43B5DE5D3BE90CC89BEF760FEBEE67C313E74A8E93EA4F61EBF41258CBE3615903FF10B9A3F409BEBBDE4BA7F3E20F7243FF13E883F6D71983B0CF2D3BD59831FBF4406513E624177BE5753033F1399A03E797FD6BE232D84BFFC1672BF8E4524BF612050BFCEF586BF80A9583FD3EABA3F19813DBF3E8A85BF1E38C73F6E3F383F160A933F2A66D73FA4BBEE3EA34494BFC4450F3E1CA9A93E07FCF03EC3D0BABD30A74DBFE982E5BC8B4E04C0E74460BF5F53163FDB0DBFBF1BE300BFE165353FACEE7D3F07B265BF9614693F0A6DC8BE13E499BDAFF2783E9517893F878C0E3E79B8FA3F035CE03F1B0B873F4AD028C07F66ACBE80EE8F3D454626BFD91197BF9198CDBFDE7050BF4E07F53E5A3BC03F0BC691BF1189593FC5C79DBFAA7E56BEBC2F60BF26E3F43F3F653A3FAA7D8E3F3434D7BE537DF9BECBC303BFB25C1BC0E57F57BF69C284BF149DF63EE9CFC3BFF3BCB2BDF872D93E6FF9D2BD2E3A3BBF75A104BF2806DDBF49FFC13F2B02F73EA4EC3A3D62739B3FE701A43F6C9D04BF018A403F334ABFBF72709B3CC8E1A93F1656553F7AD0AE3D37DBFABEF79F053C877F3BBF6FD78EBC593C743F9E293E3F2BAA953DBD5EDA3E374A043FC3BB4FBE260F6CBE52D24DBF7FE5BBBF7BFBB43F9E3D203FB32965BF245D493FAB4635BF0478B33E2D52DABF386C9A3F1CD206C05148113FB3DF02400CDFCA3E9D9FF73EDD789FBEC172DC3E2CB370BF4A598D3F8F62F5BFD0DB10BF5EDCA0BFAFFC43BDDC5CCE3F5E4B1D3FDA21013E96D21C3E09B85DBF239E77BE0C27C8BF610D78BE574D37BF42A153BE5011543FCA8687BF29386ABFDBB536BF2F8B703EB6CBFA3FEDDEF4BE76C1123FFF08CBBD5BD89A3D1BD4A4BE27AD00BFF00D93BFCDE56C3E218B023E9F8E5ABFC4A13ABDF29524BF6E7B3BBFCBB6C43D4C49223FFCC5C0BE521F913F1623AE3FBE7CAA3F6B08493E3A06623E72BD4A3E7BDDC2BE95E310BEA915CABFF00AD7BEB5871C40AF73E5BEC50E9A3E3A521E3EFB4B23BFA8D36EBF9A9BF6BEE19969BF9535753D18A901C0B7C3173EB3709D3F62D9493F83492ABF18D51E3F767FF03FF2E1793EDB6446BFE70402BFE0D7223F217B403FDBEC43BF4109A4BCD1D4A8BE8878ED3CEE339FBFAADB0A3EFCC493BF6498413F5BC116BFB260EE3E9438D8BF76DC853F0B3B0F3E83B6D33D7DD2E13F26AF473C2E312FBFAFCE57BE791A00BFE491303EE8525FBF3659B7BEA325C2BE1B431740646438BEC0B79FBFCF573EBF255420C05E44C3BFA20323BFD66C013FC7BDCB3F7CEC9DBFA4D43DBF475BEE3DCE6F183F525BC43E3C0523BF378CC03F8531CE3E9E1B573FC1C79FBE1BAD423FB4EBCA3FBC4BDD3EAD17593F50156BBFB0E66FBF1008AC3EA6CBF6BE7621F53EACABF43E6ABA823FFB65F1BE66DB99BEC31B93BE26C930BF7525C43F9CCC50BE45C87A3BBE36933EF0A59A3E88382CBFBAB81BBF8916EDBC8973E03DA407873F41FCBEBEBB29823EB6AF09BFA24F2E3FFA202A3F1A5791BF599306BF6437D8BD011D97BE225E763F789A603D7F05EF3F166A8E3FD895BE3CC2F85340C1C34D3E0E18823F734F0FBF803707BF61F0113FC0F300C054B308C0EC92523FE143AB3F358EE63EB130C4BFE3BBA03F7D50AD3EC3FC63BF6233523F5ABC33403550243FB2AF55BF9630B4BECA41253E559B3F3EA7E15CBF6535623F948922BF08361C3F55C201BE651FA43E6C041E3F8970523F032BF23E0CB66F3E3793FE3EF0982E40C26082BEAEAFBBBFC6F61BBFCF9BDA3FA059433F183D07BE431D66BF1BA08EBF9F9CA0BF0780CFBCF84C76BF07D017BF7FD4EFBF65B099BF0A6B5ABEF597413F235EA03D3FB6D1BF70238D3FE85BC8BE89C2ECBFC36C03BE8725BD3E82807CBFCE60883ECEC9CBBFD8FF1ABFE6A48B3E636E01409BD690BBDC27FA3E1641FE3FB1D6C6BDADA1B6BE75933F3DD4D9363EAA508DBE5A545CBE498238C0C18DC3BFC6AAB4BE28EBEFBE484310BF267586BF7BF1C8BF8E31973F4BD8943E94158ABEF42A293EA957C4BE2275F1BF4B2F33BF05B96A3FE913B83F2FF76D3EC20214C042BCF63FE5A79ABDC77421BFA944603E935D123F2967B63E1C1BA8BE6747C9BE6FDDC03F70D28F3FD8C02CBE0B16A53E995962C0C3CBE03F2E102FBFD23290BF605BEC3DB113CEBF77EA6FBE840101C0B1A6D53E7811B73F4AD9183FF86DE9BD6E3D7A3EB790363F975485BE9F96F83E3C9568BF4B9B983FAB838B3D4E4D02BED981783F2BA332BF89F218BE26C26C3EE7D09EBF9A1DB2BF2688ACBE11CF9CBF0DC4AC3FD0BA203F69E77C3F1E0877BEFC8F2EBF4B3BD1BE34F8263F72ED82BF0BB9843F59D43DBFF65F00BF52AFF83FF02951BDC2E988BD408A893D776628BFE5478BBE59EB7C3F80D450BFF18DB2BF9AF36C3FAC7C3E3F97C8F1BDA1A1BDBF474E34BFA74F06BFC644FBBE76A1DFBDE0BA7A3FF00B223FFA0D17C0E0B33CC020710CBF43F39CBFE37365BEFDC02EBF5029163F477D943E8B5C0BC03C0573BE6ECED2BEFBC34A3F968B1C3F428376BFD14186BFF3E5903E39A2703E85C266BF06E498BFB1999E3F0B0EA6BE78D9B4BDE6884D3F9410E4BEF6A4B43FB55802BF87561E3F7476F53EC48F903F23A455BF5ACD39BE1CF7EEBFB98E5C3E016C633EBF90593F8B86B0BE1A221B3FB0BD793F8BF1C6BEEF209DBF2ECC2ABFEFE3863E0A1108BF2CC3AC3F09DD283F5874823E5A23DBBEE4DB09C064F709BF56BD6ABFA25F02401913C4BF23FDCABEDAC4BD3F8E045B3F820B0F3E32E0893E3EB310BE83F223BF70A1C2BF0BF453BF0E9CF83E7CB1573F129B103C8F50733F5F303C3FC707C63E608D803F55B6153F61BE78BF6507EFBF6385483E59E5EBBE8839AB3EBE4E14BF55D4513FD03414BF60FE0ABF7D0C86BE221D3B3F81AE6FBF5905213EF27A053F1FC7C5BFCC0F9ABF5F01DDBEEF46093FB8871DBF20F990BECBFB533F618CA3BF2CB982BDC719923FA9EBB43EC7125CBF3E0DD9BF67B735BE7C0A92BE87AD383EE9D1EF3F7080703FB6E4A8BF0215E83FE79566BF559114BE5CA9D4BD786927BF046C373E6D272D3F84023D3F308362BF590CAEBFDDC1ED3F0586A13E991CBF3DDF1C0DC0BBBD0D3FFA84BB3D2B3CD0BEE647963F39E43A3FBA80233E4649C53FDBA27ABFDFB57D3F80EB37C0BAEA9B3E635E114055470B3DDCF8A93E043FB5BECF9C743F68A8CA3F471C943FE74F93BFD4F2A13E138533BF2AA89BBED9B6063FC855193FB5ED5DBF117CBF3F0BB41CBF3E116CBF2ED4403F1C0806BE1368AF3FBCF7C0BF22B38C3E38A4D4BE7D7120BF123D9FBFEB50F03F60ABA33EBD1323BEEAB908C00BCE3E3FB51321BFA74434C054ABE8BE4B35D5BE42E3B33F5040B43F6FD9B23F8B90A53F05BAE8BFCB904FBF18A0B2BF9E78F8BE481C2F3FB8456CBFD2ECA1BF728FDDBD024C903E3FFF00C06F7BA3BF887E82BFE85D8C3F0DB4C2BF75F478BFBADCB03FA29502BFF29599BE73ECE3BF5A611D3FE43A763F5101F03E0D41463E018E9EBD296D373FCD2DC9BF412199BD0DB609C05345023FAF97083EF32A8D3FDF9D45BF41C64FBFCD84853EFE96043FF42D913FDCBB563FD37F40BF120CDBBEE8836B3DB88485BFA036CE3F9EE1D13EB1DB62BFF3D31DC02C60F5BF574DC3BFA4371CBF5290C43FA98A033F277BB83E69EEB13C2E6F3E3E0DCA563EFC612F3F2333313FEA95C13F3760403EAFE4C8BF25193F3EDAEE31BEACB9C0BF253EA5BE882C85BF583A923F67A06E3F7102FD3EA0F1A83F813E313F78BC79BF642FA2BF03A9F2BFD19D1FBF135E933FF824C63FB416EFBFD4B3413EA15A98BF0E574FBE5763BF3F373BEDBFA7808F3E41A03FBE1B03163FFD37FE3F23A524BF4399683FF96AAB3EFC7B0E3F7A380640774FA23FD4CB5D3E20878CBF5320AABF015E4CBFE003ECBFA4B6C6BFFBD4EE3ED6B6E03E1BE8B53F375D5FBE4AB639BE1F19DABE6712353FB490723EEEB60ABD480991BFA9C0403E403025BE46F508C0DB0939BEC0846A3FFD84143F38C9BCBF7AF1E2BE326904BF6FB3B1BF22BAB23FA7B153BFB33C1BC0F5C6773F49D1463F63C194BF038E833ECC97933FC5C901BEFAEF6C3FB6F0403F0680F73E20A9AD3FC9194C40E6B98CBFF5D406BD12E79BBFCAF405C05AE0593F9069B1BFEFC2D4BF83D8D1BF6FAC51BECC7D02BFC23FDCBF4B00BC3E849CB2BE79194FBFE20826C0EAA6633F29F3203E5997A13F9469B7BF76B3433F759D80BF31BFD73CF4B38ABF9E9347BF9046A6BF432F863FE11BF23D39F1733FB36EBB3EDA4E25BE44F000BF0E78F73E8BF3B0BEB4003B3F6B354BBEB70F21BE9FB628BF71A4493F10DB183EA0AF8EBFC2DEC5BDF9E69ABF672FCFBF73407F3FAF6F3D3E2BFF8E3F42848ABF5631433C48B7D5BF8C8E833F8137E0BBEB8904BF6BA704BFFA3A60BEF238CCBFBB6F593F18B97E3FF446DBBE09D890BF9734113F23AB96BF60900FBF1987ED3DA06A00C0A1019B3FD65BC8BF6D3E143FF47A51BFA52ADF3E5145ADBFB073523F41E28D3F130D35BFE39070BFDE607E3FFA1D7EBF697CC8BEB0868C3F05E12CBFE8B9663F31BC9F3E69543ABF3942423FAE3DCD3E036FB03DB86F81BE698971BFBECE853FC61B9EBF6F250F3F0F0D063F450D1E40B049EFBE991AD4BF5EDCE13E0ACF3EBFFDE1CD3FBD3200BED6C0D5BF18BE45BD97F2A83F3D38D2BE45A601C01FA76EBF4CD2C83E315431BF59F742BF952C02BF9FEF0940753011C0795947BF5B7086BEB886AA3FC464193F77B7613DC39EB03FCA3C56BEB842B6BC423048BF4C0FD83EEA090EBFC04725BEF7E20E3FF8D0FBBEB1A769BFD383B0BEAE1E923FDDCE95BF4444F43E096A723F00E79ABE3DD06B3F94F56B3F2EE3633FF6DDB5BF4FFE913F3CD558BFFBE8A43F71E5603F59FEAA3F23F8C6BE4B77CBBEF1180840321AB03F0FD0A9BE337141BF22187E3F5401933EDD5F4B3FD0B8B43E5FAEA33EE58E59BF0365683D459227BE9773323E4670DF3E85E5323F4B96393E8F6A08406B6A8C3F8714D13F3B3DAFBE8032F4BED662903E98260EBF5A9773BED847BC3EF3C3903E9F0E9BBE47659A3E64EA0A3F8E27A43F77742D3FEB0A1F3F48600B40A0B9803F26968F3E242B4DBFBEF9983FB39737BF3F12213FBBD565BEB224263F3097983EF6C5BABEA29BC53E6C2C893EC2AEE4BEAF2638BE66738DBDD55190BECCB761BF482A16BF61B6943EEACD753F725D61BF1A08C23F069B353F1806B93E6858233F7F3F6F3FDB632CBF3D75993F7F4C5C3E101FA23FACFA0DBF37E3BABC143516BF90598DBFEBE6EBBE054338BF10672F3F05C486BFA8A7EB3F2FD621BE7173E93E8959333FC3A5DD3D11E8533FE137D43E71C6C0BE3F89C7BEEE1AC83E1BDEBEBF7FAB123F110DA1BD79CD8F3F6A0AD7BF6416F0BE4EC091BEB10925BF0A83BB3FB99CB63F43CD253FD02A36BF951D693F204A4FBEEC41D73F2B74F73E8B0D293F3CFAA7BF795B3DC0AB08C4BEDEBCE7BF9796863DB75D083E1880803FD38E343EC62C833E0F7C11BD39FFF23E68FBC43FFFBA2C3F70AAA53D4D410BBFCA1284BF389D6BBF783B5A3C84A911BE28C76A3F063E2D3F77449FBFA4A38FBFA3AD9EBF6463D7BF109B463F95FEF73D6D1A6E3FBAB4263F96A3BDBF07B59B3F7DA0733FA5E12C3FC2B2A03F9A197F3E2F57BCBF4619383FC54C943D697F93BD892C313FC385533FA45E20BF41BC4EBE6D2201402B1CC0BF8DE3853F72DDF6BD0404823FFFC6A0BE382B4CBE0D34713F7C89E5BE7F1003BFF75839BE328A8B3D6294EEBE4BAFC93D0651743FC8A79BBE07AE0F3F2831B73F65B1283F714D45BFD952A63F5297443F6778533E34AD14BFE74D5ABF63BDD2BEEA52A73F9E9C10BF440CFFBED24DE83FF64B0E3FC5E79EBFC2BC09C0292651BFA39B7B3EBCE3053FF610CDBDF457E4BE065E11C0ABDC903E2755FBBFC58EB3BE3284D9BF666B66BDFC6DEC3EE831193F91F3403EE82705BF64C5213FF25D4B3F21F4203F2E8904408C7527BE5E42453FAE3425BFCDDCD2BED486123E4937C33FAE8B0040152CEFBF25E30B3F314A55BEC160A03FF32AB23FB47B233F9513BDBF2E68A93EE12CC03E6053903F4C5D983F3C2BDABE5F0F413F10746B3FBED767BF4CAE8FBF34CEB4BFC37E583F00F873BE2A1A3EBF80B13C3E8023C4BFE9841CC0093CA4BEE71FA43E710ED4BF8AC9743F73AC9CBF0EE92CBF8A3DE4BFFAC141BF29435EBF62A3863F6C77083FFE9387BEF06A6D3FCCE216C0ABD12ABE23428ABF49ED124016F7713EC2AD123F14C5893E044C43BFDB33BB3EA1D14ABFC46B63BF25C2C3BE870821C08E0242BFFB57053E77E2DD3EC4CA99BF"> : tensor<72x64xf32>
    %cst_5 = arith.constant dense<[0.116332799, -0.0941515564, -0.0859802067, -0.0165344328, -0.11386998, -5.20721078E-4, -0.0463641733, 0.0414254665, 0.0719053745, 0.0608480126, -0.02442047, 0.0677854568, 0.0189740807, 0.0651205331, -7.656510e-02, -0.0393399447, -0.0754325539, 0.00550988317, 0.0785450339, 0.0968568623, -0.0613268911, -0.0713567883, -0.107519343, -0.0429528356, 0.0581506789, 0.0978408306, -0.072066471, 0.0314903855, 0.0883799046, -0.0613469332, 0.11721161, 0.0683132559, 0.120574072, -0.0757262706, 0.0106888413, -4.703310e-02, -0.0496819764, -0.1179398, -0.0430957824, 0.0662763715, -0.100834459, -0.00190354884, -0.012760967, 0.0566425174, -0.122159198, -0.0740012228, 0.110550478, 0.0115909129, 0.0875957757, 0.0211927444, 0.0284627378, -0.108386487, 0.123140231, 0.0102799982, -0.011987716, -0.11770092, 0.0918550938, -0.0695485622, -0.068382591, -0.0152926892, 0.104023635, -0.0768731683, -0.121052593, -0.0818697363, -0.0996957421, 0.0778048932, 0.0943475962, -0.0297205448, -0.0757494718, -0.0609415025, -0.0412981957, -0.123201236]> : tensor<72xf32>
    %cst_6 = arith.constant dense<"0xF8E39EBF31A2F53D1EDE523F0CFF12BF5433E33E3161D6BF24AF39BF6E7509409F55473E23F20CBF3A15933E859AF9BFF3438DBFA4FCCF3E33EC87BD262429BF698801BF4810DF3E09DE8F3F7279F33E78FC55BD782790BF6FDD683F8F8D9EBFB46330BF3C2C533F9A612ABFFA6719BFFBE61C403B989FBE1D6BDD3FA86AD13F414BD5BF7D60AE3E21447BBFF18B303FBB1D0C3F39DD423FC099D63E568CBC3DEA9A48BF55E350BF1167E73F3120B43ED06B2040A150D33EAE3C7ABF298FF93FB9290EBE5574F2BF9BFE13BFBBB50C3FBA465BBFA739BF3E59B4163FD348843F8EA3823E010582BE8F8E23BF5EC3123F5783C0BF9EB1DF3EE1F0E7BE706248BF8A76363F9A4B163F4640843FF5C93CBF716408C043C21E3DB6E6B1BCABC215C0D12A833E06CB043F3B72EC3EE4AB583FE89C953F61467BBFA0FB953F64F82EBFE6E787BFC411223F5B73313FEAABB13F5C00CEBECE23453F977F3FBF6494AC3E3745433DDD7C79BED6F175BF8A9A933E13E2C3BF2B46CCBE4DD334BFA2B1823F57479ABF3FAF91BF0FCACC3DFA3E3DBF49F571BF94DE893F2EC6A83F1BC171BF167EDE3FB816763F612F0EBE46C422BFE2F8DF3FD68CA4BE266519C005F3033F07FE473F2CC0743F43829BBFFBF68C3F79DA5BBF3CA9793FF3819C3DF8B814C09E23003F0922F43EDC6A673FEF0F673F9B798F3FDDEC4CBE15CCBEBFCC46AC3EF6A4BA3EE57483BFAC91ED3E9BD7E13E235F843FF6D4A33E7043E3BFFB6D1EBF7B25FABE43C9383F8433C2BEE6D0A83F9BD923BF7E56FC3FE5A7F7BEAC84CC3EA87D42BF2B6CDF3F45F6C63E77BA51BF7E7329BFF43D8F3F0FD2443FEECA1EBE23987DBFA6EAC8BF431A4B3FDD2F0D3F9BBD293FCE772DBF014E733FD5E2993FDEA0123E0824353CDA18BF3FDF3EA83FB058D03E493E2C3FE74A413DF43B523F4D0249BF051820BF2A8ACCBEF699D8BF119E6A3F52EB1F3F6A411BBFFAAC723EED7C3CBFFD49DEBE241C993EE38A15C0E2E307BF5BFDD63E41405D3FF51290BFF02CB13FB84B21BFA31DA43FADBC9CBF0C43663F43758FBF2891B83F9FE7B4BE90265EBFD49F6ABFBEFE733F3007B33FD44F8CBF5AE8CBBC7A4AAD3F104210400CDF99BEAB1806C0C943F63E6932A0BE9BB3713F0956693FB5E8AEBFD788A5BD74411CBFB4CD1EBE2BA723BFE48608BF3DC5F0BE2C4F49BE7253F4BDB96217C011D3B3BFFCEEE0BF38822DBD7460973F300892BC42467EBF66970ABE3FC4393F60D7BE3F5E48A9BEEC1A54BEB9B325BF8F2A0C3ECF73553FE2ACFA3E773FB7BF32687B3FD5C30C3E7B5CA2BF2D9300402FB81CBF501EBBBDCAD1203F3AD84BBFBDBFA2BF5FD499BF9DB6723F9B0B5ABF9161603E48FD95BE07234EBEF92906BF996B8DBF64374B3E329C8CBF3F9A9CBF1F34753FF58E743FAF9F11BEF6AA99BF389089BFC7AC123F9FC2423F4490C93C56D3CC3F13B3633FA42060BF4F39393EBBE49DBE76960DC0C706CFBF79A48CBF6AC0BE3E86F0F4BDD7F2293DD9C582BF5DE220BF31555CBE3A40B4BFCE6569BE5EEF3ABF1AA10B3FE0CFBEBFA6EA50BF82A993BE9A72A73FC8F41A403DE610BFD986B73EB30E273F58CF2540F891113F54D4E13F860F4FBF62E3963F108B9E3F18A1863EF0978DBE860C8C3FFBF684BF151B4BBF1E4EBA3F7CF7913E10BD073F780E1640A54906BFF4A3073FD2D6883F93D2163F0942CC3B8B11AE3EE961723F7E0C9F3DC0BEC7BC9A96693FFA80723EB14C44BF92311BBF985DF2BFBCA6A7BF3BC589BF82EFAB3E302C773F02109DBF4E7A973F3D60BCBEEFF265BE1298AFBE60B5C9BF2EB0C03F4BE90E3ECEE88F3E02E44A40B79B563E274C09BFD008F8BEBAC85FBF8428553F771199BDAADAF6BF8F8DBC3E8A546A3EA5340B4034E3B23F0BEAA23F89CC0B40EE9F3A3E6BFAA9BF3E4B03C0FA963D3F527B53BF467C98BE27D9563EC357BCBDE37F9C3F3B52A33C5B74B2BEAE42323D7F1B64BF1B3409BF8290B53E6D4C97BFEF88C5BFBE8E483F3B39713F39DF9F3FB2CA9C3F2080AE3D5B6825BEFC9BAC3E2DB8DD3E89CFDD3EEC1A413CDF47F2BCAEEBD33E0363B53FFB7395BD8279783FF4B0433E6AA86B3C61304CBFB74A3E3F14F7B93D2AAC133F6A3D34BE9A6EC73FC16882BE9817A93F9655CEBE50BB343F08588F3F0D8EA7BFE5C78C3F2309783E0220B1BF308783BF0A45E6BF025D3CBE3F30853FB83E333FA37E04BF01D772BFF9EEDDBF168C223F8727433FB44A883D8BFC68BFECF725BF6A19A3BE926E1CBBA1C4663F29DE80BD2173303F6E9D8A3FAE9357BF9DA00A3F5DDB60BE21330EC039A6B1BFD8A3153F31F58DBEB3FC08BF54B38CBE95624E3F289091BD4B233D3E598B463F233F6D3F49E61DBD0D8DBABF0D25A0BE2E20A23F4BDD3D3EC05E1F3F85CC0C3FDD2A2040AC5219BFF189A63E70B0413FCC1C8ABF391C34BF43949DBFCE7C993ECC4AAEBF3B9BFCBF4C17B93FBA7EF53F5DE430BE1ACF5ABE409D85BED6192B3FA461D63E136B67BF9556973EA1B6D9BEBBFE38BFC59C093E1FEC23BF5FE4CDBFD140823ECD300D3F13914D3F810658BF875560BE9C724A3E8E6B45BE4A37453EE88117BFC0A43E3E349BE03E3163993FAA403BBF7097BEBFBDEDB83F4205A03CB8F4603FB1AC3F3FBB5E483FDA57B2BDED0E014017A106BFBBD8183F505255BFA409193F548C293E324E863EC772A03E53774D3C7A3555BF2EDAAABE8041603D7974D4BE1991493F3281D8BE9C9D9EBFDF5AACBE93471B3F5CC384BF8DEEA63EAE52A33F502D083FC40007BF18732FC07EB6F7BE14ADCEBFCB8A38BF9ED2AFBD66C2F43CEA1B653DB627A1BF029DBD3FDC4650BF332215404DAB34BFF7607F3F3250B1BE7D382F3EC526F83ED66F17BDAA9FB7BD927262BFFFEA2CC03182FC3EFF3DAD3EA6EB9DBF8D8A9C3FA6F714BFAFE58ABF8B4BBFBF746321BEB95B72BF8CE6D43F17F207C045BFA2BFD244F03CE7C579BF3F0F9FBE110ED9BE1720FC3D9F9F703E34A1953F2FAC12BFD7791F3F4E6C64BF77D7B83F642035BE7248C7BE7DC2A83F04C7923FC2F606C01F96E13E18161040E460353E76CBD03F5C1703409F19AEBF7875E33E84CE0ABF0E20673F0C664FBF1CDF0EBFCAC2E6BEFB37AD3F8E43103FD02F393F248B82BE4D2691BFEE2C7ABF550376BFDFFF213FC96746BFD9F87ABE6656B23F0CD1463F034530401D3783BD4F54AFBF42BE963F73CB2DC0108513BFEB29893F8F2CABBFEB81E5BE0B88343E9EF380BFFA411B3FF62E4CBF2C188E3F9C014CBE9F4028BEE6509B3F7E2AAB3FD087D43F5634A73DB11A0E3ECF85073E4E7AAD3ED7D6583FC308793F8AFE873F26C5CD3F8C326DBD5B6B5EBF33C61C3E63655BBF3FB5BABEA4150FBF8FE55B3D2E3F3B3F595A853F5E4760BD1D2B143F561DE7BDF08733BE0F8CE43E43834B3F53CAD93FB3A78C3F6673D7BFB8E33C3E8659E2BF44A205BF121C693E82383A3F1C8AB33C4DBC1C3FABA706401C6148BF4CA3E3BF291F33C0F72E43BF425F08BE606CD83C2FB25B3EDAEB5CBF882B2D409E3490BFA0258BBF9DF5413FDE2ACEBE600A30BF8567D23F2A3B3E3DAB49343F12EA20BF81C9B33F80DCA33EFE7B553F8BCC3C3FE31C503F9DA9253E3DBF563D3AC0AA3F30B7333F09F5A3BFB1DF043FCFF7923E15CEE6BEA264053F0F866F3EFA46A2BF6E146CBEB114913FE1796D3FFA9C3ABFF690E13E4F7A81BF5503603F513F07BF09E6B83EA9AE8EBE46589FBFE5D2CEBEECD8BEBED5FE62BED30FDABF5E3E16BFD6E2AEBF85F5173F96E773BF87B3603FA30C4B3F2CBBD83F003DBA3FDEC927BFF57C57BE32A33F3E66CF973F2989323F1A31E23E6BFD49BEF843D43DB4A389BF025186BF2FA7463F2F9E77BDF79E153F7B610040341AF6BD0814E93E6B261DBF6FCBEABF5A6057BF63C7AA3E91B7163EEA02683F1E507DBF52F98C3F52774B3F8B9FC43ED553A1BEFD932BC0CD1FAD3E231E043F13605BBF53E797BE3FD9CC3F5DC99FBE6C5C283F06454ABE7686263F09D26D3F424D40BF5C908F3EF738123EC4BCD33D4BCF0BBFB3A0F53E718D28BF0A63EF3E54A62FBFDD0916BF6BF7933FCF0A0EBEA9402BC009012D3FDFBB423FC958FE3F8237CFBF349397BFED3E8EBFAD4D0ABFB28BDABDB0DD13BF290CBE3F809D963E5C150040089F9CBF460C4C3D685F453F7D4BC9BFE743084000E8ACBEFBF96F3E71698D3FEB60F53EA3ED3B3F1C0496BFEA75A1BF639B7D3E1EF1F83E6F744CBDA6B6ABBF32A609C06CA8B03F85CA3B3F491D923F12C7D43F84A91BC0D18F9E3F7F8BA1BED313183E9466943F12A217BF4BD7CFBFDF6F653FA7FB023FE3425BBBAB484FBE00429EBE372EAFBF2AF0273F6EFFCD3D4FE48EBF88AE99BF54E6A33E077264BF8A56D63FCA9FA13EAC99813F4CE0F93DE44FC6BF2436CCBF2716C2BF630C363FAE1B7ABEC1E375C0C739C03E189355BFC30E403F4862FC3F17EBA03FE09A98BF5FB879BF1C73CF3E66B5B2BDADDA8BBF170709BE9047314044DC9A3F269D90BFB5DFC5BF2C5D81BF4CA6183E3100563F2D6C16BFA84EB1BEEF77133F3B05853F046BD43E06FE923F1D1185BF7F7868BE08ED253E2A4722BEF9CD573EAD956C3FF9CFDF3E26CCBFBE005913BEEB7D49BD76F8813F47C22C3D624305BFB4BFC7BF497AA2BFA5F31BBCA5F522BF96CD91BF61B78DBFC7A6CD3FE32D6BBE866548BD1FA6D4BE80A25BBF67200C3FC19F2D3F066681BF9CF3703FA69B0D3F3C8F96BFB6898D3EF77FA0BEB6829EBF2538CA3EDDB5EA3F6FDC0CBF8C0486BD268F4D3E638097BE59BC333F4C6C44BF0B498DBF719C80BFE97083BF2744413EDEF9B03F6C8E09C0AFB01BBF33ACA8BD98FE1840148B2EBEDBDC0D408D05993F9E1D6EBF71B0B9BE86F98B3F3DB5E8BEFD10223EC7FFC23EA9B8953FE63F4EBF9943B93FC5C40E3BC682DDBDAFB9653F2E90CE3F32B21B3F539BA7BEB95505BF0E51983E9AA7A93FE545783F96E121BF260DB0BD12019A3F161FC13D087EBA3E54D061BE30076D3E1241193C35AC183DD794823F5A2C3A3F3E2297BB7C86EBBF0C87E1BFA11D8BBD83672D3F9929383D411EDBBE13A6443FF28BF43D8F4E73BE413B60BF95C7A03EDBDA2A3F9CB297BFFF550B3D97EA05BFAF13F9BE0FCD7D3F16C3A03E7B94993E56AD5F3F6B57DFBEC468D93F987C823F762F7DBFBCC656BFA6AFC2BE634502BE5F991240D59A8F3FF6987C3F7DB899BF3AFA95BD4DC427BF12F6703F79AAE1BE4A2ECABF87AAE9BEFFA3673DC93BA3BFC4F462BF6753893F299AC23F8299943E6791813FC63CC1BFB82A813F4DC6E13E3DBA4EBF90AFC03F7F7B223F4202023E1BA9A83E512777BFDA20993EC03A60BFB7270CBFFF8A7E3FC6D7653FE7CCA8BFD34E58BFBFA6AE3F8D04F23F5384B2BE079287BF95B74D3F8E76343F9637313F3A607B3FA3C5A83E730826C08CD3A13D6DB97E3C417F72BF61AA22BFB67BAEBF0A66F83E235DCB3EAA5E833E7FC7163FE2D20BBE905F353FB78CD53F36B9D83EC1372DBE113CF0BE30E098BF8AED90BF77ACA73E5D5B4DBFA54E513E61FC033F6DAC593F4AF532BF515776BE695DE83FA2BB433F391349BF87D31DBF3A11A33E8B990440B1DCBF3FE102423D98591E3F83FC06BF95EA803DDC8EF5BF910050BEB4DC333E5D5855BF629637BFC75A893FDD2977BF4794F13EEFFA67BFC7D189BF00E9C93EEA37FB3EF1C03FBEFD4F08C05E12F33E86ADC1BA1C0C663DC3D9AC3F92A6A2BE03C2B53F5D8246BF930569BE293066BF57D9593F463884BEFC34C3BFF1C0B63FBF209F3FDC06143FFAB6073F8543A1BF6DFCBD3F593ABEBFE0E840BF57B1B5BF524B8EBF4CD23E3FA9620E401FE81A40667B893F7C5470BD0E6315C04347E53DFBE4AB3ED9A9893F9B6DB5BF03B3D23FC33B86BE857FEC3E5B20C93E346BB4BFF18781BF59870D3F50E4C03FE61E7CBE23A50D3FAAA625BF6F9F04BFED31E73E686A3BBFFCADE9BE870FBC3F2B5503BE29754E3FE1ED7DBEEEEAB1BEF5851BBF53E0323E1587A33F1C40C63F3736723EFFCDD0BF5D169F3EE9BDB73F0E58D0BD44897EBE4C7E3DC0B5810E3EFB6EED3E4EBB303F4687193F189AD83FCBC90EBF2484083F5D7A7FBEA511D9BCA74909BFEDE1803EDA1F4A3FC36E813F64F24B3E33BFC13ED959C5BE530BA93F10096BBF8684EA3E71C5B03E5298DE3F1568413E5F2E31BE3AF49E3F3F5CF3BEA7B3683F8330EDBE60DC153F0A2836BF8D0BE83EBC1E4D3FFCEC0F3E72799B3F484C683EED29BABE9EE04F3F68A55B3FE6120C3FC5C2B8BE49E0623DAF5D0EBE34145DBD760B81BF4298CF3F91B59B3E6396CF3E383D8A3F52749D3E3DCC213F199EB7BEEB39A7BE0A7F88BF5C5C87BFBA6CA33FCEE79EBFE2BE413F8710EFBE546A4D3F0374853F3E08D5BF2FFCE03EE56CD83FED61C43F7BE089BE685E1F3EEA551E3E6C9C80BED57AFA3F2F2CA53FE12E01BFCAD150BEA054F8BE11C5963E7D7802BF8CA8563D00220EBF0260733F3F12283F32BFF3BE1F3CE5BFB9B111BF2F8ED03E61DBD2BFC95D3B3F8F8A5ABF130DAD3E52A204BF1C8E5F3FFD35A3BE48D08D3FF121A73DE0002240C1B5F53E38D9973F843156BF3F9A97BFDD4F7F3F30B9113F67846E3FA3F40C3E1A3BA8BFEBCBC3BF7033A0BFDEECCD3E6CD3184008768C3F74B04E3FA1200DBFA163753E02BE1B3F05A9503FB5FBD43E2AEA1DBE224DB9BD9A2C983F1C71913F7C727E3FBEAF8EBFA963943E7009263FF39D54C0902D143FD94A08BF1864B8BF48B28D3F4190FF3FACB993BEAAE558BF56E90A40C347473F2620373F51202B3FBAB9873F0CD67B3ECF691F40D1E978BE97AF923F17970FBD463A9CBFC24862BFFCC6583FE4F8F53E35B70C40056DC5BE9B3983BF630E403E2956473F97BA6A3FB001A73E523AE1BFC7DB543F7F7033BFE54E17BF97CFF7BF6CF4B7BF12FDE8BF57EBDABEAD24DB3F32EF5A3FD7C0BDBC7E9F24BEFA4EE73F2A7158BF488AC6BEF3FD973F544EB5BFD82923BFE27F8BBF79AE7A3FA0A0EB3E13A08CBF54C975BF593F163E68F25A3F3BD78E3FACF10740DFAB70BFA5A7893F5DF5C2BFB44D87BF0F721D40AC14833F7557C73EF0AE1D3F6D47F4BEBA8255BF588C133E4527853F3E3AAD3F147B93BFE32B913D3CD2713FC9FDADBF97502C3E8B562F3EAE79383E5A50823D958620BFB6DBFFBE0AC7EABC78200EBEF57C77BF3C400B40FE3221BFAD0DAABF9866A03F4C5BD03F2F39C33E0221DD3EEEF19ABE20FD4E3F3ACBFEBF061FF1BFAC8E9E3EF3C8913E3A9DB83E21445F3F993A653EBB0C0DBE3382A33E7D3A40BF01BB72BF6C9AA4BF6661183FA5CB08C0546C3F3F58BFEF3F667F3A3F3495AC3E39DE84BFA3FC77BF61BB0F400A15B4BF652F66C087A85D3FE980833F0BAE85BF58F4C63E6B6999BF16EC933F771109BFF5CF48BFF138833F095588BE6C8D0C3E6B4607BF73ACC73FCEF563BEB45B7EBF5A85B3BFD8D047BF1B68C03E437829BF47C380BF3A4775BD14D4243F3214A4BEF08C8A3DBA16C43FFBF727408F89B63E0BD995BFE605053E74853BBE03109F3F0B618ABF1CFB453EAA5A223FA64CFB3E8BA303BEB19021BEC694653F2E2817C08F1623BF32AB033C59A5283E4F0EFDBF5588823FE6D2B83E2170373FDF5DA9BE11891B3FC851CDBFD45BF9BD45DBDABECD10D13F218BADBF0F3CA33F0D48AB3F11A12C3F2F4E61BFFA2732BF2BE8E63FAFAE903FC480B53F308129BFB6BE18BECE26993F2769603F0B53063F6B31ADBE9C6ADF3F00D7A0BF260A0BC0B6C91FC00A4E443FBA3324BFDDBC1C40424BD4BE314A0AC0F2E3C13E9FE9923FA874D73EBCF5C7BF2F0D80BD69E4C3BEA7F59B3E2D6525BE4F9B2E3F76E9F7BD08E8DA3EEFDF1D405EB5BBBECAB26EBF1F30883EC9472D3D956904BF6A41BC3EDEEC0ABE3AF87EBF3A768B3FE6616BBFC5C12E3EC44D4E3EAC4732BFC301C63F4955B0BE0F978C3FE85815BEBB3CAC3F207E1E3F1F3A563FAD8A57BE125C09C006FDED3ED8F4063EAA20E23E954BC2BF56000FC0F6A474BED457DDBE9EC1723DE92BF43EC185603FC35721BFBFEA31BE2681453F1E22693E8D55E3BFC64C2F3D106DAC3FFD0EC5BF5BDD993F3CD0C83ECFB6F5BF141D073F9B0B5840C6C416BF19E4A1BF401E35BFB386A43F09E0223DB032A63E7601C6BE244E2DBEDF76283FE7E3283FCF4F353EB446543ED87D7A3F9111923DBAA428BF097A703F0A2076BE69D9433EFEE716BF0044F43EBCCCC2BF5CCB6F3F8576493F8622CA3E95E1543FDA5AFF3FF31F833FF7B8B93F41E401406C89013E4F3EF13FBFD58CBD2BE50CBF65ABA53F7FEFCABFAE6381BF1C07A53D22452B3CADA5803E8176EFBEB1D5CF3F34E7EDBD941D843FDE97113F35B935BF993DD7BF8736CD3FE6A6873FEA1DE9BE11D3B0BF245B9ABF941577BF6FEA263EA45DD53F847A9C3F2CA1B6BFD7B29ABDC30FA6BE0DAA1CBF945B2D3F092AB3BE264A593FD92C80BF2E421FBF1297143FED8C37BF5EFF023F5EE6CC3F2DC2773E7C1384BED445A43F74D6873E686C33BEB8678D3F13874FBF6ECAD93FB9BDBA3E77E6713F13D255BFE2FDFF3FC8BC4F3E26F8483F63818E3E261D77BFF02B433F3384A93F698B58BDBB7F81BFC1DEF8BE0C09EDBF7970573FE0D194BF96F9073FFCF5FEBF6538BEBF70987CBF95FE24BFEE210FBE8678F3BF2815B03F19EE3D4018D4B6BECC9860BD84357A3F7CE49E3F11F2753FE41EEABED1BF1D3F9486D3BE6F9DC8BE68A5503E6BE7F3BD572AF8BF0D6F633E928FFFBE886D0E3E93E494BFE7DF79BF0643CD3F9FDA8BBECBF382BF778CCFBF790958BE15229CBE22ABD73E9CCF31BFE51CC93E7D32893EA152013EFCFDBB3E3C2518BF7C199ABE525153BD25278E3EAF574BBF0A00503F084B89BEFC27103F1F813CBFC50F873F017FF13F803049BFB3229FBE5396E93EED2BAB3FD74EFB3E7FA862BF4A151C3FD8EA36BEB6180A3E0CA68BBEDF0D81BF499330BFF904B03CA13E213E03B69CBF76727C3EED138A3F04C276BFCBAF923F3AE004C0C018F0BC680F40C07E58253E6E4220BE3AEE5BBFC364043EDB4D93BF41C55F3FF655233E381387BFCBF7B0BF3E57D0BE0434D53F9F608C3F272C46BFABDCC6BF4654393F78309ABF3E7ED23DBC6F0BBF3AF3D2BE3052BBBF73888F3F9B0F503EAF11093F105FD53F560B99BF720FDA3E23EC2CBD004852BF83AEBD3ED624BE3EC11B3E3D13F54B3F930ECC3E7A2F4DBED3310E3F7182E7BE063290BF5348C0BFC27486BF706033BE8282F93ED566AE3ED01821BF2C5EA33E4BA5E63EE70B483FD17A443D909DCCBF68D20B3F033E8C3F8E74033F17BBE53DFDAC26BF910633BF0D60E6BD5B8D333E18C69B3E296CA7BD1DB4F1BED774C4BF61074BBF56DBD73FD5A01A3F69933A3FD58E74BFD2E5D73F9269973DFC1C8A3F6634FA3DA7A4D2BF90036A3E00CB833EC804873F3116DBBC2130803FFE4421BF9132C03DABEF443F23543BBF412B7F3F08BDA2BD782F843CD95046BF474C54BF30049F3FA1B1303ECBF01CBF30E826BEBB5B1DBF7C2325BF2412D53EBE8B3ABF7EC328BE19CA9B3F388986BEB517733F5CFFFC3E2DA5B0BF778DF43E223F74BE9C8A123EC4727FBFB37560BFD95604BF1027BC3D4E7E283ECB2B5C3F42069DBFE66809C0D2B61FBF785DF43D9C8773BF96837C3FCB7BB1BFEBB95ABF83F5C73E6EFCBB3FCE7D0BBE375AA5BDC24F253F74C684BF4C6A133ED60C27BF4E8243BFAB53F5BF4D1E88BF503B383C6B5E42BEC220F43D9C8508BFEC6BFC3ED5F685BF421AA63C5A99563E164C7FBF84CC97BFF6262BBF853D1FC03B796FBED6B3DF3CED88FE3EF648A4BD069AE2BF41A723C0E97F853F62CA79BE7A9EF33FEE49DA3E1CAD513F361E05C09830E43D0AC22EC056DEBBBE814977BFE5B9053FD196EDBE7CE5783F369E0EBED704473F4642303FC27BB23FCDE6F13E28087D3FB6E90ABFBB2AA43F58C41640236A8ABEF9FC17BE9702213F9A50AABEE9D5CE3F8961C53E7E7E89BFA5C37A3EA9F4233FBE8D573F8091443F22CD4F3F4DFD433F4602D53D7C5590BD9CD8D43E4CA7C33E5A9D9ABFEA0444BE6D0619BD125AE43F93CD7B3F3CDC76BFFEBECD3F6BCF3F3F55AD9DBEA920853F4D85C03FC3650A40944C513FA0278E3FC65E073DDE3675BEDD23A73F529E4D3FE17507C03AD899BF673D0ABFB52A2BBF1550813C8955F03FE25343BFE976B53F7ED69EBFBFA1293FAF36243E7C6B04BF280380BD70C7453F246862BE72C48A3E88F36DBF89BD61BD19C67A3FCD43943FF9490DBEDF2D6B3F65E7B03E778529BEE046B83F83986CBEFDD0943E7E8D9A3F94C9113F1490B8BF2847603F5FE1863F162B133FA72743BEE7BD773FFA6530BFFB09DABE0BEED33DE554C7BF870F40BFD8F1063FECE3383FD506F9BFA8DFA13F26164ABE79F009401296203EFB46F53F6B0A8DBFB495413DFE7CE23F7952153E616D2A3F9C62103EB113583F9D1C7FBF8DD52D3EA6A8C13F0C21F7BDAA93A6BF82CEBCBE93EF4A3FFB08803D58434ABF89CD953F5E3FC03E004E233F5643C63E6E0D433E4AFEB8BFDCB0C3BE645328BF7735EA3E3ADF03BD79F3043F05D4F43F9264893E37E380BF3C5CB4BFF379D93F556B93BFE747A0BF06B4823D075D0EBE315F15BF8DBA3B3F4E18BDBE789E34402F5EA8BD986BFDBE35B3323FE7FD0F3F609FE2BE0E78EBBF44CAD03F65EEB13F0AEE2FBFFBD67EBF2FB7313E93A3A1BD5D1637BE58CA9EBD3D2CB33E3821A0BE077F8BBEB2C833BC1298C3BEB35793BF95D95E3F20EBA33D3365EF3DF0EAA3BDAEB8FBBE378EF4BF91F3FB3FD76C62BFCC289C3F4042B8BF6987363F47DB3CBFDBECBD3E5A27EBBE2A3CAEBD13DD8DBE1119DFBED51D9DBD372B87BFDFCA0EBF7B3DD33F4F1349BE129A90BFD060B2BD27C61E3F2EC1453E3A4FF63FB0551340720653409294AFBE9C5A0F40E0A5FC3ED4AC9C3FBA4C663EE409BE3EB07EA83FC3761ABF6A0A2BBF34CB60BFE3AB773F3498CDBE8C16F03E2BF741BF9B77FFBC8B871DC069DF893F7215A83FB91FCA3E0A484CBE9768533F583D993F2700B03F571D18BEB7562040ABAACDBD84538ABFE374413F6487E63FC98D00406A830C40EFFB2EBE9FC7B5BD921321BF23C1403F124AD73F63B7E03C1F38533F5AAC173E18E93FBF28A1E03FB181B0BE712577BFAB6BDC3DE8914ABA8F709BBDC4E4D63E9C09373F651F843FC2B5323E65E7B7BFC80870BF5FB2BCBEC32CAEBDB45716BFDABF9F3EFB1A97BFD38E16C003821E3EA547A9BEC54A9C3C6CD391BF23D7563F313ADDBFB8F3B33EA4978F3E9E3D6EBE10C5A4BF6121863FF7AA4ABFA01C1DBFC62D0EC085953C3C61C5943FD9A4DDBF49248A3EE258ADBD1117C5BF5DC4C4BD164007BE3019C6BE391E47BFCE7B45BEAD3A17BFB26C5D3E12637ABF6B634EBEB9E08ABFDB8FB4BE888B3DBFF4A9073F643744BF1478593F4A91163F405E52BF6EE331BD20D0ED3E0C8A393FC78317BFBA1D9FBE852F80BDF85E813FA726C7BFF0BE58BFCF1E7CB5A273A6BED01033BE9474B7BF18DA3EBF3C63D0BD93730140E71F9ABF284B01C0F6168F3E0BD2ACBF53E33F3F96F0C9BF4964473E6021ABBF20617ABFFCD3CB3F8DFC253E007A013EEF14124014E6FEBE9E24F43E34E3BF3F2B3900BF24ED323F864A833E6141173F6ECB52BF5725E83E54EB62BFDEE14DBFEB3F25BF13DD95BF8B585B3FE9CD143F868717C089F0373F7E7295BFED99C3BF7A4D583F184718BE761F11BF3805CABD93CDFF3D72383C3F55F5E13EDD1400BE0B67FA3C91D18F3F2680BA3FEBD0B73FF6174DBF2622663EA9510ABFC75A09BD6B9537BFC6C18D3F2ADF8CBE4BB0E2BF44E8153E1C4F0FBF7AFC9D3ECC966ABEA9BEAE3ED43FEDBC2CD1A7BF1E69A5BCC5D5F9BDC7007BBD7788083E32736DBF6FE17CBF9FDCE83F45C7853F5945183F8C93D23EEB2CED3E9E38A13E4935973F17489EBE8E0982BED2E2373FC6FB2DBF0AECCD3FAE927ABFC52ED23F168B3E3F08C4C53DEB6097BFF73555BFB9F227C048D6F3BE3397C2BF5F5C15C02F17A8BFB7AC193D9EC1BABECC4E33BDA2C75BBFA0308A3E8407FC3E57A7543FE653DE3F98FF7FBF9F3DBEBF0A7AA4BFA9B1883F8B991C407B51C43F75911D3FCE4AC2BFA58490BF0B33933F1707873E0B5436BF97423DC07CBD08403279073FCF050D3F08A62D3F6A2117BE1E4764BF24049A3FB1CC2CBF810FD63CE77AD4BEA7D401BF318F60BF28F6C5BF4D80863FFF69963F02F0F4BFA324623F4D5370BE5AF4BABDF7DEDF3F7130653F61F694BEC7A9403EC3BC59BE69AC09407D39B63FC7CF3BBF6C051BBF8EC2CBBF5C73923F866CCCBE96BED83FE5CD913F50193AC0CA7792BF4BDCB2BF1623A6BF88D2BC3D0DCD48BFB3040C3F5664423FB49910BD49B39B3FF3DD883F34D95E3F44FAFB3DF7F09F3EFEE02CBEABC910BE662C24BFFCB6193FAF29843F402B943F66EFBABEF9EE59BE2D9A4540E3B60440C5DDC9BDC1A934BF1DC703BF4E391EBEAF7021BFD626C6BEAA2689BC58D6853E6047F93DA19A67BFD5FDE1BF9C4F82BF9E3989BF5ED5D1BFE224EFBD5E5152BFB40FEFBF616D93BDEC8B893D77ACEC3E98A49E3FF7B040BFF1AE4D3F1623CDBF6460D5BECCCC2EBF06EE18BFB3D83F3E59919F3E1CCC2E3E873529BEC38A443F55CB6CBF62D7F63FC64576BFE67B3FBFDCFF4FBE2068B5BE17A13D3F1556D0BDC0EC943FE03B9FBE6071EBBEE05A603FB7E07ABF0F829F3F44AC0A3FEC3DE53F92C980BF988C603FE86AF4BED3FB963F7EC5403F9764CFBE3CE0A7BF17B090BE6CC34BBFF645893EEA5F97BED1FA19BE54058C3FFC14244064DFB9BE74560F3E86F0A5BF7D6C8ABFA33F5C3F00039BBED076A23FEB2DCFBDF7159FBFD43539BF28EF7FBF61978C3F49875D3E78BB8A3F2DCB23C0EF9A603FF71F8ABF60F173BF05C021BD8E5263BF87DD473F87BD0BBF43CE98BE0944A13FDDCA853F9C63D7BE9214823F9EBF7D3FE79EBA3E51AF33BE3A3E813E3274AD3ECC109BBF604646BF5F331ABF56A8A4BFB7CB973EB2A8A53E3459AE3E8455F33C4D568A3F05B7C8BF4EBC244058BAACBE86CA83BE4EA7473FA6203B3FBADB713FF69578BF6562B2BF31FA8FBF92EECB3FD3FE0040DFC5FB3E60F7A53F33C011BE00EC263F9E1ED93F989FB63ECE6303C0367A843EDE008E3F3FFF9EBE9D9F04BE1229863FF20DDFBF51F01CBFC2B950BF1F0ED03FE97CCBBDCC7C25BF943A91BEECEC40BF09374A3F379B893F550D633EBCCF01408BD18DBE6D088CBEA7A22B3F68DC703F8E58D2BF1D46F5BE465CD93F1050FB3F69FCA53EDDA9F03F2CC4BCBE6C3FB83F6BA412BE5C3D25BE603183BE8E427FBFAC900740FBE2713F2A0D8CBF13DFBB3E5FE28CBFA43EA23F4B5E98BF36581F3F90BAB7BE2178433FC941A13F7E0B47BEA6E696BE5AE2C03FAFAB3ABFF42A2CBF69C34BBF3C2328C0512E08BFFC49493F0E71BCBF9E573EBFC15657BE06ED833F9D4F9DBEDBB34BBF8AECCF3FF5C6AE3E8C00C3BE382ECABFE01086BE0F050D402A010A3EAA743ABFB1EEF53D89FE7EBFB4DB0DC08345D93EBB5F66BEF79BA43EAC99F0BEAFB46BBF6C851DC0F96A09BE99DFB4BE48F63FBF0113E6BE790566BD557FA8BFA7E9D6BDC9F7C33EDF579A3F0309D33FE3B8C73E8DDBD5BFFDA060BF6A6CAD3E217E043FDAC607BFEA42993D773D563F54BD85BF726CA3BF84EE6E3EF5B3AA3EEDA0AE3EC462F0BFEA16AFBFEEA51A3F7D9A94BF6DEE0B3EAD4E80BF573962BC0EFB173FE7D652BFADBBDDBECB3FDB3DFFC58E3F31ABAA3FB7E44EBF6EEB853F46A436BF548D1FBFD5592FBE5111AABFB4DD91BD5424CE3F7C6C9ABF2EB9F13EED8999BEB2E93A3F4CC2433EB96C603FF810803FEBC01C4096D13E3FE5867EBF8D9935BEFEA7F03F110EBBBF7BA6203FE8E178BF16C2573F2C58033F65F6F13C842257BF2EC79BBE8686E93E95FB253F39AEEFBE588AC7BF2B2C1F3D77CBE1BF574701406CF603BF9166DD3F720D883F5688DBBFCEED8E3E55EF7C3F2E332B3F6D58BABE0BD7293F00DF8ABF755B15BFC06F81BFAA1C40BF374CAFBFD8F013BF4B6FA53F850A4840CF29CE3F81111DBF5F2CA0BE301F11BF955CE43E3E75A4BE85F1CC3ECA1BB13F0485843E30341B3F52D1E8BE0D8E87BF6B960F3FDFA04A3E52795D3E5BF324BF0745243F0B24F63EA75516BF3B021A40033BE9BE631B043F31623B3F795D60BFA80FCB3FBB7BBD3EBF24CF3EB196E33F2493213F819C6CBFD475C3BFFC2AE43F4173FB3FC0BCE03FCB8F89BF1A1422BF9220AE3F7D70A43EC7361B3F642A55BF3478EBBEA99C543DC77E293E085888BF124A903F31AE0DBFE12665BD4820253FD42584BF185007BF49F66B3E396BF1BEFD928F3F81DD443FE5660E3D3966563E8E069FBFAF888F3F2EF8253FC8061D3FA46F863FE48398BF612E923F3C11133FF4BF7F3FB2310BBFEEE7C33F2A9C3C3FD01DBEBF90B2973E1E415A3FC92E853EF6C6D93C5DD9D7BFCA315EBE8A0388BE9C5B37BF079C9B3EE057D2BE532B943FE5966D3EC3EF933FDDB029BF98EF733F904B5DBE6D174E3F9CE7453EA4924BBF8CB5EBBF64DC6B3F23BDCF3C829CC2BE44BBE23F1CBF1ABF2802033E88BC2F3F66A2653DD6D93A3F431DDBBF6440D8BF7DB39BBE5D13573FA1B02DBF7EB5E73E131435BF043B1E3D9B5F00BF1C1B333F184983BEA91C87BFC4A8EBBEE06AB83E32C9623FBFE5353F7DA3603FD9DCDFBF500EF1BE7FF95E3ED0CFD83F9C03213E3850C0BEDF591D3F9824793C35A9D73EFB3BF8BF47FC0A3F1999953EFCAFD63EA7044ABE95579D3F374434BF15E6B13F16F2D7BFC0C5883D9E3F8FBF5A93B4BFC223383F186AA7BFF3F00D3FCF540D3F1500A13ECE08083E3355333E24CFC03E0258C13EFF4E08BF339DDB3F79217CBF3836723FE3D2D43F6D1B15BF63F7093E28AAA53EF0D55CBE462890BE28BA803FBC06EBBF2E2F15BF12B5C23FD784E33E1B3E9BBEEEF8E4BE64EDC43E5FB5F2BD83690440FEE05A3E25EDCBBF3D440C40B57A1EBFED10D53F01850D3E6923B2BE8DE2AFBEF37F123EFB30F1BECA583A3F2A6258BE9A28863F3A3B0D3F54FF403F32AC09BD65018CBEABD0E83FE16914BF440F503FAB0C8BBEAA96C7BF32F0493D2C2FCDBD9106BF3F9E40613FD4F483BE3BA40C40AE1189BF7A7A0B3F4DDF973FF62B0FC0D688293F3CDE113F772B2EBE9D7DD5BE51BF823E7A73A33E4C1A08C0088BC9BE15D9AC3FD9FFCDBFDBF8C9BF84046EBFBCB181BBE19A8E3FF6D3E9BFC29905C0CC1273BEDB61ACBF4E25F8BE83F754BFC97C16BF5AC89E3FB1C80EBF9B61813EE4619FBEC28C0ABF09B3C4BF30C1F6BDB4CF683F916C9EBEA4B79CBFB2538C3D00D94CBE7A1564BFFB9A4A3F3E4E24C07997563FB5EBEFBE97BAA5BE32E2C6BF55892C3F1E1EB23E0B4EBF3FB0790BC0152FA33EE132F5BFCA484E3D44E07F3FA5CF5D3FAAFB983FDD2DAF3EA3A8A4BFDB7B60BF9B422A4059BD12BFB39F64BF8F621F3F51F852BF86C59B3F3E2A0440C34208BF9E7C32BFE0343F40CCE8CBBFC276AFBFE017583EF13E23BFD5CA9ABEA6772E401C5647BFC074B03E089C44BFAE46D03E4CF3EC3E6751EEBFDE94E93EC343563EE989363EAD4C14BFEECCCABF60C902C0569C2C3E3A998F3F208D95BEF34AC7BFEC981F40C930773F6856253E435F3CBE248C243FB352633FFED19B3D339185BFDA16313F660C353FD1384BBF63E8B43F2A4FACBFD0A693BF9D09064092374F3F0655EF3F9FD4F3BE329BF1BE64CCFA3E8E60E7BFEE22813FFC97E23F50129ABFC37A713FEA1C8ABFEC48503E18C13B3E2DC3443F8983EA3FEE4547BF47211FBFFF0B0A3FC233F83FE2DC36BE73A34F3F0EEC83BFDFC5DCBDA5B0DDBEA982113E610409BFFF508ABF9235CB3D81E8D0BF37ABEF3E3F4043BDB4BA263D63DBDC3EEB1FFB3D0C39E73E53B371BF1AF4893FBBEAA43E5032DD3F5234D13F34E2AE3FA2F139BFF936063F42553ABF36E95B3F1344D0BFF35DB6BF89B879BE16B507BF5AEF30BF4289B8BF2DD1D53E8D3C8ABFE1C00D3FF4753BBF53D677BE5F4E803F05C53FBF4A4849BF5776D1BF304892BFC1D3F5BFAF6DFB3FCEADB7BE4E856C3FC24E56C03745DB3E0175F83EEA42303D225AEDBF0889633B3489263E6F1347BEA20BC63F67E66FBEB8850AC0732048BF03D1BC3F9AB3673FEAA8973D0480CD3D9B5E8C3F9A15603F179CA5BE5DBA08403B28BFBF2DCC843FCAD25BBFAE4444BFC0353E3F821E43BF8B60F3BF344318C0951D89BF7C170B3C8669943EC86344BFCC0B4B3F0DC5C03DBD6B4FBF11524E3FCD21DEBF0E8F483FF7CB8F3D6578FE3D61FFF63E04A5EFBD487C933FE6DD543F76B6563D4E16C43DCD272F3FEF9263BE4B4F3D3F06B6D33EF1DD583F9A7F80BDCF65A33F57FC38BF98FF5C3F34BB553BB73300BF7113F3BF7AA581BF28F066BF76ED5CBF2EC2603F17AC823DEC181FBF938B64BE68C9E93F604CB53F16E3B4BF7CE85ABDD43E00BF8F6194BF0D42A1BE0A7C5BBEA2D9B0BF38CCE23E954E3D3FD7572ABF2578023F8202973FAF5598