#map = affine_map<(d0, d1) -> (0, d1)>
#map1 = affine_map<(d0, d1) -> (d1)>
#map2 = affine_map<(d0, d1) -> (d0, d1)>
module attributes {torch.debug_module_name = "CldFracNet"} {
  ml_program.global private mutable @global_seed(dense<0> : tensor<i64>) : tensor<i64>
  func.func @forward(%arg0: tensor<1x72xf32>, %arg1: tensor<1x72xf32>) -> (tensor<1x72xf32>, tensor<1x72xf32>) {
    %cst = arith.constant dense<"0x7FCA3FBFF9CC05BF002593BF3ECFDF3EFDAC94BF0242313FADBDCD3E254D443F218AEB3FA436353E4598893F32A5A63F145A06BF758F023FCC2BF2BDD3699B3FDB73933F55F24F3FE6252B3F8C2462BE412EB1BFBA72523F1BAF59BFB7FAB13E5847B53F602017BFB5F9F73E159694BF1D2AAFBE5CDE5A3FD5E555BFD80044BE8276793E22AAE2BF19F61FBFCAAD823F5EC7D33FAAF94EBF6DAA633F57E6DB3E1339FABD153523BE9F779F3F0480B1BFDEE4063EA683303EEE2D8E3D736C23C06EDD8CBFA36E993F8D54863F4B22083C50F0C5BFC9388CBD3BF91C3FD485FA3FF758B73DA08F30BD4516ED3E727A9FBDD283233F227B22BF8BF2743E6190A23F484F323FE677B9BEF757613FFDD9FA3EEE6A973FD801DBBED31583BFA5D92A3F2684113FF645473E8AAEA03FE92726BFB4E88ABF452571BFDADFAABF3BFB893FE64FCA3F0D4046BD7F96BE3F8680A5BFDE0144C0F1C1BA3E2646843F9545CB3EC5B48ABD8B73A6BF5083FBBB8806BDBEA6FF98BE91AF79BDB78DC93E61B96FBF9AE4EBBF9D1B273F88A7053E25F8E6BF68F0333EBB944EBF605F1F3E26B8A4BD77D17ABF211119C0D690D83C9FFB2FC04B7C9BBFF405853F68D3233F1BAE96BF88B753BFEC11B3BE67951DC07F490A3E3F00D2BF453E363FBD745E3FBF20A23FC13F62BFFE3E2F3FEA57EC3D7FBFAD3FEE80E3BF5AE552BF567D193EF4B007C0945491BE13A885BF6B5A283FD3B98FBF3529BABF814B34BF8614D0BF22230C40969E323F94F01FBF0C18213F394D8D3E68A325BE17B162BFFFD51C3E726DB3BFB339223F65455E3F20F4EB3FA9E2933CCB230A409037823F8F70A2BFA54C613FB609FBBD709519BE36E9BCBFC4C1943F293203C0F46976BFAB4357BF755D65BDE95671BF82589FBF3C87D3BEEC0C27BEE08A12BF2B91AB3FCCC6B73E555BDE3F7F9E783F5EFE123F42A5C83F5D5BA1BF25C70C3F4590CABEAA23043F4498D63E5CD1EE3E6C2CE33EDF0905BFF118353E76102D3F8104373F76C28A3FA92A53BF2C7E933F617BCDBFB8B4FDBE8919493F556EB83F691921BFFA770EC0A285CF3F3D5013BFF40D653FE25D5DBF881CF73D1686AFBECCFC13BD1984C63FCEAF313FE7DCAF3FE68BA3BF99DD1BBF635DFFBCC21332BE1C285F3F9847AC3FB85FD2BF93296DBFE57652BF0F2B27BFA485453F1005623FB88493BFD6572BBE4A6E893F5504AF3F8862913E09A65EBFC056F6BC5095293F068E923E28DF653EFDB2DB3E1C98953FF5AEDA3F78344EBFFD10E33EBC78F0BA3BFCB83F57833FBF02731EBFB6B5B03DBA1F43BE2EDD0F3F6DD567BEEEA0C5BF187EAD3FFBE50BBF96CF90BFC1A51640E8F5453F01E39C3E42DFCF3F8347F3BCD06F513F09941A3F1355483F438D78BD1A16EBBE3A8842401DA7A73EDBF1333FBDAB2DBFA70F3C3FC4AB813FEE8288BE798AA13E8B59653F6EB6B6BF5E18583F6F9CB4BF6B6BA8BD8F0FFB3FB328773F53B32BBFB8AA573FD972733F04E6073FA90F69BF51B5E9BF84C88DBF842AB1BF3B9C1D3EB3F49ABF5A2A5BBF51A6B83FA9AA293FC7B47EBD683282BF4C9E0C40DEA81F3FB491AFBEE1BF673F5D6BE6BE0C80DB3E4339583E000FA9BEA265A73EBE243FBFBEB1A53FC7FB673F75257ABE1FFEEDBFF08A21BFF77B013E9C70ABBF84296A3FB018563E4FB7B23FFB41843E320ED03EE8F98C3F10AB513EFEC649BF7EB5153F75ACB83D1221B23EA60787BF7387FA3EAF35B8BEF214533F59251DBF2B6FB53F9F48B8BF86D80640C812C7BEFB2997BFA7DF4D3F9623353CF85E4D3F2EDB09BF337167BFDE396FBEDF8931BBFBAC67BF74AFBCBC720CC73FC85D653F4E9A4EBF6ECF0B40AA2F4FBFC23A98BF340D623F42488ABF6D1869BF95180EBE306168BE820690BF94B9713FDBDAC93F39A91540F8BA0B40AF9ABEBD5B7599BF40F9AE3EFC4010BE8BD7AD3F43CC8BBF9C9E19BC9E0AD4BC0BD6CCBF46A2ACBFDA975F3F621B213FBF0EC8BD452B6FBEA1158ABF298E943E476D533EC9658FBFE0C8D8BEE2639C3E2671643F9FF59A3F1C649CBD2344FEBF3A86004061C708BFCD4C6C3E7D3683BFC96A60BF4D68EBBE2212BFBFF82717BF2BA2013F288D29BE9F1F6BBE3B82443D15D872BDEA320040E405D33F845FCF3F00BFA03FF34E3A3F307348BF03564A3DBCA62FBE2692603F6C729ABE97A19CBEC7D603C0338360BF87768B3FDADB483EDCD5F33FE9A9BB3F7352A1BFE9DB813FABD4BDBF744D9DBF650B0C3F68D51E3E33FD7F3FEB64873F5F2D0A3F6B2277BF24FDDEBE462516BE2474F4BDD7E4BF3F75C4CA3DBE70593EB6C1B33DF66957BEBFEC8EBF84C5E1BE4E327C3EB8796ABFC897083CE7D025C0C522D2BFEC6494BFAB6D06C06009C4BF292DCBBFAF83D4BF4AA424BFE034C8BE4C7D01BFF9878DBEDF6C5E3FDDCE40407858503FDFF9043E5F54613F5E168CBFF44BBE3F276D0EBE6DA14E3FAF57053FEABF7ABF4F064DBE32DE64BFB1F4EFBF0EF5213FF48769BFE52480BF2E41623F7416C3BF4B94A93F5B387E3F4AE8C9BF328B8EBF3570063D18B812BF3416B9BE27ADCCBF1AF7EBBE07DA333F0EDC58BFC6BD10BF10EF06C024103CBD99F7C1BE2873D03F5993CFBE65A328BE98B27CBFA4701ABFD9C3A43E4A0C1BBF951DB8BC2F92FE3F764F3DBFC5C7F2BF6C42A33EA34473BFA51997BFE2B2513F18809BBF716C9ABFF03D20BF2EEF03404DD910BB2E7DC5BEC3B4BDBFEBEEDD3E24A2AA3DA106AC3F406EE53F296B8B3E15243FBFF8F1DB3D0296C6BE7E79933FD677833C8DA012BF2EBD013F506BA9BD41C21FBF732DDF3FF87A71BF046B02BFF585A33ED937F13EC9FC77BDDBA9063F07B49A3F3493833F5B3869BFE2AC103E813A963E327EDA3E1B2C2DC0E8D6FB3EA16F8ABFB27680BE6BA9903F7C6E05C091DD5B3FE1CF3CC0283C06C0AFF723BEB6BA80BD9833C7BF72598DBE22A066BFBBF928BF14D2FD3F964B823F7CF399BEBA3633BE66CFA5BF5A577A3CCFA6D33ED0EC463F0490AEBF4C5E993F44CF993FD8344DBDA3440EC0AB868EBF288941BFCA15663F9CFF253FE273613EC8EF833FF45F203F9224A5BE7A9C7DBDDEC9F93E632290BF232BA7BF9A50EABE4120AD3FF56E463E806639BF28E2B93F8463703FD03AC3BE69D7343F45084C3FA6832ABE184081BC62CF783F45BE00BFE44C0AC0A9FBA23DAD25653F324FC6BF4F37F2BE9EDD573FD128973C85C9ADBE8BB78A3EDAD399BF43FA03BF02282F3F66B3E4BD941DAFBFFA96BEBD0B24D8BE90D9123F3227B03F4D9600C0726A0B3F9AF1B23DDDF6F33FB6DD2CBDB72A823F6A7C0CBF2CB29FBEF3EC183F02CFA83F261DE13EBB759A3E6D6EB4BFAAEF283E30BFDABE02EB273FFF6B9E3F53F6A93E071A95BF87AB7CBF5DB5563FF4EF92BE18ABCD3E5185873E41599FBE7A7C0940617EA23F33962A3F6EEE1FBF54845C3D35CC23BF66DD693F1940C3BF013CC1BE6F33EABF4543BA3D0D98593FE3AC00BF983F96BF264B9C3FEF24F4BF0E3C753F0C8DFA3EB260A8BFED61FABE9FC658BEB7C8603EF40BFD3FDD6C2E3FF7279E3E663D0EC085BD423FE71D2940B27B6C3EEB383C3F52B70FBFA142953F86CBFE3E624CD53C1B8A87BF99E7FA3C106A963C3ADB023F050DC4BF383B48BFE00FE13C854857BF1C5A08407FB4ADBF5B1D5E3D4D898CBDCFA2F43E9DB45C3EC885F43CBF97243FDACF983F9D0A16BF4F3C89BF7A0691BF2FBBB93F359AABBE222623BE782906BE9C22D73F9A0BF4BE49107EBE98240A3F7EB7223F8720F33FD01DCCBF955187BDB942D23E3E9ED3BE7C73593F489A453E146B353FF3370ABE0956F23D483D67BF34A615C0DAE1263E7AD6F13FF1ADB33F02C208BEBD09F63F135B15BF606BD53D3905003F2AB32B3FCB90A8BE6C02F8BE640F32BD995BF53E4AB1463FB1F32FBF52786C3F894C5BBFEA398E3FB62BE53E498A3EBECC4005BFBEBC4CBF160F573D13AEE33E4513C13F31D6A6BE0B77B83F0B5B3740F176F63ED0E0123FE37BEB3FBED46BBF3FD812BF15D562BD8D4ED13FFB75ABBFFA792BBFE64F5ABFA04F8E3FADFDCCBEEBE9D83D2AC4743FDF53023F67D5A6BEA5F83FBE432E77BF9BBA53BD7905ECBF0AAD58BE0236513F9F9A5BBF77226E3FB111A13ED515933C42DBA8BF802201BFB2F941BDAA3194BF3948CFBE111D9C3F4EC6283F828A733FAED83B4048A7D43E39FBCE3B0725983E4A080B40110D84BF7F671A3F57B2683F8E58F3BE79970740EBC53BBE45F0BBBEAFA8E2BE29418A3F63AFE83EE0772B3F23A830BF4ABC9A3EAD3112C07D43B7BFF414BA3F151BAEBF9FEFD33C24D169BF8D30383FD71A6B3FBF170B409DBDF73EC2CD6D3F24C52ABF7D4B17C023D1B23DAECBF63CC8F71ABF417A4EBE107A57BF27CC8C3F6881A03E1CC7AABE9C40653F19B6603E5C8A143FF20C0D3F06C9C13FE3691FC06C93323C0767E3BC3EF9F8BFA9DB6EBF8FE31A3F6964B93E890349BFA166B7BFE4239B3FC292463E4F26EA3ECAF39ABE540BF63EEFBEE93DDF1AF53EFCC6F63E9802DB3FE93174BE05D9BA3F3E75EEBF2AF7933FBA96F33FDE9A33BFBD46413F8D49C0BF02FBAF3FD818C83EC0B4C03EB2FA254095EA6CBF39CD5EBF5D5101409B0AA8BFBA2A2EBFDEBDA3BE96E95E3F29B1BC3F51C3873F30B05D3E7AF3913F25E649BF3487F5BEC1F140BF6E0A6BBEE74E5E3EED4285BF949E8CBF5A67C23E0A16D9BF7810A5BF4CAE093F48AA46BE843A603EFD6FC63F7F18903FD08A05C046E5C73F4CB999BDEA73A8BEB2C9FFBE6C1FB6BFD9EF14BEE10F70BDEBA63A3FF18A19BFDFAEC1BF598D5B3FCFD4523F7A2C70BFCE13B93F07F6903FA26554BF8E28423FEBAEC23EFE212DC0EAC0F53FFA5DFABE682B923F03AB41BE5E0F143FDC389B3F182269BF848F4E3FAC419F3FC9A715BE5E1E09402CA347402AEFD03E44CD273F6466D73E9966AC3FCC463E403D3716BE5FE01E3F968561BFAB7AEABED80AA83F0BC53FBE5F4AD9BF4DAECE3E41D121BF467883BFE338393F9C243BBF49ED893EC7A02ABFA743FC3D967FA9BF4146E1BFF1EADBBF817F053F7DD2EB3F6AF51ABF0C6FBBBF9C6AEDBE019B943ED56CA43E4E78AFBEBC65ABBE549C923E3E5CB3BFFB80923FD079563FEA23E13F2F0AB83F2AAAD2BF6A153EBEEAF8EA3F04A522BFC57104C07E433EBF0EF6BABFC80D7A3FB59034BF9163F4BE35719C3D19FF11BF8747B6BEBC916A3E08E0893F3E0D9F3E7C8C553FBAEC8E3F3D55B83F4B29A33FB67F443E8BAC73BF6785B83E07D4493E21574B3F879C743E25DE5E3F060C893E305AA1BF0E8F323EEC93A43B56F6113F9B09BF3FA7AC903F585FDA3E565E26BFC8BB113E68E8F2BD3544853F66538ABF7590BD3E2AAC80BF7AD3D03E98AC863FDF9E9F3EF3D3823E3CD139BF90006C3FCDF954BE770E02BE18921ABF68FCFB3E8CFEBF3EC5048CBF8BD0BFBF071A5B3F89DD7DBE1032BB3F3397F93E3C78983E249F093EEC504BBD4E14C53D2BA4B2BF8450C2BE2E5C643F861D1C3FD0F2E93E3E3E753FE41341BEEFCB86BF38B1303EB64E4BBDEDAA58BFF42111BF88040E3E1EBF06408F800ABEA9DF00C0ADCFBABFE24164BF4C20053DDCE0D63DC9078ABF6220873F6E4D2BBF13DBFBBE0F5FC6BF3DFBCABF1B7325BFC66C01C0C97B7B3F48AEEABF924AB33EF207E9BFE53B433DF0F430BF837C573F4641D13F0815B63E0BC0C73E08F4ACBF414476BFED7EBCBF992FE33FE2753CBEBE2410BF6D6D0DC0B0636E3F5A87373F3F6840BFD904D1BEC8DB51BEB945D1BD6C94C9BE720E16BF77F409BE73E77FBF56360C409798D73EFEEC263D2217ED3D78B2A23DA3EFB53F405E803FAF1402BFFA24063E12C50A3E0F7C7B3FD4FBADBF11E842BF70B7AC3E6C971E3FAF60903F4BF50A3F277773BF669A84BEF0CD1FBEE4EA723F1364223F801F893E007720BF7722C7BDFA653C3F079ACEBEC36A0540F2AE2F3F423AA0BE7A8CE83FD86DB0BFCF303BBF535B973F42AD443FDF2901BF177CA5BE3BB7833FEF6F39BEE9253ABF41C36EBE7EF1953F17B5B33F7206323FEDB3D9BF32B88A3F2936B2BE279336BF6FEB54BF2DD00FC08875B63E9ED5A33F980921BFE007873D73A8C33DAA8FD4BE2FC182BF083143BF11AAAEBF6639093F6468393F4394C0BF4A3B4B3FEF1A2B3E1E93763D654BAA3D2DDC843F1D0280BFA8C100C09ABD86BE22024BBFD6DF2D3E0D1940BFD9B552BF399AB9BF36C4D8BF07DD3CBF69C0F9BF9F3EABBE6B5F02BEB4E47D3DB12099BDB9D9A3BE3DE889BEE868B7BFCE2663BF9630DABD158E94BF1C184CBFF3E36CBF9A4A293F304D59BEC1C2A03DE2713BBF6132CFBEBC31783F4A81DE3F9596E93E5FAF41BFB5805BBE9AC38B3DC960593D9479833F5ED4CE3F6A09D2BE5E7315401CA836BF2ED10D3F8A209DBFA210613FBF244B3FC4D9D53E35897ABF9AF0313DB98771BEF1032A3E520678BED0EACF3E15DA153FDCA6243EA028A4BFF759643F3539EA3DB0100B3FE1B30CC020803ABFDCEA513F811D19C066D238BEC73F783FB80AD2BF318E71BFDA7C66BF8472D93E54EC49BFC749EEBE1F8C33BF35E025BF21F067BF271BD5BD52B4DF3FBBEFC33F1C872A3E0970193F660DE1BD4C689D3ED768A63F39FB4FBB5FDD763E312DF5BFCADA5D3DB625213FA100113FB48EA2BEFEFE1A3E02EC9BBEF73A53BF512B1D4073F7633F2F58213E54E5E23E1237ECBDE49443BEBF42763FA61ED23E3B9B183F0EF832BECA87D2BF9BCE49BE419FBB3FD1B37FBF2B40953F3D20C6BE9FC3B83EC6CC8A3F5EAC5A3F850B363FAB8F0F3FCA47653FF679F73F1D9320BFFC9CE6BE03937EBD1C6CEBBF02E460BF045A353CBEC29E3F5A80943FC8AFFF3C43E4B63C9F63953FA0DA8C3D54BD2B3F1FEC98BE6420BBBE2677AF3F368E52BFC736503FEC90E2BF5532B13E1E2EB43DE659703FF4486F3F971EC63F762FA43EBD8D753DFF4B823FB0AB8D3F898A13C0A67A093F114D1FBFADA5C0BF75063CBF93648A3E6C21E9BFE8B625BED1AAFABE94888FBEF765A53F895E1BC086278C3F111AA43F53B3153E08016A3F0FA21F3FC61435BFF422C23F71FE36BFCA24463F5CCCD73E732516BF4351113F7671B0BE2BE8B5BFE94EF4BE85B0B43ECA67C43E4252BBBDC162E23E3B20323F2232F0BDCE5C2D3F60F69BBFAB79C13E34B6EDBEB64EA1BFB52FBD3F73C2D63E4BF8983F0F6C18BFD54FF53E369984BE7A461DC085734E3F274EC3BEBE62253F5039E8BF059CA53F68CA8ABFB956B73EA7EC523E6E03064089A9453FD988A8BFD2B384BD8D208ABF439D70BF2BFE1A3F6438A7BF8F82983E5DEB53BFB4EF19BF3A2A17BF8D72E83EB507763E468519BF8C00FC3FF5D1323EC8F0B43E065C59BF1C9F633F1BEEF0BFFAB1CCBE9E6E96BF51060040890FAEBF8B997B3FF39D673F4B88EE3D3895CF3DBFB095BFE3FCB0BC2D3158BE16C6AABEA35633BFA0FB0F3FB98C223FA5BEBE3F7D1DA2BEF671B83FB8F196BDD7B3B03C2F59A73F7903A33F4F100E3FA4DAE63E2E2AB3BF0394EE3E13F227BF507EFEBE889D153F6E78CEBDF90DB83EB39E9B3ED2E9823D3138293FC620CEBBCBAAAF3FE6FA44BFB183D93F43A6563FA8ADCFBEBFE2EBBFDBE4C4BF8C99533EABAB303F794D86BF25BEB3BEDCA5D6BE7730C63FBC7734BF44BAD0BE244F81BE8445403F2481A6BF36821ABF6835B63F59D0413E9B704BBD2D03B53F9E3C524074764BBF0CA580BF99A9FEBE24D76A3F132D61BF718549BF3DDB31BFE38347BD0D6FE53F579B283FCBAA633EB8F6ABBD4105A8BEFEFFC3BEDBD5353AA6DD39BFE6DBCDBE4E56EC3EEBB8963F50D4FF3E7FB2FA3D6E8517BE08065F3D6044FF3CE042B13C552F64BE6AA2FDBE9A2A843FBD3ABA3FFFF997BF1E2BFEBE6B2F88BEF753A8BE5E248EBF6AA6363F91354EBF049F1E3F05B9A7BD0C2E20BFDAE0A93E30CB463F2E53603FC283203F011EBABFFC72F73FF67C533FB0FF58BFFBCCC23EB1682B3F722E03BEC394EABFD7679BBEAA6B763F064183BF8E7715BF944F75BF0CF539BF2D1C273F099E74BF31DEC4BDBAC32B3E3D45823FBE1AABBE727680BFA2B83640E2D34CBFE18D01BFC0C168BC5B37CA3F33D28CBFC15630BF357185BFEF34113F70372C3FE365F2BEE554FA3E6DBE493B563D7E3E17FB53BF34C5C8BE379B37BF0AD8F53FDFCB5CBFFCE0E53E32A396BEBD2E983F0C95833F69BEBEBF7A17DCBEDA6C70BF422A8FBF301B86BC98C78DBF0B863EBFC0A9923ED3458BBD1F8704C0F861A2BF86564DBF745F2EBF1AA3833D3210B5BFFAA553BDE0C4413F32643C3F7D8E933E5697FB3E471411BE1533C73F61CA09BF30F3C23EA1B34A3E0D0E61BF20ABD0BFAFFAEA3E50700BBE6B27683FFCCDA83F1F1111BEC5B98BBFA7021E3F419904BF2C34933FA9A0273F5B155C3F9981C0BE1D8ADDBD786C953EBEB4593FEC1AF93E05999B3DAA9682BF594D91BFDF6C48BF43F4064012B21C40BAA570BFBCE4B5BF05F50FBF3F15D13E5E8F9ABEAE2DF9BE3C45EA3F95A213C01D0985BFFFBBE4BFB2514ABF7FAF1CBF1A987E3F19F2753E864704BF05B9243FFB66BBBFABF74C3FFB3C86BD86713E3F41DE273FFE3F8CBE42D207404713313F7D4160BFBB3A39BF7B6996BF0985AC3F6FA292BF9E3396BF3F640E3EC7ACCFBF6E0598BF12E1CFBFBE7BD13E53FFBFBDFFBB943FC7F5803F0B1AD9BE181658BF283CD1BE9042CC3E0A9F1DBEBE1CBC3DF48A2A3EEB78DFBE2C92423F21576ABF985B9C3E0BB401C0C60DBBBE1D80C2BFEDB6C63FAA030DC007F395BC778FF7BEDA6463BF53D2FA3B2E7A87BE63A08DBFD329D93E5248273EF05BCD3FC14B863E48B19CBF4D87D33FF915EDBE7E37A9BFD1342C3F543CC0BF6473DBBF7D40BE3E8CD31C3F2AEB553DC7C1FF3E92A1393D587B59BE44528BBE1658813F3754293F87B4B93E7EAB473F455F90BFB31C763AD02166BDB3DC74BF4B66C53F0B5C953F78D2C93E4704723FD5C1FC3F3EBCA1BE266D053FAF1987BE02B69BBF15D96EBEDA42B6BF8CC46FBED559223F6438DCBF39DA183E0F8AA23E6580C6BF92B6993F26A6E7BF9A6A9FBE22DAB93ECBA68D3F250C223E1EA11EC00B3B42BDF0C6B13F4554273E6E7D28BDC1C7C73E42CC843E2DDA44BEA56A8FBE61C2003F6063DB3DB0A605BF336764BF4CFB833FC51409C0DD85ED3FCF70BEBE049382BD306F1BBF304D6A3F9DBD75BFEB2CFCBF3ACCD33F1A4FC4BF691315BF12D3783F2939BC3FE5A113409BA4813F306030BE0E42E63FDAEEC23F3291AD3FBE53EF3DD718E63D6CFE293F156790BF86C699BF2AB716BD3B38AEBE4BF935BD34CA423E960B0EBE39CC80BFE1FC603E7C3969BF99F9CDBF8F9A723C623ABC3B0260B8BFEF064E3EFDC8803FA0FF9E3F3E2C413E3F6EA83F229175BF3286833E7D9FC13F29725C3FF6DBBC3D323B96BF433A0DBF26CB193F0F6D84BEEAF314C0F4999EBFF9F36BBE9BE75E3F5523633EA99C2A3EF89A8A3F92B5793F83F605BF2A1415BF9571833F57B6C4BE852B83BF793065BF831B8DBFAD1616BF3C1485BE6CF67CBFD8F595BF1D2417C0F72C1ABFF10F703FF4FD893E321006BE4398CDBD4BA77F3E977B613F945F87BF4DB1523F884A233ED44FD33E20E644BF6812373F45B9B8BE4BA5C73FEB19FC3ED7A0B7BF90AD92BE778D10BF3360CF3DAC22A2BFD81615C09A0A983F10BD713E0124913F4194443F7DEB91BE197848BF190E5EC0436771BF138965BE35C4D2BF4B760FBFB858023F1747AA3FF838A43ED79A65BE9E17E33FDAFD563F470B48BFF292B8BF4FB65B3E2B7DD33E534AD3BFA0A7653FEC8E173FBFF43D3F6BD7EABFB93614407A7C14BFBF6812C03B85A73D86D46DBF8555B2BF4E8D943FD213CFBE281202C0DAE6813F80D8A73C1B07B9BF5C92193FBCE5503F20EF7CBFEC95E23FD20A004089B0B5BE45F9743F8092443F959D383E0719123F302FFA3D874A693F70C3913EEFCF873F2194CF3F87C0803E25E4733F730B29401EBC25BF46C9A93FBC0A5ABE27DDE33F940BD0BF977C5BBFB6636CBE592C813E89788A3EDE27CDBD0A7F48BEF39084BE85BD99BBEC66C3BE244094BF01F687BF9329293FAD69F93F98CC01BF2BE9F4BC4295F93EE8FE2CBF7AD1C7BF83780440FDEDA8BFE53E9FBF91F7833ED0523A3FF7F8203FC990A4BF5CEA98BF0DFAC73F3215833FB118B3BE02A61F40618B93BE296C94BF31D41ABFA747A23EFAB138BF37A3C4BFACF9E93D7CBF4E3F1569033DC253193F66ADD4BF1F0113BF5AE193BFE11E3E3F859F1940939DC23F39C0B2BEE28FD4BF5534BE3ECA322C3F8F9C04C0CBB52F3F7224383F94D21C3EEB1BA3BF022BEC3FC1C8493F79962FBF08F9E43E87302E40599DA2BE13F4193E0D63FC3ED89EA9BC614920C097592A3F92D78ABFBFD90DBF2FA949BFAC090BBF1D1082BE965C683DBCE5DA3E0E35973E3789E3BE3137BB3E1C888B3EE14219BFF0E3853F3DCE673F16F0D7BDA92A28C0511CAEBD17150E3EF94295BE367B51BF4A10E6BD57257E3E09647B3F3AAC2C3FED0E16BF26C89B3E13AB0E3F9930A63E4FDC8A3F3F6B26BF604E3D3EB9E7134009F3D83F4C22134025A28C3F8AAA813B885801C0D914953FCDE5A13F4D84B03F726C4FBF9F97653EAE8B1A40F9D0723F4D6011BE558A653F836CFDBCCBBA98BFDD2B16BFEA07FE3E0645A3BFB9C8AF3E0477ECBFB77D16405ABE103F00E50BC0DFD86C3F4131CBBF0F65DBBF549BCBBD21B2C63F7242103FECA4473E91C9A53FEE9A94BFC562CCBED53F47BE8EB1223FF1E1D5BDC292D13D991380BF82CA3BBFE59195BF2385E1BDE971AC3FBB79AEBF6088A9BE4E8590BF7550A4BC52D5F73EE809383E8F00BCBE27020A40F6FDB9BFFD42F63EDF48483F0B428EBEC2D65C3E7C57833F8AEA903F238D59BF4036153FA2A2893E8B63E9BE6561A9BE864B763FD4C82F3D2347E83E3A008F3EDE708CBF95F2573FB08900BEACEC423F2C208C3F51E1F63FD507B93ECBD39CBFD1F569BF61FD15BCB026063F127EDCBED28A053F8C635BBF0892CF3E26EF903F12602A3FA1AEBDBF48296EBF873163BF0BD8AD3FDBC162BF256B053F83D6EA3DBEA726BF882B10C01B149A3F1BE0823EFD99C83F32CCE43FDEAEAABEF59C74BE6EC228BD1643E2BE1ED00D3E0ADA3FBFB305BA3E8BD061BE1AFA1BBEC4C1C6BFA0B22C3F603288BFD9D4F9BFE7CB9A3F933085BF3863FDBFACA506C0DD3BEFBEBD8F19C0CA0C96BF8808983EA87E69BF52BDDB3FEC0103BF2EC3E13E54EAB43FE7BB9A3FFFEB81BFCE4B3F3F0F59713FE04C313F3BF2F6BE89F924BEA59CD13E213099BD3DE2633FD25B6E3EDCABE23FB1D3FBBE02275CBD7206C13E1A975C3E9B7A55BF1499523F67FE0BBF80E9D4BDEDC38CBFD93607BF4781CABFD5BAD23F6F3F94BF2DD6ED3E658A06BFBEB562BF1109BBBE4D9321BE017BA6BFB938CA3C5B6A483F5436ABBCB8D7E5BE80C5113F1F158B3F4BB6D4BD7F8B3C3DA2DD073F8108A93EC01248BE1C4C26BD82B4F8BEF8A62A40E47D833F85A4D13E763C913F49F4023FDE28A83FB573B53F070ECD3F7FD916BEE8679FBFADC02CBFA1C774BF5F2E2EBE95412ABFFC34863F648CAB3EB0C22F3E1C63B83FA3F482BFEEEAF2BF1F476940C49E26BF085F293F5250853E866C073D872CF03F9619A93C4390863E360170BF728C0F3FB2F86A3E061F2ABF4EE5183E06B47F3FF55C793F8EAEF53F8949943F093ED83E18FB04BF1E39F33D124AC53E91F964BF32348B3F73A388BB9CE93040C508AE3FEB9709C09BCAE63CEBF2B93FA42113406A16563F4F3EA83F87A9DABD08F870BFB5BE963F75A2223F48AF83BE8DC2E43FCF5823BFD67900BFCC461FBFC15D87BF0575803F660A40BF84ADC33F489158BFCA7421BF0A41783FE04A7EBF662AFA3ED70C1FBE1F1FF6BFB69E993F5DCDC7BF0775FE3E9D28903E23E1E7BE88236F3E4F16C73FF4760FBE4B17CD3E66B7083F8DA38A3F8C20073FD03B7FBF215820BDE77114C02C85ED3F7953663FC01133BE235B6A3F9DEF813F4587DA3FA042ACBE465F91BF8B98573F94E7033EE56AD7BFC21A1240A470433F9C34683F74F122BFBFEA2DBFD55F19BE12D5A03F705E0CBE6A043EBECB5B3CBF8B6C8BBF8464233FBAD7023F31CB5EBFBE7CA4BE7161C2BFA18617404F6B8B3F4076B63DC0C01EC016BDD73F1C65133F49261D3F423084BF0472343F0B75FC3E99F90ABF75D1A2BF73BC4C3D7355C9BF448681BF47E816BF430B103E027122C01D3B8EBEEA81413F0F6E98BE037E553F12314C3FCDA300BE550F08BF6B8F983E5279EB3EF6025DBFEF636A3F5F419DBE530E41BF339E2D3E2BC245BE686F6C3E484F873F6EF57A3FDF4DA3BEF6B161BE2D1B563F624A5EBFD28522BFB6D1293F735DE2BD683CD7BF58D3353F24D1803FE0BB12BD4368FDBE9D7F973E065903BDDC3B6ABFF95F83BEE4C01CBEF6614BBF26B28F3F9D35653E0FA5543EE138623E024326C0C59AFB3F609701407110D13F2433113F64BDBABE06C008BFDD271D40175D4ABFFA6FF8BF269158BFCB2702BE78D65D3F9D28633F741CECBEC146C0BF5866043C6931133FB86709BD642CAE3F08D7D5BF70CC633EBA88503F5C51A7BF7661B7BF765D8BBFBEEB573F41163DBF4C587F3F0EC351BFB00252BECF4848BEE70A943FF6D09DBF216E7A3FB2481CBF36809ABECA04D2BD84F546BFDFB4B43F6C28D53FB4D778BF1A24B23FE88C96BE988BA03F8FF1C9BD0740DA3D2E6D2B3F75F5293F55A6E8BF49FAFBBEEEFBC0BEED22C83F41A0EF3F01B9653F4EAE073ED88E543F555FC8BEEF43143E91718D3F80CB603E99798D3F6A78AD3F93D484BFF79AB83FF120AE3D44A71BC0443A7EBFD31C853F9C5316BF4B10D13FDFB7883F2366CC3F1FA4DE3EEBD384BCB75631C00D8533BF6E9A0CBF25151FBF2108D13E9E21993F6EBDA4BEFFCE68BF99F7F0BF61FFF53F9C3CC8BEE8AF90BF71640CC0F43F32BEDF3C7A3EA3F15CBF03F8A93FB89CAC3FE4E7EBBD9FE0663D236C253F434D9A3EC9F446BCA734E73FBEA285BEC65DA1BD2634B83F6D96123F5ADE233F4488BC3D5942C43DC39F69BF87D0D03E8F8A583EE73F4F3FFB91D13F1130A03E9E4A963E02CDFDBFEF03B7BEB3E9043FBE1DD6BF96CA4A3E267DBE3F12E1B3BE9D35163EF8A61EBF9EB2193F88BE903FCE361AC098EF043DD4F7AABE5365E03F82D7903E3097DABE37AB1B3F57FB2BC09F8F92BCAD7F83BF8996973C15AFAA3F9A0ECDBC9383AABF1A9E51BF865D0E3EEF1B3DBF5CA7CD3E5022B33E56603BBE94A880BEF5415ABF1654BFBF6858B93E7E19BC3F1FB13EBF11848D3F0088F9BE0DB8B13E93F69DBDFA8E1040FDA29A3F35EC8F3E5E2DE83F27079E3F6B6CD8BFA4A146BFF3F851BFB116943F533C9F3F40CC073FEF2111BF87CDD03EBF284F3E2735AF3E156E56BFFCDA173FBA9D46BF896086BFE1BA33BF75C7833E9D010B3FA735EEBE77E323BF8477C9BFDE8E82BF77B3063EE791A0BEF696C03E971ADDBF599CFA3E215AA23FB1871C3DAA739DBFA94A36BF22B4323FADBF393D782A15BFABF0763F44D8373E9946C1BF70F4B1BC105283BE9CD764BF7D5362BF86C1743EF8F2363F80C343BEE304453F8ED30D3DD156003F75FD7BBED5D966BF5D228DBF2D5215405A3C37BF466C0AC0C36D44BF60199D3FE81B0840EC6E4FBF400283BF79D5113FC70CC2BF6B09673F246439BFCA596E3D5B7D04BF69CFEABE0B27AB3F13FA05BF3E575C3EF24DD4BF5341C9BE5CCF8B3F6123CE3DDD34DB3FE7FA8E3C0819D2BA670CC73E0E9BCFBE9EA4193FC77435BFA698D43F66E6EB3FB8B801BF403C5D3F447DC03D95E7A0BF4A38523E7DB9C93FD631AA3F3D86C8BE20D222BC86DEC63E386D86BF2791113FA073AE3F0EF7E4BFA844D23F3BF1A23F26DD143F8747953D475F2BC0C3969BBF43A09F3DAF1CB63F53D5D43FD9F8193F933CC43F3219CE3F01E75BC0D9FFFABF567F77BE32D66A3F93A0CB3E17D34CBFD6CF2ABFC0BDA3BFD9BBDF3FC5F2F53D33912E3FEBF00FBE513A4ABFCEFBF23F9A49403F66B941BF34B48D3FCE76283FCC8141BEF0D831C0591736BE6C7A56BEA69A013F3A7FCA3E80A09DBF97ADA03F3C5C9F3E5031BE3EE699EABE2F59943F953CB6BE4BA6463E12554FBE2C5161BD8AFA4C3FEDB9273E257EBF3FC791B0BF61E203BFAFC5BEBF31A5353F1CCCCBBE6A8D6ABF12D5963FA389F7BE4B66BA3E0F5FBC3F0E54173F2061C6BEE20E06C0D164813FB22013C0100727BFBF3C2A3F9F9A243F4E5BB73FE1203FBEB676ED3EB5A7C63FBD930C3E692E0740C07CD7BE930D783EC47C763DBB0E563FCAC19E3D13FABF3F6D1BEFBE2D142B3E116E033ED6B310BF1F5A2A3F1CEAD63E0794403F01E69CBFE442A73ED6FCF53D9130623E7047853B4BE41FBF1DC7923FD9BDBCBF07433CBFE16F853F5CB9B8BE06FA023FCD30D03DF08ED5BFBD0589BEF4ABF6BFBFDF57BE93FD343EAFAF48BF4643D23FF90E163F02E693BF9F24CCBF984EC4BC9FD891BE56EFECBF7337E2BF874C413FE6E311C0C071983FAB46463FF600C13F36FB2DBF28910F3F576F9FBFBEB0863E5AA234BD17A687BF477D273E4EB3D6BFD6AD433F16250BBF092D19BF24FA4E3EAD5CDEBFB63E0B3F2C140F3DF2D0DDBF1EF518BEA0F2F13D35ECD53EE7F767BFC8311DBFD5CBA63F8687AB3EB486BBBFC6413C3FA3B8B03E4FA06B3D307A963F6D2A16BE9261EABFFAF9463F20BD5D3FD9FBDB3CC048E43EB3CD1F3F94B33A3FD0B0B73E81C2CEBF28374F3FAE7A0BBF1C63573F2CE3563F9704F9BFB7F952BFA797AF3FBEA3543F0ECE87BFED32A73D3CD342BFE02F87BFD3C3FCBF9C0E40BEFA1CB2BCBFC399BD6A56C03F1D6BD7BF9E86DA3FE0B76D3E3337B13F200B123FD479B4BFBF2BB63F0EDE823F0B5360BF979867BF67989E3FA6CDA0BCA70BFBBE2690993F8E52BBBF2783423F40E811BF22199FBE4D82ECBE000E24C09C67B3BF8ACB86BF1319483F275517BE065CC13F717DEC3E9632B83CBC15A6BF1B2097BF6D02D2BE1D082CBF1846293F3F37D7BF3A65093F89CD593F604F14BF9D87B23EF9EA803F5AE7373F46244DBE17A511BE851C173F2FA9393E734036BEE523393FDAF90E3F60518CBE46137A3E308B3A3E1E15563F94E2553EE95F41BEA58FA4BFB5F383BFA9061EBE5A19623E34FD8A3E7139A7BF7F360A3E942D34BE68C98FBF88581DBFEA24BB3F081179BDADA334BF8C55AE3FA6BE033E24FBC53FF3F06DBE2885103F7C7CFABF4AC2193F52512F3F43032E3C0522B4BF2EEF333C77F069BFA2A2F2BDD895F1BE950FB43FC615563F5F89653F1E2050C0E913683F16CEDC3E4683563F2991013D377294BF39A9983F3E60073F53C3953FDF730EBF15F1A1BF084957BF9F09AC3F94C991BF2739493F1467E1BEC32F963E2731053F658D243FDF7AA13F495A103FD33A6FBF1B9A5E3F1627BFBF04AF843E17EC313FAD5971BF2CDA9ABFB274983FA4B00CBF1D133CBFF7DDD7BE6E3900403CA8A33E8D0E853FD1050C3F028DEA3FC1D24F3E29606DBEA359273F3FB4023FAE49DF3EE6C583BC06FCD33F9D18AD3DD98C18BFC6BF6EBD78AACB3EA61482BF2A2132BF6F2A753FC38F313FF80BFB3E94E81ABF627CEBBF3E82583F79A780BE55CC3ABFEDD8113EE074DC3EFF8C6FBD16269BBE7731C23E8B1A51BD359C043ECEE32ABF5F02A33DA98F46BF8751833E53820B3FB7A68CBF9299D7BE8CCB1A3EDC61883F4E18433D3BE1963E73679DBF3CF887BF7C7E633FB2FBC43F7FED243F97191BBE52C6953F1FB31B40C4DBFC3EA6C1873FE7C6CF3D8AEC853F0B6E2F3FCF4B8ABF61E5CF3ED64B37BFF08EB0BE9650033F821BDFBFE8BDC4BFB32A37BF1A9CE23AD4F71DBFFAD409BF340DA1BF00C4283DDC469EBF3139A7BE464C883FDE2D803F7BE5773E2B04B13F2E30E0BED8A3C63F0207083FE65E123F4A61793FD7EAA83FC29DB0BFF09235BE37DD11C0B4A159BF85BB823F96779B3F921CA63FF36C96BF74ECD83D66FF183FBB7E0EC087A878BF6F49A5BC7A711BBD77B583BF16747B3FD34099BE42EE813ED06918BE658AD6BCA8FE8BBF1CB3B93EBC6A3ABFC5462ABCFA7178BF690CDF3FE8A10CBFABDA46BFF2BF07BEF939E0BD2A6A0A3F272A61BE7C187EBFB1D5553F27427F3DE3026E3F59224BBFDA21423E8D9477BF01358D3F0E75CA3E221FBBBF402253BFE2E9A7BF54D6893F6FDDB2BF66D85B3ECB54143F67582FBF92F23CBF449D04C0827D363FD1862C3FDBF0ABBF59EF913F312543BF6954D53FF2094040DFCA9CBFEEB7553E59FFFABEC070363EFC86193F6FC3AA3EED721C3F10AB98BF53D38DBCBEA14A3F061699BF571BC9BF11232BBF9C55DB3F521597BE2B6D8ABF92F6B9BD29418BBF3F183FBF852F803EC9C4ECBD3C2E02406D45193FBD0B3F3F4E82963FDFCAD33F2EACAE3F9B4171BF66A089BE15EFFDBE236690BF8DD683BFBD15FD3F5DC8D1BF79E314BF8B30E03EF43746BF1B6162BF9A86903EDDBD2A3F1A70643E99103DC0C21F08BFEB2B96BE08758FBF2ADC6A3DAFE16DBF0C1BAB3F103CD1BFAAA708BF68A7923F0C2FBB3DFAD1C33CAE23443FA2E054BFB00A8CBFF75618BDFF9093BE5FF76E3C9BFD273E0A414EBF6E14C2BFE485933F4371373EC7FD8C3FC9C9B83DA033B73EB48207BFE3409ABF969F5B3FB6828ABFD7E00D3F88D4883FA03D913E62418A3F7D94493F922D7EBF673DE6BD0703953E6F3B38BF94457A3F5791F0BF39DF113EEA95ABBFFE3F383F10B7C2BE5AB303C09BBF5ABF3C873CBF12BBFA3EAFE4E8BD09E71F3FC51871BF588D9E3F97006ABF975CFE3F72CC2B3FB95F7A3F554DF7BF1BEAB63E29C3523F521246BF7F73393F1F87F3BEB4B2A8BE4C0CB5BE791AF1BF11DD8A3B4A07A93D79DCB63F12AEF23FD50496BFA80867BE0CFBB73E13418DBE6158E8BF3BB50B3F39E299BE4699AD3E72C7813FB2CFEC3EDE50393F4633AFBF2ED2E6BFCB3ABD3EECAD003E7DEDBA3DAA999DBF53D6FE3D9F08133FEE266F3DE141E63EFB4C163F1803613FCFD733BF240D17BFC7DA733FBD15393F1D7B003FB61C4A3EA06F973E8621633F4287BABF9558E1BC03920340F4290CBF7BAAC33F342BE33F860D003EB0548DBFC172303CF511033FB0689EBFE08373BE011233BEDE8CBC3FF49270BD4FBE2740CA8A1940B5CA20BEBABE3FBFDF9ED0BECE55483F4D81A53F0194B93F125B26BE8D10EC3C47C5213F7861C3BCE8368D3FC489673E60BD86BFA9AF05BDD67EA23F3926A2BF3DC9B23F7430A73FC2D4C83F61ECA83FD0D90CBFA92A483F43FEA03FFB6614BF74F8053FD1A5883F23D2F9BE212CDB3E28CB2ABFB98253BEC0BDD83E839DDC3FAD63CEBFB3C0F13FF0A6A2BF27EB163FFBC82FBE068954BFA5FD983E0DBF64BD8CBC8A3FECFA71BF4B170DBF678D393FF49FB93EEBB3EB3F7DFF083F4A642C3FF54C5E3FA7B777BFB2E6ABBE67BBACBE2F1D2E3FA1999B3EC80CC73FE644FFBED481B0BF5A5ED7BEF85718BF373A20BFA6A4B5BFD4D22D3F5134D2BF503A9D3FBE4619C0A7DA12C0F259943F67DA9BBFD8CE3ABEB36673BFCCF18ABEB1F1553F5ED3043E2AE2E7BE1A2DC0BEA3A2313D0D671C3F237C71BED92B27BF300E533EBE90F6BF63D5DBBCDFAF823F96DC4B3FBC96AC3E22DA55BF81D4B33E143A8ABFC53EC23F75E0563FF1AFE3BD7CF2BA3F79C4DF3FA3D94ABFC26A9CBE4DAB923EDF2257BE1FAF21BED405A23F9AD1723FA575643F6C1F123EC0C715BF8BAD8DBFED0EC43F4C8ADC3C554C36BFB613224008C4323F157FBE3D574164BDC769383F352C0B3F135BE53FD0D8E9BFD8878A3F1BE1103F25E1D63F17E5EF3F5007D7BE6EADDFBEE74AB8BF30564EBF2E8ED3BF5A500BBF940ADCBF6C142DBFE1D1DEBDF6AC343D49227EBF8FF5693FDB34C3BE07F0F23E2FF9AEBEE7598CBF30F030BEFFA722BF6310393F27240CC015C0A43C5CCDD03E45B10640545A26BF378C543ED0D802BFA51805BF1D73D3BD92874C3F244919BF947D4F3E13CAD8BE2CE61ABF00218CBFB3DFD53ED5473BBDCDF4C2BF723D06C06F5112BF75C085BFAD6701BFFC363F3E15D697BFCFE581BFD4AAABBF3573D03EB9A34BBFA6C58CBF7E4938BEB3E5633E605C6B3E286AFDBF17D7B03F0C7A88BE613A2EBF83329DBE8C84D5BE12E9C03F39D70C4034CEF93E0166CA3F024B133F49139ABF69DEA73E1579ED3D56EE57BF5D565FBFD47F913F26E7B13F2FAC73BFBFD661BFFF45973F6464113FECEE20BFEA270D3F74D638BFAF67983E7768D83D8AA7C03FD69AAB3CCBC12C3F453E55BF332736BE58B812BEED12453F32B397BF2042EE3FF3C33B3F83C2ADBE7F73893F857BEABF36115B3FB6FA6FBFDE1F7FBDC5C8A0BE909A3B3F0E63CA3FFADBC53F8CF3A7BFE9A3303F77140FBFA221433FD1A2BC3E5D8216BF3423013FB92B3EBEE84738BEDA885ABF724B933FB03BDABDBEB18F3F4643F9BE130DDFBEEF10033FBDF51D40E2667ABE503A36BFE73A6B3FB165D9BEC51DAB3E1430AD3E314BBF3F47447BBFEE4126BF7CA27B3F09AF3B3F055C52BED9C0263F3362C43F28E56EBFE9DE3DBF533A8FBF95E0A6BF4BC6EFBE5EF81C40EFA2FABCAF2B083F12229A3E00DA46BF632432BF6D30DC3D58B7983F0E5889BFC819BCBE4E7BDB3E4264E53D1A6BA8BFCCB39F3F1A0FBEBF78327ABF29AA1F3F1E47593F64AB9DBF87246ABE7CA5383E8FBF9BBF86887DBEEC25B1BF23FAACBE7057223F621317BE6E381FBFF2C80E3FFF2A83BF6623EEBF8ED56ABFE8513CBED50B8F3F1E13443FFF06F43EEFCDADBF6507A23FF4A1363FA0E8803F2FBFCE3F1E62473FB4B288BE73A2263F4713FDBE8C8823BC97FC03C0AF5249BFB72EB83DC09AE63C9ED280BF9D5EB23D803D30BFA15499BED52D02C0938E673F3AD7A13FE87E77BD84964BBFC552C13E6B24973FFF785B3F3430463FE134D43D2740A43E194FCD3F71C0013FA9F5783F143ADBBE815801BF78C5A2BEC5AC16BF744DCE3E1762E83F48E71BBEF080283D3A90273EC67A683F2DC54FBF818DCA3FC5031DBFABC2033FED8AFE3E97EDB3BE471A12BFEEB30A3E0544B53F32DD2A3E94041F3D8068643F9917CDBEF2E0CBBE4A479FBEF8B8AABECC03123E024478BFE6CFA2BFF73A16C0002506BFE508513FB0B2E33EA16409BFE2A6ADBEE58293BFEB72993FC0514EBFD1E43FBF3C87C9BFE53D5E3F708B04BEE58E963E18569EBDCD5A05C01D0E8BBF756D85BE94943C3FFE0476BF7D26083FDEC069BFFD9E9A3F875E543EEDF5743F7D081BC0613F053E5BD4C03FF1A1153F7779883F45E7B9BE26E28E3F25E88B3F771134BF97879C3F90E7873FB81A0940C2E89DBF41395BBF5255CB3E72D7B7BE02A0F83E0B89E43F6386FCBF27FD623FA733E63C0CAAD4BE690BA4BDEB11D1BFD8B1F43FA5983D3EB238B5BF233A75BF7FC9973EB1CE843E2AA5493DDB75CABE589B67BF18F9F33F63771E40370CE6BF24FAA1BF069320BF7767ABBEA988513F427BAA3FAC15DBBD57D73B3F68494E3F02F321BF37E6AEBFA237843E04E41DBCFE618EBF7A253DBF2733503F9974D83FAE42B6BF6069E53F316D1ABCFE94BD3D0FCB133FA6D66FBF1DECAABEADA0EDBEF40A003FB0D8663EC181073C68EABE3F707D963E1BD05C3F316CE9BD641850BF188F83BF30D7A2BD1BB6A23EA75B0DBF69E4673D2B3A20BFB2E11E3F3C15E03E2DD0423EE46517BFB098223C852F61BC42662C3E74A094BF20EBF23E3107E03F659D753FF86B1BC0882601BE373D4CBF25651CBF41E8B8BF1F70CBBF2EB60F3FB858B6BF0B0F813EF7B7AEBF1A370F3E86A04BBC53C8C5BF304B96BE91A54EBEAF879EBF6F88B53EE38D063FBE71FFBDA873E3BEA35BF73F3DC227BF76BC39BEE4D33F3F3F2B7EBEE0896A3F9E0346BEDA757BBFFD78463F8939A0BE9D7B2240711CD1BFFF86883FA61ADCBAA65BA5BD5F16443FAE77043DC397BDBFB60D423F9DD4C93F6F8E2BBF6EE192BF711DA7BF8E107C3F262E663FA833E73F0A5CA03FDF4D4F3F0AA8EA3E3D93E7BFE5EBED3FAEF6FB3F17113A3E22326C3F2DDA1BC0E16A9DBFBCF79BBFF3E1AABF64B25D3E738F7BBFC09D70BFB223FB3FF9477EBFA589553ED35334BF2875133F2A1FCE3E589489BFE0A2EDBEFAA832BF315103C05A10B1BE9AFB0A3F2762933F22FF88BD241241BEBB250F40824FD33F85B7C73EEDAA843D5C543F3FF0E3B1BF410C7FBDF250823F6E6449BF25112E3ED6A769BF6734003F068D13BF4537ED3D5BAAACBFC40BBFBE0440EFBE97032DBF524221BFF35D0C3F9ED7863E4F18D43F7C18DEBEF7240A40726F13BFFD6091BF66687B3F1833A03F2FF0673F6CE5BBBF27B1BB3FA5060FC03B97BA3FD2A840C0309A3F3E7E29D1BF6B0A0DBF05DE71BFC487943F3BD999BEDAEDA13D00C8A0BE226EA8BFE47E31BFED39B7BFAE8DB4BFCF097D3E069E89BE11BA9B3F136E12BFD269493F3FDF5BBE5A784F3E80FA45BE1FD9643FE951033FF5AEC8BFE9F95F3F23E5C1BEB6B33CBE847E84BE5DFF46BF7A8D023F8AD2F2BF84583EBFD664163FB5BC47BE1482A93E31E5533F39681D3EDAF77EBF212F9FBF9FE3913F43024BBE54907EBFD534BD3FB8A45CBE35CF683F9BBBBA3FE7E4B1BF683BCE3ED842A8BEA75F413EEBA85D3FFB3B873F61F93CBF3EF571BF95B4C83DD1EF3CBEB3BF953F2CB9D6BE4B2A57BFE4410E3F9785AE3F5D31AE3F9AC4A13F2AC7A8BF462312BE14770D3F767ACE3D0B2203C001C7EE3FDDBB423ED7842FBF0A27C23FEC67213F1942913FDFAA06C097353A40D3F8783F643BF9BE76DF983F8DCB27BF033D1F3F61E809BF1FDBBDBF9C679C3EAADFAC3EEAC36FBE61B51FBF67082ABF29609B3EA97D003C39429E3D8B831C40674CFEBF2A29653F8CBDCEBE169FA83F459511BF35348DBE5C3EC03ECAE6FABE80451F3F2FC8CA3F08B61DBED719E13C3743243F0BFA89BF2FCF9E3FE6CCCE3F852BACBF9FC681BFE4FE18BF5C2EB73FD78D52BF6C93E8BEE860573FAF7B9FBFAA73B13F88A7A03FEA5208C0213FE9BE9A1AB93F1FF96E3F86A2CD3E1E66B63FEE2D27BE8FD381BD8D5848BF8AC39BBFA36201C07E82B43D72B723BF4CA7E6BFED534ABF309E77BF95F2553FE2D7E2BF05A56ABFF1A412BEAC9E4D3E94437E3F10C90EC0F8D150BF09D7BBBE2121FEBF8125E73E102494BF8469B33F7CD22BC06E3BC43E83E78EBF78EBD8BD35F4853E1A18C93F497AB6BF6240AABF1E58F8BFBE4C263F901EB03F8D608E3DCA2C9DBF0F6C88BF9725BE3E9DE9D23E43B8EBBF162C8E3F754130BE31AB6BBD942BB8BE1E0CF13EA2D20EBFFF4368BF2A4355BE8E64693EF68C543F8FD02DBF3405293F8F25B8BF04ECDCBFEC1091BFB74A3ABD05E73F3EE9A370BF29CFD73FFC4F713F8EA252BF693A92BEBC7258BEDB864CBEA2A89A3E6A5419BFA84878BF95140BBF7AB32FBE3BE536BF74B11BBF55AAAD3DCA6FEABEE788F63EF85ECC3EC6BC9B3F0FAA2A3FE1269BBFA7EDD03F6E1106BF4258A63FEA6613BF35043BC0D4C79DBE69694C3F6369D53F5DD61AC05622233FC8C6B7BEEA08573EA2D90CBF9905DA3FE77CD83FEA071B3F109F86BE9571B5BF1C8078BDB02DBB3EB684B7BE30EEB0BE0E1FDDBFB3DB013FA1CCC33E60907D3D976F9DBFFF03F73F5BD52D3F6E4C483D0558E63D90D5A63E4D76BCBF98F429400EDE36BFD6D6933D3683283EBCEE8C3EB0509F3D0896D6BF7859243D71A8533FE87B4BBF0ED3C5BD8E560EBFDC9E104017F90ABEC359053F1CB6F7BE96C25BBFF344B23E04FA43BE53850840DFB41D40C0FA1BBFDBAF15BED64B7CBFF109D3BEFE47103FE0DC6E3F817348BFCEC6543F748B87BE4C7108BEF086B03F58A10DBED394F53E1DDD8ABEE1C4363F194206BFF68D3FC0E5AA1C401A968A3F1C9FB1BF0B73853E3086843F852E6EBEC80EB83EFCE431C062FE893E341AFBBE51E221402D274D3F98695CBF4A6330C0611B1C3E647FC03ECD23AEBD42D13ABE6F10C73E1F64C3BDFEE2BE3F2585613EDC962E3FDF7EEFBFD604503FF93C993F2350AB3F6E172A3E2F6B67BD1ED2CBBFB126363FD09780BE854F2DBE4F80CFBF101FDA3FD8FD74BFAEEEF83E1D2972BF635F0DBFFF344F3F2424BB3F222B6A3F346320BF877C2BBFB674DFBF3DAEDB3C51C99EBE28FE8C3F4E94D6BEFAB3B3BFAE280940089FC7BD9FB59DBFDF4B3C3F04EBBD3ECB7A593F1FF4D2BE9326953FF55B823F75AC833E6F34723EEB5227BE8EC4283FB296B13D8305DE3E7453953FB8B21B40E498943F01A0FE3E6D9F9EBF3FCB64BF199201BFD6A4E73FCEBD403ED609D4BEE3F1123FDC49263D786FFB3F163AC53F124A683D4EC5A0BFB400323FE768F7BF3A1BD03F93571A3FEC433D3F36CB0C40D8F7A83F921ADA3D009BA93EA7C8EBBF6E34853EBFC76B3FB7AF9CBE1A1206BF1DB6F0BFEB21C23DC942403F1FE7BEBF4B66CC3EA306473D74C9493E08A6B43E474F043FEEF26F3F8134EEBE515762BF90EDA7BD8AAA043FD5BD8EBFBAF7D43FEC1AA0BF62714E3FEF5D58BEEACAC5BE850FA33FB847CABEBC9A0CBE195FD9BE676667BF80222040FAC1263EE8DC2F3F086AAE3FCA94394059DB4CBFB699063E7A85BB3DD275713FF6AE85BF1BE985BDA400BF3E6FE403BF2240EC3FB7B75D3F1E4128BF625CC5BFD8BE44BF4AAB903E28B4B8BE5B7CA2BDC85AE83F58E58EBD80C7113FF26ADD3F32806BBE72CFEB3E6533ADBFC7CDF73E55B881BF09FF57BF34342EBE8AD90FBF9B4A86BF66C32A3FE35B8BBF39C2693FF1FA49BF986F0C3E00DC0840A1FC383EEF43CF3EEDB60D3E7E1EA8BFB824C23FD88B15BE04ABC3BF8E65AD3E83F2753F057AA7BFA683ADBFD80F533E13854C3F29AC4E3ED80EA9BFC677943FE66A9B3EF7CA4B3F58D32B3D205D433FAC51B83F0C38533F06F099BFDEC23EBEC810E1BF21E38ABFDC1894BF93ECF13E3A5A6C3FADDEA4BECC98103F3FAB01BEC2C63D3F8868A7BE987CB8BFF7999DBF928B513FA9D7D9BFCB28293EFCCC2B40D9FBE73F141D753E41426CBE2E0CF7BF4B670B3E57E35D3F66C1F6BDF182603FCF361DBFC3B4C3BFE901843F1D8A8ABF958920BFD5673E3F72D93F3FD91CA73EA2064ABEDDD2ECBED034C63E3F07B03F62842ABFFF68FABF076718C08B36BA3E5DFC353FB821533FA398CDBF1DC6A8BF6A97273F897C963F326A9A3FEEC6543C40EF303F754671BF7F2540BFB111BD3DACBE193FDCC8DC3F082202C0189E0840FF1932BFCA9670BF17A1893FC44C22BE1AFA533E80C6F4BF505EA03E435A70BF64458BBEAB01833FDF0781BFF5B5ECBEAFDE31BE7F9C11BFA10B9BBFAFC8ABBF0D1C2BBF0DEAF23D32FF31BF99E029BFD90F953F259C6ABE6E4797BFF977053F56F88B3E61125A3FAE4021BE2617E2BD13D50F3E60B6EDBF62781FBFD1B346BE4A0E9BBF3BFBB2BF0F8739BFD96D6A3F966954BE3A6C0DC086DBB2BFFC67ECBF2411CD3FD4EC043F1206A6BF764176BF4593C73E4C09033D2325403FD49FE83F06B301C04DBCB53EFC50CBBE0D8001BFE0B1943F4A5AE9BE7C0E0D3FB268B53F4CCC823F7E4B24BF3916963FE32003BE5A1A0E40DED2A5BF008F95BFFE99533F0A3B3F3FD0B844BFC95AAFBFC6269D3F694174BF7447E63DAFBDE5BE09BB0ABDB6E95EBE08C504BF8D20AA3F3D994EBF28DCF8BEA09F373F8B02DFBEFFFD463EF8A30240CDE85EBFE57A03BF1A45A93F2C211ABFF2719C3F696D883F526BAD3F60818E3F156532BF312CA13FDCBEB5BD26F295BFCA531EBFF88BD73F0B27BE3EB87C8BBFA87AB33F5A627C3F73F98FBEDD0CAA3FAC7A18C0CFE410BF6EFA1B3D6C4B413E13C57B3E04F852BF2AAF243F4D052D3F53E9B43E89C18DBFD8F2AEBF145D80BF9D0BA1BF8500793F4703BEBF9493B93F4DA9E0BF342FC93F66875EBE3B445C3FE9EBC5BF283C8E3E3A064C3F3D8525BFDF0B3EC06BF68FBE455D87BF0ECA1F3F1A7C9EBE26E894BD9C1E813F4B04A3BF3A8383BE8DC72E3F4B37F03C3F5E58BFB1955ABE93CAB4BE2E7B5FBF87596FBFB9A0D23F53C2E7BF2F11F93E2E705C3E15DC3A3F0069253FB8DB8C3F616E873E7BCFECBE052E32BF5F6F9B3F28D4C8BE8DD5D23EF180A33F06A7453E7E3EC63EB567953F9A48803E326D1ABF7EEDFEBFD2389ABD2CDAAB3F1518D23F140E1B40F236ACBE1D2C07BFF44340BDBBF195BD6858C33FB40B66BF0C3C54BE277C93BF5488083E81ABD4BF2F48B13E8D3C8E3FA61B88BFED4652BFE0927F3F5631A03E977ECFBF8FE60740B77697BE87EF293F82B2153EAA7C033FF294903D054B7F3EF8A24ABFF50C823FDA81FF3DB4553B40BFF05C3FB864E23E0A1BC7BF95D026BF7A631140FFE78A3F3619E3BF78503FBF69EC4CBF995A703F288E76BDC59981BEB117623D05B2223FDC8BE63F4CB586BF2F9B20C0C5A4023EEF258B3FDE6B17BE10DF533F9BABA63DDA96B13E74795FBF617BA93F6F798D3F86FE84BFEB66353FDE4935BFACB63CBE5315D7BE4C51033E4D42B93EE0A6C23DB11E18407D38CBBE033745BEC4F6E3BE8D0E7EBF9B280D3F57E462BFF99B943FF5F7173B3A45773FCE1F123E5361E9BE9003BDBFC5789D3F9E8A58BF49A330BF0B0BD63E6A3C98BFE16407BF3BA7C9BEA9B33DBF4E21993F37B9DBBF1D347A3DE4DB9FBF7B22863F71CE73BFB044FCBE685EA5BF1C5532BE36768F3EB4D1553E31E5F43ED15F5DBE944C163E252DEF3E4F66AF3FB446E73E7798D6BF77F9BD3E560EA03F9E53C93FB55705BE6A25903FB12022BFFA0F2EBE980F58BFF05CEE3E99F0B83E9553A83B013F9F3F5058DCBFC667033D3374403FFBA1D3BDDF3727BFDC482CBE3727A0BF76BF7E3F374A2DBD63D98D3EC1365F3EE7BF8EBFCF42713F28066E3D2777BCBFC18D9D3F3C37103EE617E2BCDF8724BF8E74D03DC53C533FD6EF79BEB96D703F97F1F3BE3BF7ED3FDCF30040B20D60BFD9DA02BF3960243C6730833F8306A33F30C7DEBEA371C43E6D7220BF35A4A23DB0E0EBBDFD02EEBF63640640373D5DBE6E8DD2BFD41410C0BB8941BCA6E7743FB6A7803DD97B153D4DBDEABE66DF0ABD294D553F81707F3E38D727BEF83E05BF5DEA89BDD92195BFD67842BEF60A53BEA05DE4BF0ED9683FD80C80BE3A29DA3EA0C1B73E9AE4833FDD864A3F26642640C59E36BE1F5794BF0B2CFEBED8AA953FEA3EA33F2BA7623FB2DB943FA192293F4B36BB3F96B2FEBDB9F9B0BEDC1F2EBF4046AA3F6673BC3EAE79C6BE6B6786BF2115073F4BF64EBF16FBB43D8FC1C43E567A433FFE9D7EBF470F48C01B3A803E4771CA3D04E4963F54C5C8BFEEA732C07CF5473FB636A23FE51B68BFF685FB3F236FEFBFB66BE1BFE945013F543A4BBF8092A2BFDF5139C01E7804BF065CE93EA5B9563FCE3ACBBF48E8E43E2CC7503F972317C06C3C0C3E1CA8103F5A0EDA3F5C3FA3BEF11CA5BFB00685BF8A5C38BFD8C8D9BDFB7E823F22D82CBF0541FEBE1EB49FBF4C4B0DC08ACBFE3E1924523EA76C4DBF512BDCBE8EBAAABFFD0AC23F101E7EBE65CF2CBF49B5B0BEDD459DBE9506263E87FEE2BF21F2C43E70E497BFACBB40BF8E72FF3F6179A43F627CA1BF0AB4113EAB1FFE3E2883643E776EF7BCE38F7CBF06529A3F4687A1BE8F097B3F1E720840C555313E46538CBFE38E493E892D9F3F9C7A753F148D0B3EEF401ABFCDADFE3C21420440B5FA86BE16BF613FF6CE06C07FA35FBF20A1C63E09C13D3FF1C03E3F9C948F3F10B8AA3FE6FC94BFD4EB7E3FABB897BF629D5F3FE0A61ABF75C22C3FF2C5AF3E503CA33EF568B93EE65D99BF7624133FC00963BF2B80F5BEFE6506BF7D1CDEBE8FFD9EBF4965043FFE289CBE"> : tensor<64x72xf32>
    %cst_0 = arith.constant 0.000000e+00 : f32
    %cst_1 = arith.constant 1.000000e+00 : f32
    %cst_2 = arith.constant 5.000000e-01 : f64
    %cst_3 = arith.constant dense<[6.703220e-02, 0.104448363, 0.0631741956, 0.0677050799, -0.0174014643, -0.0663617179, -0.00589189073, 0.022970356, 0.113493748, 0.11261826, 0.0228436626, 0.105973616, -0.106751435, 0.0386161245, -0.0789146348, 0.115564227, 0.0269080512, 0.0380272754, 0.0981818586, -0.11661692, 0.0952471122, 0.0261932965, -0.0720337406, -0.105512403, 0.085692063, 0.0705991909, 0.0243967734, 0.100061722, 0.0164040867, -0.0253717434, -0.0124941245, 0.0927511081, 0.029316308, 0.0104079396, -0.0399935804, -0.0645783171, -0.0830064639, -0.0984226241, -0.0964131355, 0.0522366352, 0.0226517264, -4.197180e-02, -0.00896108057, -0.00547851436, -0.109420709, 0.050350327, -0.0735492557, -0.0295735728, -0.0602790117, -0.107894629, -0.0244922508, 0.0865750089, 0.0208764728, -0.00179528713, 0.075779967, -0.0271034017, -0.0743467286, -0.0103150615, 0.0298195705, 0.0362810753, -0.0891888737, -0.0437931046, -0.0367049165, 0.00164808228]> : tensor<64xf32>
    %cst_4 = arith.constant dense<"0x3FB345BF20D309C0DAF202C0403C9D3FF9D4CDBD7DE8A8BEB8C404BFFD1966BE3E1DC23F31318C3F2B4FAD3E533E92BEED932C3FB5A30C3E593B8EBDB0C4EABF1807A23F18192DBFB35D3C3F8D718F3E337EE13F19C1A03E59ED78BFC01C2EBF5CF9C5BE8084B1BF400BE0BFF425D53D87503CBEEAEFBABED1CA8ABE3C57623F6131B63F335357BEB225823F0D8702C07F50B53FACAC9B3F29D3B83F5BA0FEBE3D9E8EBE12D5023E55C80C3FB19DBC3F05B5913F404C513F95C516BF89367CBF9AA445BFFCF4BDBEDD5D383FE49F37BF4AB55A3E5819163D00643DBD41ACD83F9337193E758F22BFD2E0D6BE5F5F4EBF587C2D3F6487863F235722BF7E9D703F88329D3FFA2F65BF6EA99CBE2B39AD3FA3CEAE3EFC1AD1BF87399B3E3A25DD3BD8DF3B3C26623E3EA40690BF18C753C0195A4AC0FBF9363E5A6D52BFDA7777BF684F39BF7FB5683EBD31453F033181BCD576D03DFEF2BA3F956C303FD2FC063EB6B716BE2E19C7BF9A52CC3E9BA111BF4DD8633F6195E03E441C2CBF08A6193E39017DBFAD57A5BE6095A73FBDC3DBBE2B4C4F3F3B5D6EBE3762FE3FB1DD8D3F8033C73F26AA80BE5D242CC0C49AD73F4ED8B8BE479E38BFD6EAC0BFD12A943F35702940C762183F6B7E4ABFD3C7A4BE8D4B913EC59EC03F1A2288BE730825BF3C9BF93E05D805BE931A24BF9319B4BD3A6A8B3FF68A623FDF179A3E0DAA063F0C4C91BED7EF763F4496ADBEE12505BE072B6F3F63E987BDF312E73E9E8FC23E7781C4BE52F1AE3F9D8307400E9B323EB7866ABE0765583F865AB3BF91C2753F975380BE0268303FAF26C4BC5544CB3E6826C03FDB7E343F89D882BE5955843D1ECDB6BF358A2C3F7D810A3E18A370BF7C3ED4BFAFA52FBF8AAD7EBEFAC016BFB7242CBE0A52C73F14E70C3D0117193E71FED53E056F173FC729733FFDFCCD3EC2C74C3F0BEEC93EF568FC3EEB90DB3EC02B2B3F5CF28C3EB93CC63F60A054BF591F78BE0D7E2BBFAB8FE33ED39CA9BF5CB35F3F2C40F0BFDDA8B83E9575A23F881DDDBD0E5F9FBEED6CB7BFE1A1913F179CF6BED7B179BEFF3D513F9270144048051E3FDDE18A405517D63F7076AC3FC8B89D3F5E61A1BEB85EAB3FAB1A463FB89DD7BE9640F33FF3FFCC3FA1F009BF3820D63DB82051BEED1631BF2EF3C2BDFCD88CBF438BFF3E0989763FDD2A1C3EB63801BE1F166FBCE911A5BD81E4ABBF4F52443FF6DAA63E38E9D6BFB91EECBF4CAFBABFC0269BBD4A8A073CB2CBBCBFC67229BF632D863E02F92CBEE57204BF5EBB853E0590A9BF0C8404BFA7B49ABE247EC03E31CF4EBFBF48533FF3079FBEC3EE23BFD19CD73E67D2BEBE8774B9BEC2AF843F18F4C13E2F47FC3DD433DABEA38440BE39D38CBEF1DC203FD31AFA3DDDABCA3D7814F0BEEE781ABE28AED23F0864793FCEBDF73F3F39D0BE9D2554BF8CCCCA3F532EA43EBD11423ECD088F3FAE5ABE3F724EB5BD0D7EC0BE7C2E1340A1AB073FE57E943E8D7FDEBD9C27D93DA7EAFB3D4435CEBF615258BEA783113E1553D23FE9B29B3F90687BBF943C4CBF9415DA3C3A65383D92DB76BE390F253F9A7C90BFD55C633DAD7A91BFE2B43EBF79C2993E3C63893FB1ABEE3EDFACE33F285963C07E0AC63F0084EEBC6F10C9BF38D1D13E4B83FA3E26EBFEBF96D424BE63FFA73D2A812F405064E83F8D68AFBFDD5EC2BF4E09E4BE860764BE8B5B4BC02163A33F43974DBF40B7EA3E2560D3BE21F127BF1F45FABE7DE377BDA78F3D3EC074A9BE54C5373CA86DB63F7E9506C0A362873E0BF1053EF1EE9A3F5F76C5BF3D6152BF5856D83FE70C89BE1A81823F11A9B43FC37B52BF939DD0BEC04F24BF841227409A4C8ABDDB54953F2DC7313FC9AAD5BF519BE7BE8A45A03F638B6C3D2120E7BC3E3CC83F8C99733FC36818BFF85931BF1F3B34BF06E498BFAEDF043D4A263B3F6EE2AEBE3119C3BED56955BDE6E60DBD5285EEBE0DE91DBE9AAA003E41F90B40B8F0ACBEAF14A03F966106C047BB2CBDF3C2BEBF0DB4913F930D5DBE9B64C2BE037A38BF8B8F97BF2441203F4CA6024068B92DBF79441DBD1BD2C03EB1BF49BD1FE1CA3D109A343EC42ED63E374B843F6C3F243F440A313FAF6245BE36D2CF3F2258483EDEEB173E431F823F63A55E3E26BF84BEFD81A13F328C32C05E5094BF4428AABD4DE78BBF62C782BF8F1457BD54EC0ABED77B663FD3259EBDD1E811406984913F4CB0CB3EB97EB03FF85FFDBFEFD6BCBF432FC9BEF4F584BFF041AC3F9DC83CBF85FB0840FF4A053FE40C303FA12F8D3F652D9BBEDC4517BFE935A23E19BE9D3F5570EC3E69A39BBF4F21623E7E43BEBF788DE03FF46A01C0BE2910BE271D9CBD85AE963EA1DCFE3E0909DBBE7F3B55BF23E69BBF337F883E9783CEBE8DF9EC3E1D4A133EAA6E9BBF6C84B33FA04FCE3E9267F9BD9BBEB2BF1A51FA3E58038ABF4AC2B03D437449BFADC3B5BFCD8C8E3E10E807403469A7BF821BA4BCD97638C08E47843FAFB2CF3D44691CBE9A94CBBE57309FBF862E313F6A80B03DC2F08E3FA40A26BFF02BD63F3BAEB13FAADBC3BEC12DECBFCC8ACDBDA32316BFAC74E2BCF962213F5E818ABE5832A93E8B1C63BF19C4453EAFD0EABEC02C893FF7152DBF1964B93FA8A7BB3FBBD76ABF5861A93E54505B3F260095BF58052D3F5E3CE4BF358DD83F2A532B3F88813CBFC928663F2C0EFB3F8AB0963EF75A0E400F46BDBF2189433F8E550A3FE9E0AD3E189A8E3EA4BEC2BFE88160BF04FA97BED7BC1F3FD909AF3FDC059BBF1231C0BE7679A93EAC34B03F9D040CBF1EBE49BF9608F43E42AD093D828FB0BEB5C4CBBEBE4F2B3E1589A33FBC3F363C1F17273FEEE3553ED9DBC33F0A18E6BF00C226C0CFE169BE797E1DBEBF2657BE6484C1BEC42C9BBFF0D5A3BF796F083FFA6377BF10C5B2BF7204F0BE648D30BF13BF063F5E8ED33EAF2058BE68B69B3EA5FBA2BEBA3413C055F78E3F470BE1BE8906D5BEC49F4B3D264843BD903B663F4C2910C00B45C33E622D6D3FCE542E3F1FC1B2BEE7AB253FC637193FE76E2E3F7ECB1ABF0278D8BEE0E564BF19B57CBFCF932F3F93EBA73FF02816C050E5BDBDB421653FC7F27BBEB907983F727FB8BEA5B132BF2451F53E94270E3B5895843E72A0323F2FEB8A3EE0E343BF634ACBBEBD75733F08FC0DBFCACE9A3FE56A663E999FC7BFACDA70BD1E50DB3E61A7CBBFB9CD37C00CE2E93E29E11A3CA3AF97BF086673BEF06008BFD0DFBD3F28E29F3E7305D33EF0835A3F12E899BE85BE8DBFEB7FBF3F17AF283E3E56ADBEDB7E8FBF70F708BD5F9C19BEB613A0BF45C1E03EF40A863F1BEBA6BFEE28BB3FFF2B863F4DCAAEBFDADCA73F1572C9BEE6FDAEBFD048EBBEC51189BF6FD5E0BE3F0BC3BDC35DCE3D28375C3F363D643FB0F08DBAAFCD493D6E4CA33F76719CBED4AE3C40253F0740609AD6BF0CD0A0BF465503BF5498C73F0D0E253F67AA533ED14857BF01EA253EE608D6BF8F17C03F494080BFA3F807BF9C182A3ED94C403E5083C6BFABAF8D3FB09AB3BE261CFCBF0997C5BE4967B33FB68D163FF8880F3F6170363E9F147DBE256BF9BE4F93933F987BCABFD2327A3E0BBFEFBFB9F96ABDCD2DE8BF0D0C0DBF38E0DF3EF03BE93FEBDF18BD230325BE2EC74D3E292522BF7DF13C3F78A707BFA15EE6BF3B5CC43F1C7309BE5EBCA73D1439A1BE5BC54CBF4334B03FD1411DBFC0CC2DBF7C82913FAB44723F6D420AC076A8AABFB9D60C3F68AC033ED30EDB3ED37CED3E6C180C3FC6601CC00877EABE76003A3F96438F3E8D4CD33FF296A53EFDBA9C3FADF121BFEC546A3FC84EAEBCFDD5253E3D1BF7BDA3A8E8BE130E193F95AD2ABED243DABE1AA7B0BE6B3356BFCF4A143FE5BFF5BE8F5597BFE1746DBF22C5DCBDF692FCBF4475843E5EBF98BEDE225A3F19555040768F5F3ECECFCEBFA6DA99BE4B4B38BF4FB28EBF1624E9BC0C0136BF4CCCD1BF9D7FEDBDF5F05BBF091D36BF18A67FBF9C699B3FE7DF7EBFE61AAA3FDFEFAFBE3B90E33E32D21F3FC57704C02849C1BF9804233E6EFB273F4E3BE23FBEEB153FAB44A6BF34170BBFD19E9C3E320E873DF085AA3F5C1F6A3FA453F0BF569C25BFD28D573F8162B53E0D7E3F3F0CA9B3BDBED59D3E168AE13DBC94823F22FFE53F13B078BFB12D9A3FBD3C40BF9DA6223FE1EFC73FF95C903F16BBB3BF7A43CEBEECDBA13FEC417E3F54410A408EAAEC3ECBBB903F2E93F8BE3DB86A3F0F74FBBD9C930FBF5827873F89DD693FC42E5D3F797D9C3F0D4A103F0F4F6C3FB083A8BE2ABD873F54AADEBFBDAE32BFEE4AA83E5617973F5595C43F9382343F100861BEB13EE5BE17372DBFA17DDBBF941D17C02E6F7CBF864C1CBF54F6A3BFA5A38E3EBBEB4E3F69F8B3BD992E9D3F6CA9ADBE2EE3FD3F33CD303FDC444A3EF0E3583F63A5ABBF8B269BBF8FC8DBBFB8E103BF1C2331C0837A81BEB58E8B3F81BE2CBF36B240C0336041BFB2595D3EF850FFBE0F5CF83E4769933EB714A73E07160ABF3DEB34BF61BBD53F8F45EEBE4225AABFA777F73D7CE405BFDA5E0A40503CDD3F964F3CBD41C6DFBFE24E883D6F2AAC3EBFD29C3D63268ABFC42A74BFE8DBABBFAC2F33BF913BE03ED43C55BFD16FC6BE135AD2BFB5E0E63E5BAED2BF23320A3F3340DABE617D7BBF59DC253EDF31833D3B0DF2BDCF210A3FF232913FE06ECB3F91EBD6BC8C8A05C07E3007BFEE1FDC3FA78887BF630A6DBF14A942BE80A8BDBF23A7CBBE8FB4403E916FA43DBC5BDE3D275D253D427F11BFF76168BF0684A0BEC90DA23ECAFE4BBFC2FCE0BF832859BF2742DB3EE940CBBE15F2C53FBD4968BFFF3642BEBDF2B3BEEC04253FC5E535BE1A9BC3BC7461DB3E69B53E3E46EFFC3F69DB4CBD9C0D3FBF2D09A93D2FE88CBF9EDB7CBFBD0A9EBF748A953F34C53ABE18760B405AD2B23F3550453FEDD1423FC18B833E329C923F362D3E3FC704BFBE715B173F73918ABFA124233D670A3C40BA89AB3F425AF33DBF8D1140BE4EB83EF2F70F3F5552383FB8F52F3E5FAA51BFDD7586BE135EB63F0D42BE3E31C07A3E869999BEF7F1A1BEEB6744BF8E3DC93EB771A9BFA0EC72BFD97E953F83D992BF13CCE73A083280BF9D77C03FE618903D02FECCBD887AA7BFFFD38BBD4AA79DBEFC08843F8990673E9EDF67BF052A02406BF8A1BFF3C891BFEBF23BBF35DA90BF3FAEE63D445EB4BEB12AFE3EDA1D04BFAF8899BF23DD7C3F34568ABF85F40ABFE57E273FBA67B03F7E34DA3FDD7ADC3EF12A5EBFD6168DBF0EC108403DEFD63E3B729A3E76EF113EF70BB13FE9AA073FF3F1A13EA65F213F512FFBBEAD1AE73F0344C2BEFB7D90BFEB3451BD5ED9413F0D07BB3F40BB233F718346BD18DF8CBF80AF1D3F0D9B16BFF5AE953E72B74A3FDE3D0BBD375FA2BBCD1B4A3F406BD0BF15DCBBBF1CA09BBF357DA23E6EB7533F48E685BFA7B62D3F9860113FBD59313F7E13B0BDB04CE63EB0BCC6BD71918F3FB078AF3FC5AC073C1C51253F03947ABF772D55BF1BE5D23EB0F9183FCD6AB93FF6927F3FB5D099BF3124133F0E7010406C0F0CBF8CB6553F59B76D3F022395BF35D40AC086638FBE2923AA3F353E5F3F1A4ED6BD0E95FDBF045A793FB8F8BDBF2EA631BF11B825BF2666DA3DD7548E3E7F8C0C3F2452AABE1D1264BF36EB9F3FBF95C0BF881668BEE824DCBD65612B3FB65C46BF6915823E3BB827BFF20C213FDC6F0AC0DA95B13E111253BE55D0FCBE49D670BF75AE313FAA4CED3EB550B43D8C5506C0CBAB8B3E1574793F660B4E3EA6F84A3F2541F43FBD3A1B3F873BD2BE8B93AF3DCA2280BF2C7B10BF79D7B4BF01576FBFBA921C3E5CB431C011970FBF6A1F11BF52C6ED3EFDA247BEF8FC60BFE59FF33DD1DEE63ECDC11CBFE6BDC33E003664BE1E331A3F369D423F468D09C0B4B5EA3E7C7B003FE608C13FE736923EBFA69E3FFE345B3F23DC5E3F82D206BE880E303FFD14FF3FE6833E40B35FA6BD9E64863C84010D4066B8EBBE13B1E8BFB9F3663F5E7964BF2E41643F4DA0553E4650653E47809E3FAFFF2ABF708217BFC874A5BF743814BFFF6D3DBF7F62DC3FEC1528BF30FFBABF571A0ABFD08F98BF50CF153FA52AB13F9413F0BE08DCA33E62051FBF522EC8BF599DC7BFFCDBD63DC9CF14C0DC48EF3EAC31D93F05B4613F315790BF45F6223CA77A4E40833264BFC62BC4BFA4B3544080630B3FE88E80BE04836D3F61C040BE5B95FB3F897FF4BF7ED92B3F3E8E9ABF8A3CEA3EDDBFF2BFC4F7DC3C72F1163EA1B193BE826495BF93FC5ABF3853963F2ABF0D3EB86B003FB3B450BE6C71513E9E61713C0A4BC33DD7C81ABFF8187ABF9E7320C0F045C1BC8C06893FC19697BF8D9E7D3FB05EB4BFAD2A0E3FEF0A19BFB8FF8CBFF286BFBE602EDBBEB0193FBF12DC1740B2A1753F4E9BA8BE469560BF3D431C3FB9759EBFAD15DEBE93163740A38D4A3F8D648F3D5F3481BFFC1FF63FD65005BFD636A23DBFB18A3F30004C3F2801A93E693CDC3EB742703FFB74CDBE5AE2DBBEAB4D033FA3C7CEBED1B54E3DC195E6BE984AF23E758559BFA83A0FC030C1F5BC5D83BBBE0FCE1F3F3031ADBF632DDDBF5554B7BE7CD3C33F33A754BF2C6214BFB3BFF13FD48867BD77A8C43EB997CCBD165C1B3F76CE3DBF759545BD0F22203F13CA4A3FD0A7FA3F847A6E3F0407543FFF6142BE752E6FBE1AEE9EBF00628EBF0F7BFABE0FD897BF5CB683BAD1FF01C0FD24A13E7B9ABA3F48AE4BBE27DF8C3F183927BFA46714C01B0B43BEF1FB49BF32EF5ABF26E3383ED40583BFAA2A0A3FE47CA5BF3774DC3F296923BFE779A8BF8461053E8AE84BBF31AB44BFFC13093E4B275DBD8215C9BF6A8DF23F180502C0D865D63FAB2987BF6840B3BF2B7FBEBF47F23EBF8519493FE8D3693E6CFF2FBF06D8B13F74CD05BF655D9E3FCCF1BA3FBA92FE3FF99996BE8BB1C63F5631353F413222BF6DA3933F2283363F4F65A3BEF8326CBF97AA043F105A233FAF8FB93D3FE248BF253A1C3F887398BD865B873F3E219D3F0993AFBEAFB73EBE2AF3493FB6CCCD3CFCA97A3E0507753D14062ABF35BF01BEC074CCBE8DE196BF960C5C3FBAFD123DFA5177BFEDFA0540124A53BFBD079D3F203AC8BE08288BBF5B5AC23FDC10D93ED9CFC9BF116434BF5133E0BFE52D0CBEF8CCBFBF49C8FD3E179B5ABE6F046EBD9CCA3B3F2147823F442BB6BF55B9823FC791053E33D2633E2CD6C8BDABF640BF9A6F4D3F25BC863F677489BF9AE33FBFFB0C4D3F4F51D23E2048323F190C613FA1BB9FBF99A7CC3E3F9C0440974107BE143944BE709BB8BFC6E8E63F3BB95FBF90CBA2BEAEEE83BFE4EA02BEC66838BF89C42A3F96148C3F6F0F88BF42B5FE3D79B0013FFF8DB1BFCE298E3DA8BFBF3E9CBE61BF01EC733E31C4E93D295A9C3F98505BBF3C8E1E3FC309E1BE15E336BFDC4D4EBF279F74BE113140BEBAD2173E3E6D563F51659EBE344392BEFEB5C7BFB846043E1FF4AA3D8FD9C5BD4C1E343E1D731EBF1E85B8BF00C1BCBD7357CABF5F01503FF6C33E3FA6D49EBFA0314C3E22D7F73EE98B5F3E53667FBFF99DC13FA59525C0099879BF968DC83F112F42BE1CF6113FFA9EF8BEAB5E96BF371C2DBE61008ABFD3AF9ABFA883E23F991986BF822EB93FC80716BF3466DDBFA95BA6BFD1046F3DDDE5DEBF04C2F53F1EB466BE4D971DBF5B16C0BE90AF213FB76B6FBF15F595BF3CC225BFC58107BF5E530B3FC5C6E5BEC002BB3F8E19E3BB4DC198BD882097BFD0A0393F0BBC69BF897F89BF5D14164058E7C9BE3BF2B2BEA145EABE250E123D5A561EBF417C43BFB19ADC3F700F863FA93FFDBECC55943FC424AA3D9558223F106A2D3FBFE5003E6E8B8D3F0C02933E2BCB96BDC232733FCDAB1C4056034EBFAD5C9ABF366BF0BE44A2C53FB901563FE27F963FD2CFF6BFC88665BF8291EBBE1301AD3FA9BDF53ED697CD3D098F4CBFBD2150BF0EB39EBE5F15F23E3DD6DC3E27B6163F9419CE3D441A1E3F73706B3FB5DAD63E949C21C0A953363F8811C7BF84CEF0BF2BA595BE1E38AB3FC6FC1E3FF706D13E23209EBFE70ECDBD96C2F4BFA5D480BE0725CC3FEA209EBF54FACCBE7B4FA9BF41F39D3EA1100B3FDF2A40BDCC7689BFA61B24BFF308D8BF67E735BF5BF4F6BDFF8D1B3F75E48E3ECCA5543FACF03BBEE9B368BF822318BFB00AD53E6A5C853DCDFDA8BCF2BED0BEA4528D3E7C7CBDBF7A19A23FC89526C0A058853F2E8773BF73F4D63FE5B458BF32688D3EA80189BEF9F9BBBF1CAAEB3EE4F89A3F5592303E36ECD6BE9C61953FA5BA9FBF8032CD3E189A87BFF13C15BEF71BC2BE172B75BFFE7668BE8B0FA13FC467A73EE8E02CBFFD68853D5907104079C1E8BF0EDDAEBFCA18E6BDE8B6583E4953A83EC155C0BF66768E3B94FA15BE9515323F0D342C3F3A834A3FFB50C83F6747F6BF56211BBF3CDF003F6617A63E5BDBE03FAE6F023F03399FBF48987DBE4C504A3DD41D793E3331A43FDD0D643FBCDD94BE6D3933BF747236BF1CD6AF3E6694CBBFB3EADD3EFD04DABF96E016BE4AD367BF29934DBFF725ABBFB26B32BF13EA903F1EE0573F67BB803D755295BE5E5E95BF918331BF537F833F32A6033FADF2B4BFA6699EBEB4EAC53F256CB0BF4D6532C08099B53FAD20A7BF20CCB8BF46894B3E88F3A1BFAAC6D93EDEE3413F442A7D3FE0EB313FBAB77EBE524FAA3E00EFD43F5B16933F7DD92B3F7598C4BF05C009BDCA20843F9CC81DBD8B68C4BFFDD98D3F265AA8BFD511A7BFEB347DBF27A9493FB9BF3EC0D277773F5BD6193F54FCC0BF827776BE0C6C913EA31709C0501658BF888F04BFD61E43BFB63C2D3DEF470EBF7A2E123F7D3723BF1BF5A5BE2E81C8BE50E0933E02AE523F8F6620BF8BCBECBFBBE136BF926309BF3AE9A2BFDA75953EDBA8823F8F9217BD77B0A1BFD799ECBD7C5C9DBF9B569CBF2FB4AABFD0F921BF09C3C9BDC57BC33F66628B3FC5CE43BE36EE193F60F02C3E987D084051C4703EDF9F443EF917A13EBCFEA2BF75DA803FD9E2233D02004BBF6326B5BEED721E4063E1DD3E0E301F3E9CF8E53E91C3993F9DB93C3FAD760AC02B09AE3E73389FBF83C901BF9F577EBF5FE75C3F60B7C93C5D99ACBE69FC8DBF22D9EEBE8BFCCB3D1F1DC33FD347ABBE20C1A6BFEC448EBF8BE7E0BE81F426BD235FA83FBF6C523FACE1843FE903A1BEAA240AC04B14643FB40B22BFFD31243F709B7A3E9C5C24BF5D61A13F0C820E3EF80048BF121DF83EC419D5BD8C4C393F7B2302C02E77363FF21221BF6D2514BF36581E3F394BEEBC495EBC3FDD3085BF5E4B143CD796DABF1171B43F2E98903FEB9F71BEDFA47FBFAA9F37BF998C85BF2D7307C0E0708DBF47B8A13E7126833F8FAC87BF3105B4BF0265B33F93220D3FBD2D0B3FA791D13D8D2614BDFC11DFBE38310F3F22D1D33F7B9D21C04E8D6DBE431CAFBC9564FCBEDC092CBEEF0C6C3FAFAC21BC7412EBBD6D3826BF407C983DA58E0D3F8E1B93BE5FC9383CE62BB73DC8538E3FB63C7B3F92BB85BEB73620BEB0B99ABE4079123F669ACC3F7B852BBF69AECABEFC13013FA576A93EC39A22BF3424953F066D64BFCE0222BF262BA33FC0A28CBF62329ABED3F13940AA6299BF9FBC2A3FC312D13E6AE70B4013B403BF9235393F71494C3E7C46363F27A658C0D0522A3F2288513F70BE503E65942ABE52B9D63F5744BFBE18712BBF039C40BF5C7B953F0F27D33DC156D8BF8D8460BFE856C43EA68E86BD8B719B3F866C3B3EA3FD3B3FF15C90BFD1D98CBF6CF4473E6EFB36BFA48EB23F2D3F163F88B0AABE341AA4BF495D9B3F394861BE45EE094089D7233FDF866DBF6D59DABF55BA113F8F21C43F08A4FCBFFCB3DE3FA9372440D08E493EA0A0D3BF60C4E2BF16EA833FDDA8E23F1562AFBEDF4D823D3DC156BF11199FBE3648BC3F9764A23E0A6D0A3F75ACAB3E605D13BF4141EEBE28853CBF50568D3FEE73D63E4E16503FCFD14CBFDD6E02BFAA9756BEF2BABF3FFD70F7BE4E190A40E5F8E93EC2F240BF16C450BF62DF9A3F9A6C6A3BC671363EEDB783BFEBFE683D438434BED171BC3E2A670BBE1AEDEA3E58E8B93F66FE02403FCF39BFFB333F3F6E4C2C3FE1639FBF3C0F8C3F602ED53FD32880BF0BBF843F55F4203F2949B1BF71CE01BE42BB57BF6399D23F8855C43EDEB849BD00C8223F38E5BBBF3259DDBE4C2C9A3D0E15B03ECE81953F39FE7FBF13B129BF1A79A3BF0BC1FFBFF35505BF0FCD3B3F1D4E9FBE594E873EA48DF43EE79A0C3F19108D3FC4874C3E9EF6E8BD341C99BF3E08ECBE3A3555BF470B833D271B8E3F1B31C2BFB65AD73D873ADCBF8CA2CA3F9626093FA95BD4BE952B11C0C7EE67BEF5EFD3BFC877183F4FB8D33F1D911F3F9463E9BDA0834FBF52239C3F7B87BC3FAF185D3DBB6A3BBF458BA23DE08AE73E18B9223E68E1E1BF8BD0D33F329AC4BF1C41183F496D4D3F0518E9BFD7FA60BF85F29A3F5AF8083E31C830BEB6DB5DBF4BF8DF3EAD28AE3FD64667BF788A013FDE5D803FD13E803E172EDDBED42E14BFB9A0E1BF6A2A10BFD7237A3F2E7953BFA12F173FE248953FE6455B3F8CD6F33EDE55D63F37327A3F0B14BE3FB8ED3ABE3676AF3F211AEC3F19EF80BF208D213E0F2959BF543DFC3E4C356FBFFBD31CBF7CFD85BF1D1CB8BF4F7133BFBFA4E1BE35F618BF7F6AD53DA91598BE1836A9BFE5C827BE79EDE13F9DF27EBFE8B8C6BFF5260D3EE1955D3FD3C2A7BF8E7D0A3F2F264EBFC951973D7AB1453F9AF1913FD41578BE7FAAA9BD5B7134BFB73D503F941E743F2970123E503FFABEFAF1503B16D1E5BE3024993F5D18AD3F6BDB82BF315D693F96AE253F11E4B33EAE56A73F4C89D03E00FFF03E8B68353FD996B2BF400D773F5F8128BF52A0723E5A1D693F1D257D3EA360C13F660AD83D0BE8033E69C7CEBE4301D0BE2366C83F49831E3F759C743EC4963A3F668D35BF297C183B04A9863F998FA93E40ECADBDD2993ABF95C68A3F4D91423FF8E0C8BF291BA0BFCADB91BE4EABDC3FAC298D3E871AA8BFDB9B6EBF6D73C23EFD83BFBEA8C5DCBFBD1384BEE74788BEB507EB3ED908E13F95EF413F25FAE5BE42521E3E52CAF8BFA4640D3FA5C3B43F7C3F993F3C168D3F7F2602BF0800793F4527D53EE1560D3E845166BEF977D13D0F13803E1497643F76D0423FE4C79EBF265E93BE68355E3F11A0DA3F48B5A33EB97A233D24ADBABF60B0743F0DAADABE267D03C0AEBD3B3F0FC58D3F8F313AC07EB0503FE233DDBDCDF1B5BE44AF40BF9CC4113F1DC4D73FAA64E63C7D9B0EBE6ED096BF2798A2BF7BE8E0BF511C30BF127402BF026D843FBCB6F03D508F8C3D9435363EB6DC03BED959D4BF763AC43F0BC40E3F9CE0E5BE1DED6A3E25D580BFBE6E71BFEFEFB13F2900CA3DC949CFBE15462ABFEB71064077729E3F7F28903F7DB75FBEEADBC6BE40D94E3E0C86A0BE9D193DBF63AEE4BF31D6C9BD5C1001C086927EBF4CF4023FBE722E3E0337B2BFBF39343F480E01BEF5309FBFBBE43EBFE6C2DCBC1CBCE3BFCA62D93FBBA48A3FBEDB1D40DF49E4BFA05DA33F725C49BE0D540A3DDDA042BF8CD8C7BF76A76D3F142E34BD056E78BEB9909F3EEFBA83BE7CBF1DBF6871363E7A6E443FCB7032BFA8B8113F5363763F1EB220BFC19ECE3EF01EBCBC93AB5D3B489BADBEFB1EDD3F22BDC33E52EEB23EAABB883EEAD1F73E0D4C113D9CE4313FEF07CC3F8D7C8A3FD79EBBBFBC1C153E4FEB43BF7F3E9C3F3B1A13BE235C353FE43A1D400EBE0840A7D8D3BF905318BF04ACD6BE67119E3F1816FCBEC7FD673FCB8F0ABF8C282FBEE0BACCBE937C1CBF389C313EA59032BF5F2CB13EC63EB4BE039B33BE5AFB1ABFAF8E45C0047B5FBE099549BF58DBAD3E2FB42C40A47C3A3E4DAE363F47819BBE1E6B20BF8E7A263CA91A263FE07C30BFD5C750BECC762FBFF2A6B53F6C5BDB3E2300B33F052708BFBECB5D3FF9557ABBC42C6ABDA0EA003FA775C43E29C3843FBD8F7C3F82FFC03DDBEE94BD376E093F4CC806BE411BC4BE0CEFD3BEC034353E9CC81F3F6DBF1B3FC0A51E3F6839573FFF6CB2BE382EA33FE6DF313E71F6A93EFA26DC3F9B891ABF8117893F767FBB3E94A94CBF90CDDD3F7C4979BF22E14E3EE9C5A33E3450513E33CF6B3E0FB841BEC5E9893F07EDC83D7D03CA3EDD20A8BFDFF9B1BFEA1978BF4D879FBEF9A55DBE1C1804BFC4DA84BE008700C0D963C53E22D0C8BEFA3F683FE8BBB53DA356A53E9873793F2A58253F62AFEDBB2AB74C3EA5E29B3FB18D24BF3DA403BFA3D2313F5812663B6B193B3FB0A9DB3F282382BFC675A13FA0EE1740E09D473EA540BDBE2130A13F20E7E5BFCDA255BFC8B1B93FA1F55FBF0C94EF3E7E0BE2BE17E6433F8E06E13F06882C3ECE77053E3C9A563E3BA269BE17296ABF5DA9393F436B3C3FD30FA43EBA59843F3D0D7DBF79AEA63FF38CD2BDD03A973E849F34BF63F76A3DBE6F3C3A274EF23E99FCED3CFE4ABC3FB1AE3AC097D8CFBFC6E295BE0DC4243FBB10BFBF564A73BF7984EABE36C85EBF4C04DD3EFDA014BFEB56343F431551BF9FEDA4BD4B89B23ECB9D803F3DE9ADBFD39D193EB7271140FDA3EC3ED561BBBD814D403F99DBAEBE6D23E7BEF8274D3FE2FDCA3FCCCB24BF08ECDB3EA629FFBFBF50183ECC7EE73E8336BDBF82EAA43E29FAB1BE6ACCDDBEF17C8B3EF9147ABF0C97C83E2DE5114037609EBEC2D071BE924D4E3F68FDC83F769C55BEC5B136BFF59C2EBF26B0453F6D9E233F1D67ADBE03905EBF38DE663E968251BED89EB93F8BC2FB3EB42418BE3496C6BEE6365F3E898435BE3E54953F748DA7BEE770013FB1BF46BF2399CA3E72E635BFBBEC1BBFAC97A23FC0B41ABE7CBD9DBF6B5EE6BD729CAB3CDBF8DD3EFA7AA6BF56498DBEDA6A823FAC9A1A3FFA37AB3F8FFE883F6BBAAE3FB10F9DBFC78DE2BE89520B40F77B8ABFA4D58D3FD8C4F53D0844693F6EE208BF03183A3EF226F1BE5AA8D3BF4821D4BE60EC11C03994B6BF77A4D73DADC61C3D7A139EBEC540A43F2E4D1CBDEBB021BFC39501C00AAB06407B89D7BE790293BF1DCA5C3D5131CB3D9A15C0BF797FBA3E992B88BE8F859E3F3DF7B5BF741D1C3FD396E93F3B0B6CC04FC69C3F8B4178BEF816BBBE8C97A2BD16E924BEBA35A2BFBE6652BFB5FEA93EC2DCA83E2D03F1BD6CA1F5BFE42FF4BFF72D9B3EEB67A5BE228EE6BE48839E3F728F9D3E1C9910BF7C24963E9B5F8BBFE39193BF09FB633F283BD8BE0CDEAC3FFDB8E33E8AAAC1BE0B7B45BF1BF647BFAF4C6B3FBD750EBFD3A9603FAB3C41BFDE4C6F3F736673BF77B52B3FD05C8A3F0BC6E43EAD0EA7BF2622A83F17F53ABF0062563FA4AF3FBED6E556BE9ED62D3FE01B6F3E734AF1BFE6E895BDC41DBEBE4750ADBE03E315BD9A59663F026E9E3EBF086F3F160491BFA23AD5BF529FB4BF242D75BE9924053F1BDB843F6DE744BF12A48F3FFF7C34BE4BA381BE6406BEBFF12BEBBFDC0B5CBE96A960BF879528C0CE7220BF8CA6843F9612EF3EA96D23C0999C003FCB2BDA3F2D88393E067488BFC9D60C3F6037FCBECD0963BF34047F3F9822B8BF84E176BF38BD773F395D16BFD54EA9BFCCB3B43F914F26BF3C39483FA9E08FBF04D02C3F8D788B3F0840433F17BFA13E81994B3E34B0BA3EC657E53FBAE73B3E047CC1BE0814AABE06CE353FCDC5BFBE5AD4B8BE22D90DBFBAFFF3BE1800A03D133E89BF0C99673E2A5633BF61F6F33E06975B3FBB376FBF83CFD0BE47C322BFF5E512BFA0E185BE5FEA343FC5C0803F888D403F9F77813F1E1BAFBD4E1319BF40F6AD3FE81099BEFB1D5FBEDB23443FD27BE7BFDC11923FF10F233EABFD1CBFF9C5443D2647E4BE0A0F7DBED51B30BF36C9423F64A483BF9A7983BF544BA8BE98DA8F3F742610C0DD0DB03F32459DBFAFFBC63E0D7AD8BEA723433F38FF37BE918B7C3E0F19173F3B287B3EBA9A60BF7A0AACBFA9D94E3F63D0CC3FCE127EBE99F5B1BF1B99053E8D6B663F205D47BF45B3C13E89D66BBF2EB2E73EE77A08BFDA81B5BF36A9F13D7FD5FABECC4D053DA3B82D3F432B103FC891133FDCB098BF70F5FDBE3B86AE3F211D4B3FEFC999BEFFA31BBF5AE397BF93AF9D3F79AC3CBE3FF2A3BF755BAB3E5607E73EE4B8A93F14B8DA3DADD4AABED2619C3F07339C3FE55FE63EAA22F63D0EBE9C3EB952C9BDCEB1503C3D7D7D3EDD118F3F16196D3F1121993E9730D5BE5AE1CB3ED9D3913E9A93703E91D403BFAFD7FE3F38E0F63D205A543E2BAC31C03E72933F0FF060BEDB95E63FAFFC59BF0E7982BE31F9AEBE23A69D3E53EE9DBF3CDEE6BF640CA3BFBDEA073FDF771EBF1C000440BF4110C0C689803F5D09423F6B82B7BEF96EECBF3AFDB4BE1D8DF6BF6E2EA93E32B30FC0103C3E3D626E9D3DF369313EEE9F553F0E7F473F6438BC3E0F7AC3BDDAB3D53F92791C3F94DF6ABE2CA196BF8FACB8BE72710F40FDEE05C0957A66BEEDAD9DBE598C1FBF3486753E62A8433D361940BFA5B88D3EF4C0E0BCF44B9C3DE4B184BFA18F063D81873EBFCF4B31C0BEFC673FF820C2BF1D57A1BF47CD233F662C46BFBD8CBBBF419EE7BF658070BF9B984F3E04C419BE6774D8BEB1C02EBE333B6A3E898FB43FBA31103F6A47BDBEE4F594BEB5642540278CE8BE38EC3ABFA26B753F79F021BF7D8C2FBF4058E93F024CC83E7E41753FA38333BF8A3563BF6A5338BF65C5F23EF22C32BFDAA985BF75D6E73E5CE20D3FB9BDBCBF50A06DBE365C093F2D4F033F48E14A3EF313863F41BFCDBE64C82840E6D217BFD2AB643F99D20940FD4BEA3FC402B53D5508C4BF0830043F95CCBF3EA52DD0BF9B3B093F62BD10BFBCBB15BF4612913F211F593FCEDD293E37B4633F7A4AC33F1C191D3F90144A3F6A831D3FC60742BF95469A3DEEC8B2BEDE9D883F5488B7BE28F9E6BEB466703FEB703EBEE171F7BFB5565ABF12642A3F6E230040FBF7B83F136D2E3FC0D0F03E795127BF98BC3E3F0804B1BF09209FBED8E010BFFA580ABE7F588EBE1F0858BF764F59BFF0460A3E59E1F2BD237428BFFA066F3EFE7D913F519FAFBF7E16FDBC760434BD32DBBBBFA2CF1740E2F83C3E69EE803F18CA96BFD28594BF5E5F883F8E53213FFAD017BCB35E44BE34FF05BF4A24563FE555214024368A3EC7210BBF650A073F04ACF0BFB42325BD11DB95BDB437F6BE78B2233F0F6A9A3F644319BE24D1A13FA90D30BE4C7B5D3E8D8F1CBFC4B0123F4849B4BD1CE5ADBE040CF63E9603B1BE179C62BE75D4E93FAAB50FBF9FA52ABEABD8333E76754EBF45D4E8BFD594A7BFF24C25BF04C722BF2FCA08406284953EB27139BF09036DBF17B84CBF76C2873FE1A880BF343D263F125F663FF44981BE1E176E3F908356BE1AB17A3E662220BED3E36D3F076C0B3EFD056EBF2BDF85BEA99B65BF11F5B63F639FAD3FE753ADBFE494DCBE384739BEFC65B7BE4287D3BE36F7203F3B09C73F1311C1BD44CF15BFED37F53EB6782AC026BCD83FEE9D903F9276DDBFFD28BDBEA8F2B5BEAAF426BF106F6A3F873B7D3F6696C9BFA22070BF1A007B3E313E72BF7F2EEF3E36DB77BF5CE3143E2ED2AD3EFCD2F7BF36582D3F6C2FB5BEBDC2DC3F0DA83F3FB5B6913E2BCF12BF17EA57BFE0D976BF3D9A6A3F2A2C61BEEFFAE13F7E169CBE08E58D3FFC4280BF359599BF62CEFB3FB63D03BFF4B41BBF43958D3F7F9AB0BFC477C2BF050A38BF28ACE9BE549D40BF5DD4D33E6AA63B3EA79F2DBF8F34A6BF5C4B6BBF8C66234087E6DBBC7FB334BF301312BF4A285B3F51C4123E49F294BF7F7E8CBF6E56E9BE426D8E3EFC760A3FEFD80DC0E7DA893FE642E8BF836DAE3FE82636BC099C0ABE071BAEBED4FA9D3DC6BD63BFECD31940D971B83D7E10EF3D5B4001BFC1BBFB3C54D3D5BF8CE6A5BFA98F413EFC3B25BF399C703E45887E3FEC55003E811A9EBF478CBCBF56C866BF87CD51BF5685A0BF8EDC5B3E74ECC8BF599CF6BE79EFB2BF460671BF6D2A91BFFC1D8A3E2B1DC63F14033C3F7F800240ECBD5A3F1FA0B5BFE24A4EBE39960D3F37186CBE773EBA3F1A1D0FBE55762B40B563C7BF01468C3FA4E4083F091617C0B7D708408E7842BD41E1C03F9863963E947FBFBEDE855ABF5D9E014015FEC1BF1D485FBEBE69173F285BC8BD103DD53E3DE7A5BFB2EF28BFF63F283EF4EA8FBF22ED6FBE4200833FB2BD0D3F39FEF73E4F9177BFA614C43E12B19A3EF5F2AE3EE5B9F8BF6B0A313FFC2A60BF1404FDBECFC3013F8F14D8BFD10792BE9920CBBF96F38E3F021B56BFEEFBCFBD1EC47D3FC31714BF65C99FBDEAB211BF8B0C1ABE1712373E9460D43FB16DEA3E3EC68C3F4F43C43DB9456D3F500AADBE532CAABDBB8DB8BF6000D53F0FB280BF047D523E4D6F803EAA85BCBFA8B99CBFE2441AC0E61A9F3F9150AD3E8F63603FF6F6883F905876BE959C673E1F0AC63DAC168EBEF9EDD13D1F7725BFF9C7CDBF52D0A73E14E8E4BF0ED9B1BF062A3ABFAB52D4BE36EDB13F5B86433D550FC7BF1891A9BFA49180BE41FF00BF9BE90A3C718C82BF9ACC1D40A44F973F99C3E43D058D42BF7F93E3BE1F7789BF02C345BE8E2BEABFCB23E5BE528F06BF09A2DDBEE066A43FFDA6143FF9E22D3F23961CBF0FEB27BF9924073FC148783F16DED6BFCD50D5BF6CBA333EC720AEBE7C70773F9330B03E943C12BFAC9313C0F3CCB93EBA9629BF8314C83EA5C2F7BF5A2E13BFA35F343F180DDD3EAD94EBBD807E163FE0C8C33FCAEE65BF0F147CBF27E0EEBD424521BD6C155F3FADDD1A40C02F36BFF799CB3E565FA93D7682083FB43926BF414994BDD91F023FC8C9F2BE3ABDFA3E1BAA13BE15902B3F65C109BE18B84A3F4F39B7BE27F30FBED1E2893FA108A7BEC56B7A3C08DB85BF2E9FE63F0B552C3E3FFA8B3F7A0FF43D9477EEBE053079BFF61584BE8BDE8BBF7AC6CA3EF3A9CABF6BCBBA3F6E6349BFC7D23B3F4CFD05C06FE0EEBF34AEB43D3DAE98BF5630123FDD0FB13E55FF1DBFDFDF7B3FF84330BE8903423F5D1A25BC9AD8E1BF9CC056BF097308C081BB8D3F64F9EDBDE12A5ABF5458ED3FF7BAC83FFB64BF3F8A9AB8BF0F9BCB3F7A35263FCC9CF8BE865C133EAC11EFBE7D8B243F65D5093E9957D6BF881E803F5772F43ECBD1753EB904D7BF58B456BD6BC88C3F5345C2BE23605FBF4E4F3F3FB4CF74BE2415D73F2B1BCFBE3DF098BE7237E93D971EA9BDAB06A73F4A1B483F495B0BC0CD807EBF7C07FCBE956C0C3F5D358CBF4A1DCA3F445D9DBD7AFBAABF95C016BDB6D9E3BF0345BB3F85097ABF184D2EBF7F30F1BEC1E1413F3C71CBBFB411A3BF2963993FAE78F23FC02F2EBF2CC9763E0A67D3BD01E996BF56C68BBF77E1E73EE689DB3FB6AE663F01C4A23E9002523F7FC6B8BFF15FB73E0564D63DEF31CD3DBA81ABBFDE2C28BF1A450F3F383F923F5652813E2EE7303E2E41953FF99F14BF5D49413F6E681F3F579145BFC08012BD4F769F3FE3FA7ABFC3F3D23E3070813EC597383F193F673FA87A40BF3523763F0181883FCBB2B03FC945673F601C003CC26A9B3F881C34BF5E4895BE373498BEBD3C80BE057D073F00D92D3F7E67FABDF0E442BDBBB253BF57CEACBF56C68B3DDF874EBE7CC500BF466588BD3CF01A3F0223B5BFBB5096BFE10507BF2F2AA73F1C172040B741FB3EDB7221BF8AD7DF3F563DC1BF668956BFFF7223C0DD14093F24FBCEBFE928D5BE8CB97F3F5A99B1BE43B33D3FB5CE7DBFFD8B0D3F912B0BBF07D0D53F6F01393EF56CC1BFCFD7AFBE67DAC13F3D7B86BE248A05BF024681BF0B1835BF702B2BBE0595803F7DC1A2BE12585FBF062F2DBF5058FABF05342A3F4636E13F690C123FFA2CD73F6AAE1A3FE83C87BF1699993E5260433F5386853FDED8873F134EE33DF94C2EBF246D813F6209AA3D8E60C9BE91E4EE3F88C2823FA619913F8085223F9DDA1CBE09B577BF5BB1CA3FB53B263E231F05BEB516D53E144EC03EFE36F33DBE4088BE248AD43E0B7C42BF55FDC9BF3921753E4FDBD73E0E05333FAF88CBBFF131AE3F4FB1093F35F00FBFF1E1A6BF388F193FF56B523D1DB3F83E0C69DF3E24EA22C028AF04BFC580DD3E7AF4653FC442873E5AAFBDBEE81C863F01C262BF66A3903E6B70ECBE6FFB683ECBDC023F36D13EBFBED959BF258D80BF351CE73F2E2E723D7BFDA3BE1D46F0BE731DD5BD25E4D43E8651E13EFDCA65BFACD4BBBFAB75A73E9B5E4F3EF05B78BF6915C53F8FEB993F0B41E3BE6C7D193FD73DA33F6327EBBE5329053F258EAA3F7C3EA0BF8DCFB63F2CC4003F334A0BC039122CBECA4D15BF2C5BD13E79E13FBF19E4483E1B4631BD124E4B3F4D6D97BF6D5B8A3E0A9C04BF97C3763F2DD62ABF0B1BDCBFA210C03FE94CBFBEFC4DF63E2DA415400B413EBFAB137F3F635DB2BE2A4CBEBE0DAA4EBF7CDA8D3F961024BF330580BFBA5F5A3F567B8EBCF51E383F6EA8223FCCF53A3E305C0DBF75BC223E6C6E28BECAC20FBFE0D8EA3FBE713FBFDD5E6D3F5F4520BF041322BF55E2083F8042B13E70162FBFB200423FB45E0BBE9A267B3DD6802F3F271430BE1BFFECBE008815C0295841BFC533E63F4745DD3FA0F1D83F1EFBD63FA76A4CBEE01092BE037A06BFB7BDAE3F9CAE1F3F16A0D9BC713E75BF83F5C13FBE33D4BFA0CA6EBECDC534BFD0F7DD3F6B1EAABF39962BBE19F0FEBFC78A333E54E71EBFAC3E8D3F320FB7BD3889FCBEC20F6EBF725F07BF7D2D03BE75E8E03E6EA089BAE2DC83BE48FC503F9A3527BF565556BF2835903E693FB9BD39F374BFBA1AA33F43B089BEBCE7D9BEA457213F09FB61BF412AD13EC799D63FA130823FBA0FB63EB77068BFBEC821BFF9FDF73E80383C3F6598BDBFAEF6813F0FED8A3ED5C70CBF5B7BD6BFF06FB73FA1DCBCBECF8F3CBF93400FC013E036C01605683F762A693E0AB441BE044508BF4A8B3F3F921E8BBED24E61BF03C2CEBCD8B7343F24D11EBF5FCCCD3F22473ABF0DA020BFE099433F990D98BE12EB5ABEECC7BDBF864F163F7AB2283FEF25DEBE1F4CBD3FD4899E3E72829E3FBD00E6BF53B40C3FFDC95BBF762CE13E3FE7B0BEC96DB7BD5E7EE13EE5420440B352353F878E183F320517BFE40400BFB85AA53EC1CFAD3DDBCB55BF0B6A7A3F9FE3B6BF0685983FE4C4C73FF1653F3F394E2640DD6C933EEDDC9ABE24E8863FDEF6D2BDF15B1B3F499A6BBF5C03AE3F4FA24BBFB206A2BF82A23A3F9CB5053E6C02E13F64F2953F3BAD00C0E136B03E0AA601C02BAA9CBF323B20BF9086F2BEA78BE23F28B737BF0CE3A4BF4D18E8BB8F88BE3EC92B8EBF80D65B3F1B2BD13F270113BED13176BE8F34ADBE649B00BFE719213FA72AED3F07B08CBFCDC8EEBC96822D3F905A0FBFFCF72E3F4DF452BFDD6C223FA0E4A93E07A12B3FC099B9BE136FFDBE33BF36BF07386B3CB5B21C3F34445FBE8C26873EB6639ABEA907ABBEECE4B63E3CAC2E3F075034BFAA306B3FF6E176BBE2DB37BE12D69BBDC38981BFC4B0B2BD1EFBBC3FF5926DBF8B7F96BD5250863FF3B5863FC50B913F76305B3F84DDA9BEC6370B3E7992FCBE964C833FEF6CCF3D37ACFB3DED482CBE2CBCC43F6914F4BD5CDA6BBFD6A205BF20D7F23FB8D93B3FFF290A40DFD918407074B9BE7AF70ABF8B03923FD1259E3E80AF0840808898BF9EEC18BD6B84933FBC2B24BF948FBFBD89BD213FCA18C2BF433023BF7C4A42BF46C2413FBCA556BF7244F43EB18E143FF2428ABF37F79EBF3C3962BFC486E4BD068A683F2ECADFBFF8E57B3E7DA5A53E24B55C3F5075DC3E69CF6ABFD80F29BFCA8C833F87449EBF381DC2BFD84E073F6C2208BC9A321CC0107B533ED2CC5E3F45C354BD67A94A3F5AE420BF87B39B3C9B07DA3F53DA383F090B65BF86B794BF5680873E05924ABF5A84613E93D4363F401A6D3FBC962FBE279D493EC566A3BE8702C23EE91E93BEB95B853FF5A206BFC9CE3CBFF82752BF9C14ED3F7455A4BF001A2FBFF89EC13E0A21BB3E2A3F313F2C2E044025BC993F939438C0F7746D3FA6091CC00B11BFBF2A29893FB499EFBF57B89BBF28F0AA3F74C97A3F9D65BF3E853251BF26AB2C3E6134023EEC2CF4BF8C254E3FCA07DEBF81B79F3E0D240E3E6B553BBFD344F8BF81D6593D17CC293E76FFD7BF1442C5BF58223CBDCF29A0BEFD441FBF08D41CBFC9A3C2BF219DD1BFA9FA69BF385E3A3FC233913F702ACFBF93A5D5BFE3654CBF4123E43FC5EF46BE4E3D8C3F3DD76ABFE9A7FF3ECB63533F694981BE1AD0BABEBB9C993FC59D643E7EE8B03F3B42843F939210C0DA750FBF575FFBBE3AD5F13F4FD1B1BE27BDB7BF432709C039F1113F1804F33FB790BC3F07CB63BF40AA9BBF4AD348BF8632DCBD7783493D9B9186BFB564C83F9667CC3E769E623F569658BE49A9373F2F089EBECD99F23ECEDED3BF03B02EBFBF7FECBF3DD09E3FAB1AEDBE286AFABEDB9AD13E3E509CBD89628E3ED5CD83BEF4CE8DBDD9891A3FFD16CFBE3A69C03EB9178EBF6F5D193F72706CBEFE6B91BF9E6A71BFA375D83DDA22333E75B0C5BF60D541BE030A053FA571233F2AE0343F3D4B4FBE9752083F4FEED1BF1C5BF3BE0EDE1D3F2127B0BEC98BCDBEB2E563BEF00566BE7399343F1ABE88BD38940BBF10F5D9BE4E7946BECEFFB33E754C56BFED59BD3FE78177BF6C9A3ABF7439913FB025AEBF61821ABF1F5038BE0E3A9B3EDD9ABDBD8DE55E3F50ECC5BD2C41163F3CA107C04B9F574063639CBF81F5E5BB1D8691BFA1F19BBF0B9308C03D5893BE581C773F95ACE93EBAF8F03EA0EE713E208D14BEB1309F3F68FD0AC05E8A113E877CBA3EC3F8C6BF588C84BFF35164BE76512B3E8CDA44BF5C946EBFEA6FB13E345F5EBD401AC0BE2DC07F3F9FE7373DA982A43FB90B273E3941D8BD83C0483FC78193BE1ED589BD7CF31EBF0ED79ABEEDA8273FC896A13FC6C71ABF148CD4BE930FF0BE6BA843BF38C0C0BEAD8F74BF2C0E17BE22378FBF52CC163E3BBCBDBE3ABAC1BF0DFF963DEBF6A63E6F3C023F056A82BF04C40940B6ECCC3E3CE4823F6938533F7B64C73EEBDF003FF5B1993FBA7024BFD8CDC5BE4CDEC93F917D383F896D7A3F47CEB5BD9AE65CBF932DD7BF37F451BE871FAF3DE7AA90BE414D87BE51CA29BF81B147BFD49CA3BF36B713BEA9E428BEADBF2BBF9FF5C33EA09D9C3E084C9E3F39F69DBEC1ECE5BEE5AE5B3EF11956BEED9D913F18CACF3F06916BBF43350940DD2BE5BE35C7113FF61FE1BF4133333FDB70723FA4EBD4BE03A6C0BD0665793F008D8A394A238E3F0E3D993F9471833F99C2AABED6BF1D3FE55B653F7616BC3E78688F3F63FA33BED35484407099983FBC89C73FFC9B03BA3119A7BFACC848BFBCFC11BF24B2F2BF196FBBBE103396BF36C4303FB823773EA14765BF176A2BBF3DE3EABF79096A3FD70C18BFFAD30F3F282CC93F351421BF5397E7BC8CE53E3E714CCB3F0B7EA6BF1DEF203FAC08CEBF1066C9BFA8B14EBF52DA873F57ABE13F6E5F7D3FF0355DBE86D581BF4BA23A3F96BDC4BE8A34C2BD459536BFB4FBCDBF6933CA3DA448003E65C49C3CB4D27FBC9511E93F291F13BBA2C0203F55FB003EE20629BF78E8B33E9428A3BF3E8F1D402B3F2EBFC5F04FBF61BDA33FCA638C3F1985B73F981289BE28C3313FDB6799BEF18E163FD7021E3FD42E393F981E8E3FF7124C3FB83C78BE56B151C060F542BF62B5883F8B41DABDEA80333FC14642BE426DA8BF630B47BF5DD21EBF879416C0B2E0A53F00BD1D3EF706A9BF77D46B3F6979DC3FD5C1943FFF3AC9BF71B0193F9F7D0A3E4FA85CBFECFA84BE4D91F33E8E9B823EB7C056BFC687803EA3A1573F33C524BFD2F66EBD5FD94ABF174113BFFA3CD93E614CB7BE82D18DBF24BE953FF01150BFBDDBE4BEA4051A3FCDADC5BD7F12E03F1C06673FF1F81EBEB6A78F3D425A8FBF34F4B83E84B67E3F80A834BFCD16464074E66ABF3AC8A5BE2CACF8BE4C24E8BE90EC133F2ED5883FF70000C01C69D0BEEE3815BF02D8FE3E1A85FC3D03D3BDBF7DD5A3BD73030C3F1244103F5A63883EF9D85C3FFDC9363F819881BF856934BF3B359EBFC4CC17BF8DA65840B23264BF5EFC773F605E83BFE6EB123FE9C5253FC23E843FCE0416BFAC5102C0E3E5B53E21ADA63FC277563E0136AFBF78ED6F3E8761A9BE514EA13F6197A4BF47C0D8BF6DEB86BED434063E26AC003FE32B72BFE87B15C0096EA53E85DB81BE5A9A0EBEB174863F78508B3EB4A28D3F1F0AD23F34AB57BE1C161B3F4AC3B0BF9E58ACBF426EADBFF52A33BC89811AC092CCD0BD82E7D3BEA3249B3FB2495CBFA66708BE0013EA3F85F753BFFEF731BF765914BE85ED02BE3919D23E162BA5BFB45F193E302A193F25C5483F8E1026BFB7E8CA3FAC4907BED8E6D7BD5EA0A0BEDAD18F3E76A873BE3D6923C0E2DD7C3EF12F5DBF1E4FDEBF936CE43EBC3B3B3E9B955F3E87E7203EA8B02EBEC759293FA15B03C0A4CC323F20F8E43F2A4D1ABFC5BC4D3F72297A3F27F19CBE5E4EA23F8E9B513FB8F74ABEE93DF0BE02BA993FDEF337BFA00E74BE914E773E4977B53D919BCE3FB1704CBFFAF8DC3EE02F86BFE02E2C3F64E736BE3DE0293DEE55043F3348E43F521717BD1B64E7BEBF66DE3E570A13BF6C3D56BE1FC632BE134E02C0F1A0DEBEDAFAD8BF8945A13FECA163BE3FD871BFC4C2E53F005325BEB53466402E87E3BEF322DABD9DDE003F8547363F6BC345BED2B8E4BE274CB83D8C811E3FD805FA3E9B85A3BD6BB4BBBF4AC0913FE6D7EF3F378CB2BE97E3BA3F9D2030BF1FB31740D67EA83EB22D9B3C1A49123FBF75F7BFB4DEC23FBAE22A3F5A5F40BF8703263E80E9473F1945C33F7ECDF03E8484553F1CA0EFBF866288BF67844E3E1C3B273F6E70DBBEEDC0313F702EFD3FB050973F1828E2BE90A37BBED82CA4BFDF5B54BFE89F69BF5A05ACBF97D5133F71C25D3FF053D7BE7CE9DABE7BEFB53E81CDDBBE1137FABF1E09D5BF65CF493FF64C7B3E708E0440ABE20A3F1CCA2FBE6BB0D13F9E0CCFBFC5617EBE8D2F873FF285A33F5D9CDE3DE1A8433EDCB9A0BFAD6504BE5EBBE7BD21AA89BFBA627BBF5DF104BC2BE0763EFABDDB3F1BABAC3EEB02B8BFECD3A33F934FF2BFC955443F7D2712BFE758DDBF12CC903FBDC18CBFA0BF0B3F88111BBF58DA24BF5F67F3BECA57953FDB1EEBBE1DE70EBF1D77E43E67F29A3E52AAECBE2020A73E159B6A3FAD5443BFF43F3E3F00FA77BEC780853F0544AFBF63071FBEB008EEBE1BB74BBFA6774CBF659B08C033432F3F5C14BBBFC9E0F03E3858E7BE4A9F4FBF3BA67DBF3CD7D33E42B206C0A82B283FA5DF6E3F178D5B3F63B901BE80E94D3F278F223F119D23BFF3CD183FE14FED3F8CC98BBF1BB3313F1C7A86BF14C86A3FA9A7243E2CBFF1BE3C57353F4BBA4F3FAB650BC0A60BE93E793EFFBE17038BBEB9C4553FD84B583E912AD9BE5569B4BEA2A7A9BFDC72663F8063873D714914BEBA244F3F0033643FA97F0C4096254C3F46DE4DBE5C50333F63E8423FCEFD5BBFAA7C77BDEEB10FBF487436BF5EC46B3F9B47F2BE42FEF03FF47CB0BE21526B3F42DEA43FE90F083FD74ACB3F316B063E1522A1BD9910253F8700893E5B0AA2BF0230B9BEB365203F37379C3F4C44F4BE11A00B40790C65BFFB7A03BFCA295EBF384A933FC7E0ABBE87E488BF04BEFEBDC163683F07995ABF1935683D05EF613C0967953F9CD6703F7B66F4BEC4A23CBF97311ABF5DFC0F3FD314173FBD521C3FA33D82BF92F1FCBD5C58D53F2BA24C3FFFE059BF345EE9BE451F73BEC4C8FE3E866A14C0AA67CA3E68B29E3F60AD19C09552F4BE8427C33EA6C6E83E4985F63F08B69ABE846800BF9D3AA33F332F863F691E00BFF619853F9999043C371997BE13B4C9BDD1D041BF8C16653D3370EABE62160AC029B0043E94A04A3F0A72D53E082F2ABFD538A4BE61B2F33DFDB84BBFD01335C055B194BFCB309FBF9B4DE43FA0E52D3F004CA3BFAADEBF3FA0CDC4BFA174CA3F18E10C3F3C07003FFD3291BC02636E3F6295B33DFA67653FB41CC8BE2D46A83E8DDBE33F57D9F6BEF01F9D3FC12C263FEA77173FADB9263F5C4DA13ED0EEC4BF14B3CFBDAC05313FAB6214BFE99C90BF7173533FF2C72DBB753C3BBFAF35523F43C33CBFBF9F6F3F3BB9DEBE2BF6D83E56F4943F31D772BF79A8093C385066BF20C7163D57E9A5BEFDBB353EB4E9933F32418BBFF0DFC7BFF91E42BEFB1D91BE2BBA8F3E2D419B3EA1197D3F7CBE303FEC1FF6BFF096FEBE4A9EC3BE89781B3F2510C53F6C783A3F7A17CA3F1C80A3BFB351FBBEBA259BBE3DC7863F200B443E0679B7BECE754FBE2B850640C6CF0D405ACF84BD0854A33E02794DBFFDB857BFF2288A3FCF8FA93FC35FBFBF7D5501BFE644DE3F07C082BFB5F6893F81257EBF76B505BEF132D9BF1EC17DBF4BD7E23D2A3A123FF90C73BF3982F5BF16219E3EDC85ECBF95E937BFFDA6103FA18C983FB9BC06BEFC80BDBFDB0AC83DEBC320C0459A323ED4FDB33E16516CBFEC764D3EEC5D383F2E6A8D3EB188803FE6895EBF09B9753F2E3389BFA372693F91A12EBFDFFD053FA3A43BBFCEDA0C4088FAE93EB33E733EDCF72F3F1FA435BE0F622C3F3AC5A9BE61B5B0BED28CADBC9B30373FF92CD43F0A6806C0DE26253F22EB423F9DABD23FFE2D4EBF715E473F814F6FBF20B296BFE419C2BF1FF9DB3E24C724BFCF5FE03DA6D683BFA462A2BE9171B23DF4A2C2BD5A50CF3E9E49E83DE2B20FC0EBC09A3FF8816D3F23364DBDF983C13DE325D2BEEEF2013F61A965BFD823C0BF4F3B823FA9FD15BF90B5313F5A48D8BDFB3E8BBF686BB43E0BE50C3D487A9F3DEC6FC6BFBDF7D5BF8775A03F513709BEE7E5303E59A251BE9272183E00F481BF0EA1AE3FDBEE3D3FBD89A7BF62F4F0BEB17D4D3F925D833F6726313ED84814BFAE9D0DBE1334403FF9BDA0BE36E1A9BD31250DC0CBCC8DBE6C99ED3F7BF64FBF0D2790BFB2E020400306313ED4086C3E15779DBF1DB3AC3FE8C1CBBF57B708BF7D7C593FD92A473FF87433BF21B56DBFFBCC183FCE2A25BFEC25ADBF3728303F8FFB43BF4125A53ED43CACBE9BC01A3EC98A6C3F7DA1B2BEA3FBF7BFE73D9ABFF99D9F3FE4B0983F2A92DA3F0BF8893F09580640F3CE8DBF12BE77BD4D24C8BD0E951C3F5C45183F5AF30CC0612D99BFAA8B41BEA688633FE3AB993F04CE2F407D1137BF2C212BBE749192BFD868D3BB2021953FF7934FBE52BCD93FB15EB83FCCAE2B4074F3173E2DA4A73EF6CAB23E38572E3E2C713C3F8426413EE1E4EABFB807D2BE65AD1ABF2E9FE5BE47453ABFC6C174BF54E45F3E1522A53F4EC06EBDC4175F3F332CEFBD1D9E39BD5E31C8BDBEDD9C3FE3B916BEDAD55FBCB29F473F0FA9813F283B20C04131913F23FEF93E02B080BF9D2B2BBFEAAEB1BFEA2B823EB883573F0DF69A3E036D56BFA5128D3D5D6DBFBE2A529C3D2A6320BFFF440FBFC871373F846C623E50DB353E125AB33F50DFBA3FEEDB66BE201B23BE268A4FBF4BDDB43EA56ED23E5B46A53F87D7A2BD77BBFFBF9F1D96BE53E9B13F8985F03F883C24BF3D664DBFDAA8B6BF86A730BEFAF644BF7951B93F1E4D4A3FE64D64BE9957C2BDF6A85E3EA3CA763F6985983FB99FFE3DCD64FDBE1A54823DFAA2713F66937E3F25790CBEF89B463E30F1E63F064F47BE4F01163FF1EB4E3F3293ECBFB74F713FC503E33F11E2A43FCC112DBE1F49B1BE5CE80EBF9AC5A93E28604A3F0A5C39BDA0B0BBBF7E1A0D3F483BFFBE2E2721BFEF75AF3FD90F10BF39EBA0BD3773B8BE53CB903E600608BF19F8E93F0E50703FC9608DBECEC6A73EB56E0040E4DC963FAF4C55BF4276853F2A72473F097CEB3EB10BA4BE1D78023F9C4801BED9AB973F681B1FBD902047BF21C7EEBEAA713F3FE1C4283F588E4C3F8265F2BE776135BE35C0E23FFA1C5C3C978D313EA37713BCA0A6223EE836C03D53CFFB3D74E286BF77140440F8D37E3FDA4F9B3F7F38433EB0C429BF0E27623E367E06BE5B1AA5BFCE9C703FBD75B1BFDBDBF43EE8A0483F7394A7BE578D343D"> : tensor<72x64xf32>
    %cst_5 = arith.constant dense<[0.116983548, -0.0484567732, -0.0831413716, -0.0767940283, 0.0710798799, 0.0550077111, -0.112278551, -0.0593978912, -0.00748036801, -0.099223867, 0.0472807586, 0.03229554, -0.0792408287, -0.108132258, -0.0148449391, -0.0746878683, 0.0506339073, 0.00713713467, 0.112504542, -0.00405916572, -7.237570e-02, 0.0871650278, 0.116186202, -0.0764145404, 0.0191135257, -0.0694731474, -0.124219105, 0.0608652532, 0.0873569399, 0.101353213, -0.0604982078, 0.117716014, -0.0612663924, -0.0815963596, -0.097077012, -0.0873798877, 0.0545982271, -0.0960400254, -0.120907068, 0.117444769, 0.0856113881, -0.0311536193, 0.0205856711, -0.0352194458, -0.0282946229, -0.112315834, -0.113613889, 0.00896990299, -0.0691041201, -0.0786155313, -0.0462292731, -0.0962855219, -0.0224317312, -0.118931323, -0.0831422806, -0.0791364312, 0.0319073796, 0.120273262, 0.115924522, 0.0878613144, -0.00873196125, -0.0249040127, 0.0931889862, -0.114378303, 8.749090e-02, 0.0636370778, -0.0589391738, 0.0850687325, 0.0131510943, -0.0013845861, 0.0115279257, -0.117852122]> : tensor<72xf32>
    %cst_6 = arith.constant dense<"0x5EBA313FFA4715BFC91179BF71B303BFA69BC73E2052F03DB81380BEF58F39BFE673503F90C97FBF7B00C6BFBD2EF83F61EE76BEB16001BF9010C1BE43CA5EBFAC6AB4BF02CE99BE99B1453F84D6603DFF21833FDA83DD3D7156BBBFAB5D8FBFBBB1A6BFFE3D00BE3F1249BF4A52F23E76D3663EBBFAC43E78666B3FB6B3133D83261BBF9BE33CBFD9D2323FC110763FF576023F4602ED3F7E47F63B0CB211BFE5B338BE3ABF26BD9F24133FEBFE123E4538703F752CC13E05D2A0BF7760F83ED8A85EBFBC647D3FFDBE4FBFBCC430BF417DFA3D4DEBB03FE7D19ABE83F5EFBF07E2383F775B833FE975AEBF3E26AABE348A0A3D94C57F3FD658B83F481629BE9DF106BF51E00A3F6BF87C3F9B8A393F5752A03D32B28A3F2BC14ABF6292B93D5A95F1BEF8A8443F0006AA3F2E5421BE0595863FCDB00ABF126D3E3FCE0418BF3181B53FF95A553F4C99DD3FD9F1B8BEF049A13F7F976EBFA8C400C03C94753F863D143F4E77A23FE61004405201FBBDCCA58BBDAA54CCBD4C4A38BF436931BF1914923EE154D33E18104DBFC85DB73E999C823CA0E791BF426A41BF910EFD3E8D35C43DD3EA793F4BA6543FDDBAEB3DF9A82F3F302620BE5A7A5FBFC09FE6BF383EB73CAAF1513FFF54EABD037EBC3EFF78343F449FF9BE405932BE610D72BF7E8329BF4BDC933E5D189FBF3E6BA23E4322783E4BC6B93F396528BDA1A9F1BEBCB51F3E163FA8BFCFBE12BE247FDA3FDF09AFBFAC4018401C4AEC3F06F3F33E9422A43FF173903FA511083FF08B163F2694003FABD309BF19FBAA3F7E1AEB3EDA97B73E3929963E6E00253ED2569A3DAFB6CF3FB8F587BF709C5DBEA97D733F2F04E43EAFE5D83F77B033BD58154F3E2E6F84BE6755BF3EA4238C3B3CDED3BC1671E63FE709E1BD0DE7673FBBB5C1BE9D353C3F410433BF533F9DBD30968CBF6089D6BF833C383F1BEC873C637D80BF464965BE5D5432BEDEA741BF6395E53CDEF51A3F11BED8BE9B6E973E68022A3FE097C0BEF675BCBE2220C93E2E560CBF5B90733F49D9343FBAE80BBF0EC0C4BEE8DB9A3D9408E0BD8CAA5B3FE118613D85023CBF2F76213F588FB03F072A9DBF735981BD9226033F78B8ADBF7869B73F810497BFA5070D400211FB3E5954A73F345F603F640C31BF7BB0413F7A9FE53F854A50BFEDCAD53FCADD053F281E023F30234E3FF3E8473F610925BF6E70263EB634DC3B613AB73FF99F8BBF7DFEC33D851E773EB058C13E193FE03DEABD4B40470E9CBE17D435BF2EE8423F72F781BE34105C3F6A1FB13E17E02CBF0897953ED79C033EA21A33BFC7D5BC3D9FB3B9BEABC95FBF473D8A3F26195FBF4B1D83BE5296D23F492B2F3EDAA52C3F9F8A403F135638C07A01FABE79DF4DBF6E64553F117E0340F505B7BEE70DC93D844646BEFA06473ED2AFAFBE8E2AB5BF2758B8BF666A5F3FCB5E89BF34511B401B26C4BFD628BFBDF6EAF63E79A91DBF837E9E3F5279763F690FBF3F8B9A283E18BC2EBFBC4115C07EB6B6BE9B6091BFAB0172BE8D0C143E93E8AC3F49A47EBF06DF993EDDD1333F1297963E4487C33FC902F3BDCE417A3F7E85393F2C4476BF17E59DBF2FBECC3EA339B53FE3800ABF8390C13F6705523E28A8B1BFC8405F3EDB3A773F6FBAEE3E227FE4BEFEA31DBF88B41BBEEB30483E420072BF283CC43E8DDE3C3EA35C0BC01723ACBF548FF6BE3295923E16F8DABF084B933F940A0BBFEC670EBF66E9383FA8B5D3BFC62E53BE15A5A2BE292C46BCDAC53CC0FB1524BFAD93063FF9E611BFD6AFEB3E883954BF9A92A53FEFD73DBE63C3013E5A773BBEBA015440DEF31CC01C94F7BE3D581F3F2AC229BE12ACDFBC88748C3E2BBC16BEE780EC3EDCFF593EFC9861BF6809A0BE1EA1F7BEB36AC83F22BB433EE658373F2203D53F52475D3F9FD0253FFF749E3D5BEC1D3EF4493A3F8814BBBFA6A8AB3FA6C61A3FA3C1E13ECA46783F8D64D9BF3EEE9BBF0619CBBFBEC47DBF3B4DF6BE4EB2B2BFC981B0BE66E5FFBFDFEB873F910E01BE44FFEABFE9FC4DBF35CD9A3D9DD45ABFC87799BDB3B7DB3FE7AB90BE291AA6BF6FAB8B3F1674BABFB709053F8FF5F0BE8E28A1BEB94A8A3F9230303E798F6D3E7E7F293F542F07BE5D87453ED71F49BF810B503F23DA78BFF8C866BF1572E0BE5ABA89BFC82CA53EFB77EA3E09C6BDBF86441D3FD479DE3EC8C8863F67DF853F0B526ABFDD3E1CC014BB7F3FA8B10C3F2A1380BEC764813FDF9F0C3EB41F823E387CABBE0EA3843E31D9163F1DDC38BB9978313F584AD33E8AE51A3FD399063ED778C0BE0D47223FBFAEAB3F39944BBE0A2928BE194BF43DD8D750BF0020B3BF1D0B58BF81DD843FD3A62ABF980BBA3E4CF414BF31EBF8BE1CFDE53F4C1B34BE7A21FE3FAB34BF3F181481BF12CCB6BE7D471EBFCE231F3FE0346CBF1FC4E43DC7FE2CBE3318253E1FFD03BFF07C873C0F44DA3D9345843F0EF77EBFDD9715BF89AA903F7921453E23E981BF681DD2BD4C65BEBFB6F27DBF221D14BFE94A63BE1CDB68BF1EE3663D31B667BF142F94B9871CEBBE47B94EBFCC6CA43FA6E8DF3ED700813E6CED5EBEE5A09FBD371AC43C55D970BFE7CDAFBE90EA993FD39C693F456483BF7D3B7DBFD987943F3E2F7EBF3FF707BF7F6C9B3F0F766BBCCB9D753C9446253E59F4663FF0C906BFC6C334BCBFD49D3F566674BF73FBC13EF28BB23F8187EA3ECDBFB3BE7D56F93D5D07473FBDE842BFD6FDC63FAB5F96BFD1340BC030EEB3BFED037E3F893338BFFA88A5BF3BE6D7BF7B7F41BEED288D3F087FC3BE167AC9BF41FFB2BF3540653E6AE5983FE589BCBDE350A93FC63F213FA9D1DEBE7715EA3E0E3107BFE16D3FBEB9C03E3FCED78A3E21B5D33D0A6F33C07E7C853E1B55A6BE2892153EC00FF13F621BD43E3428AE3FCDE70F3F52484D3EBC34B1BF2B16D73FE900073F504AA1BEC334FF3EB9833ABFA116AA3EF542EDBFF8A8B1BFE3017DBF834A50BF21B499BF2463E2BE5FF2D13FCDD1D5BF8B238D3F3C80DB3FCEBE1C3DBF13EA3D51BFFABF528B6CBE4656A5BE56E7D13E87720BC068819ABF926417BF6D59AEBDAC7BAEBEF2384D3EAA11CEBEE887D13EB459D9BE756C883FE95922BFFE128BBE2968C8BF12ED433FAFD5EFBD3B35CCBFB6D79B3D3A9590BF47E5B63F76F2A83E7D64EA3EBC42EABE891EB33E82F7BEBF2ED78ABFBC1A2D3F8CA1043FD5C624BFA674B8BEE9B8AC3EBD58C3BF28D3723E0E8D3FBFC188963D4267AD3B5193173F02130F3F3B29CEBD9C90BB3FFAD7D73F3C65363F8FDA96BFE32C8D3CC22B18BDBFA21840E0B99D3E370E853F0859483FE13D8E3FC12D9CBEB3E908BF8F7245BFBE2B7C3FB186A53D0068A23FEF8958BF22A2323D7FEF96BECC28DC3EEE04FB3E852E2A3FDFBFAB3FC4540B3FD20CC43E555C273D2909F0BEC6ECCD3FC27C0C3EE1A42DBE12B1593E3FED233F502DABBF0CA324BFB653CB3F8B19993EE7EB513F824A8F3CF14726BF3E96D0BE99DB493FA441413FB5D4293F673059BE45D3A2BE99B5E0BEA09CE93E7BEA04C019D782BE6F3E1040FDFD4FBFBBE21FBDFC8A3F3FA05088BEB7C9093FB2A6DB3F2AFB9DBD4A6B4ABF528F47BEEA5F893FA37EDC3EEACA0D4072B9CD3F4212D3BF2F45733E91F02E3FF586BF3E723740BE530215BFC1C6C93EA10A15BF72C438BF5B5BEABEC6C537BF4AD5B8BF3838A03E95CFDF3D258230BFE0EB383F735D41BFFE7EF6BE858B0CBE4C9E12BF0288163FABD35ABF16066B3EB8C9EBBF4C72C23E0941803E4B6011BED3E6A43F7BC820B915E1363FF33D4A3F5003543F0E65A83F74FCA93FBB41A5BEC9DED1BF4B2595BF6324B83FA01AB53EC1F621BEE6881B3F76FCCCBE0634433F290CFDBD5CB194BC941806BD7B1204C042C1A0BF7BB4963F5D8551BF58590BBF07C96CBE491030BB2D7DD5BF47F58FBF62700A3F553967BE5AE4C1BF74E76FBFE79F07402A742F3FA0BA143F16A88E3E262B9DBE20D2DFBD07934C3FB379343F7755303FAEFAE5BE5A82BF3EE2F7D73E2732E9BEE3631F3F1A0407BE7249043E256146BF134099BF06FD06C0E9F9193F0691FD3ED27599BFBF7D90BF105C213F76CFFEBFAD9C2EBE8BCB00BFA877B2BDCF038ABF6251B43F98384240A54523BF27E0F93E55DFAC3FFB25893EFE2741BE1C03FF3F7E5FFFBEB1F8103F619DE83FB643B53C58D50E3F71D8223F9AA8FCBEE97C2F3E5116AF3F0FB931BF6F7866BE902319BF8510593F80AA95BCB370CC3E96D4373F337BCB3BE3D28B3FE1D71D3EAACC7CBF1F560FBFD82AEEBF4465323F838204C033692CBF9B122EBE2DAAD8BE7DF5DD3FCE6962BE47ED323D7CD5DB3D8D5355BEFCBF8FBE4B5AAA3F1ECFB7BFA4AA9B3E0F08A0BF440E7BBF8937BA3E734C17BEFB8F463F5BC5EDBE30985E3EBF652EBE220041BF23A0A9BF278916BE487143BEC2169ABD201ED43FB584BDBFAFE6EA3FD6ED6B3F5CC2A83F6789AABEAEA538BF551B1A40D530A63FCAC9DE3EFBB5BABF4DCA953F1125823FA06F3ABF98066E3D642AB93FB75A943F8777473F1763C83EC88E5BBF29FAE5BFE895813FB2095B406B5809C08169ADBE2759DF3DFB01193F1987473FCB5ED4BFC034213F55A34B3FB49FA43ECAE51FBD321B513FF2789A3FCB648EBEFCF72C3F8363243F4A0BBC3F32310ABFB7A691BFECE70CBF9DC207BE13748F3F1A4CB6BF39AFF73FCAA6FB3B7D9117C0EF2145BF7A5C4C3F54E7323FBA9CF2BEC90121BF205C68BF0CB0B43D6C0877BF9623AABD083F8FBF855CF7BF8314DA3ECDD085BE5035603FB9B8843FBBE03C3F0EEBDEBF04EE77BF8B5305BF152CA43FA3CB88BD8EAB54BFD58410BF09BE553F7536E9BE85A240BF66D18CBEF731563FDAE7A3BF74A022BD679A14C0BCA2B5BE553B0A3F0308CABF46DCDCBFE1B7CD3ED34173BFB10A28BF8C6E2D3F8A770CBFE1DE23409C716DBF10F84F3E9F594F3F66F5A13E9A43BEBD95F633BF2E2692BEA397663F4B7E523FA373BCBFF4E6313F59DDB53F35981A4092A2DFBE6286C0BF625296BC6F3B68BF418CA13F86D16CBE94DDD23E8F3A383F5600A03FA906123E1B4407BFC85596BFE2D1BABF0828773F1778A8BF5DE6AF3ECA733A40B350B8BE491962BF9429863FE100A43EDBE416BF00555BBFCEBA09C04958DE3C05C98F3F0E0DBABFF2C1FEBEE272213FFD3C37BEFA4A9D3F9150D23E2C05123FBC2E2CBD85C6DEBE96FFDD3E5C3793BFAB13913DE1433BBF793943BDB82D87BF4130C2BFFA1A793D755CA93F1BC211BF2495913F7ED32C3F20AA89BF9CBF613FC31FD23F55CCEABEBCE6A53EDF1FF0BE00E9CE3EBFB370BF97C836BED020D23EDE077DBE980502BFE9F8C2BEECF8333E50C52ABF652D49BF50802F3FAE440440C7BE913EF477963EBE3A133E4BDDB43F5CAF583F3E2700BF2091C13E208258BE1F4C823E60F0D3BD8151F03D6BA48CBFB0A94FBD7AFAA53E45E36C3EA6AC293F582E03BF24B2EDBE6B38CBBE6C6CDA3D35BFD5BFE0DFCBBEB9998EBF92371A3EA7F145BE197B683E9763563F5581B7BE39B7933F5D2B213F6C81623FD1E2C2BFCEF76E3F632029BEC4782E3F0C2CADBEC66C03BF6962073FD56856BED8BC4EBF2446823F26A00A3F5E40EDBF4EAF543E818BDE3E1BA715BF8E9BBABFC367213F646D403DC734653EB5EB0EBF588F9E3F10E7653F437210BF005EB13D9F3297BF2FE9883FF965553E42F5443DC68686BF465160BD9535F43EE7A4C8BD696FCFBFDF12DF3E29C5BA3FA526A43F66C56E3DC60C86BEAED9563FAD01D83E400F473F873890BF5B3ECCBD59FBD63F65267A3F530450BF90BD25BE664E9D3EFC2B8D3F334C8D3FF88960BF2856863F55A9044041D71DBDBED12AC089C68DBF57598F3F3104643E7C2FE4BFC6CC0C3FC169433FDD0C4B3E5D9CC93DC82CBA3FC002B6BE2DB6353F3D295E3FFCE419BD79D7803FFE59873F82F7933F1698D1BEB5EBE4BE4E47E73FE08EF8BE1F3714C06F1A53BFC16B01BF5346CB3EC9BE14BFE60E9ABF06F50FBF7D61C93E05FD8C3FC2769ABF372A6CBF1E469BBE34F0213FCA13823F7534DBBF859E1CBFA2D3AC3F51F6443E53C37F3FB7289E3FA28AB83DA7EF89BFEAE31D40C14D433FADF4023FA9F7ABBF4E2E24BF3F2B893F51FF8E3FC9249ABF74E20DBF07E03F3FE6B2C73F5342CD3D17CAF7BF8D8B913DDEAEAD3F432C1F3F80AC51BFA576933DDC5D2F3F24A435BE3C6561BF6FEA293F40B9DEBEB9293FBFACF6833F696ACDBF682B8C3F6DCDBFBE614F9D3F6012E7BED150CB3FF055893F91BD69BF4E81B4BF759D0CBEB3C70FBE51F2263E8E328A3F5DC977BF7298C43E0B16BF3E02410ABE6117B53FEFC25CBFC6755C3FD83484BF991A163F44AA87BF25968D3FF00BEC3E0F7A83BFB624283FEE7DE2BE89A0323FE84FA43EE16D903FB946FA3D8C5A16BF230C54BF8420AEBE7F55E6BEA6A8F8BE2AE9593E9E08593E231B16BFEB57103D0C1F2B3EEA06B03E6441883ECB2AC23F8E8A8B3F90C3083F4DD5C0BE256B7FBFFFEA693F004B753D986D383E7AB6C43E2C6893BDDC59ADBF306399BEBB37843F066C75BF0F21BBBFFF180140036A8E3D5D4448BDB0A18DBF2D1CD9BF35A348BE03209F3FB13863BFB82CD1BF9B08E3BFC5CEADBDD51391BE2CF5E23E07BF82BE3131E9BE25F2503E2AF319C0E2A783BF97882CBF34AE1C3EE60F85BFCFDB6DBEF094A73F4EAC1DC02FC12C3E0B7FDBBF839AD23E6A7F0DC0D461AF3F576D833ED49F893F9C8AA5BF4578A7BDC6CD613FB445C1BFBFB929BF382B68BF9D63C73F23B2603FF9FF03BF90F780BFD0F21F3E4699073DC48AD7BFD1252EBF10CB96BE1AAF8D3F7E7C253E0AD0A4BF5D0BA7BEF4EACB3E3613BF3FB90444BFDBF00FBEF404F1BEA41B62BE13FF813F89F6BBBF4D5F7E3F1B1D943F9DE97BBE7A2B99BE167D003E9FD40ABE54232EBF2C41573F0EA2ABBF494E4C3E4BA3173F155EA63E7BD6813F22E91EBF9B70D6BD0D4CB83D205A2B3F9199913E0EBE95BEFE33D23F7E40FF3EDFD5C6BE8167E73D15F00F3E125A5FBF7020F0BEAE2FF43EDE14D13E9FE1263EDCB254BFBBEE8A3F483D56BFCA5183BFB251AD3DD90236BF6FD4CEBF4681A83F39FF34BFF9A3E3BF786B74BE4AA6293E3FC1193FD227693FCF91A03D2C681D3FB4EC433E8FA637BFFD94B83F78E66DBFBBB50F3F6AF3093F226FBA3F131FA5BFCBB4094018C5963EDE59613E528976BF3785B8BF53ABF0BDE402973ED30FECBE9A0C22BE4A8190BEBC0704BF9B6B923E923506BF5BA1F9BE0A3202BFDFB94CBF3EDBD1BEBA7FC2BE7CAE5A3FEF5F60BF87B98D3F634093BF08FEDA3F7BBA74BF74F113BF0EAD923D11E3E8BEC2065DBF6F14AEBE08EDA83EA6FAE33EC5131BC0E4CE533FB37A033D90F0DEBF2DAE3DBE48ACBEBE850FA63F1F63FCBE214D963F5D81D8BF27E257BEF1F8C5BF37D11F3DC7B5823ECCDAA7BF5B823B3F137767BF02FB403FE6206EBADEE2D73EF90ADF3F30431FBF7FB552BF80A3C83EC4F4BB3F225004BF1C48EE3F29D481BF31470F3F02FD12BFEDDAF03E5111093F213569B929BC653F4078ABBF9C45B33FF602513FF5F1AF3E2029823F598B553FAF10CF3FD11B98BE6540C93F2BE4EABE1839CBBF77ED76BF34C37BBFA64456BFB665AFBEA784973F3FD7053E1C0FF6BF74FDA33EDA7989BD9BCCBB3FC406F1BFAEB321BFFBBAA8BE727F95BF465583BF4B53A1BF46E1F9BE582C3A3EAB98F23EE8E282BF3608C83EF95216BD2445F23FE03DD63D528F87BF2952CEBF72E975BF9DBCC93D7658B53EF28F033FE993C1BEB404BBBE79F60EBF1B65DE3F58F90DBF367342BFC2E03FBF31336FBE15A2BC3EB76E8F3EA25505BF6E0D24BF8A0251BFB9C416BE3B8513BEB413E83E616F713E6B6524BF95547ABF5F65FC3EF0D8A93F52E29ABFAAA8D4BE005F083F63BEA7BF08501DBF95459C3E7C98283E3FFE18BF3C348A3F0ADA913DFA2F4D3F427139BFD4AF86BF7F62CA3EBB0FC2BE8D6A7DBFDC6C7FBE0F87643E282E0AC0563F95BF189AFEBE2D5E4FBF358458BE3498313F66301A3FCCDABBBF7FC333BD5125C13CEAC3B8BE8BCF853FDF4F85BF0E4D08BDD56244BFF84702BF11AE90BE3E5F67BFCF518ABE71EE223FCC9C393F89202B3F860B833F38F9663FCD65103FF63FD7BE9533E8BDFF978CBF7E479DBE58EBB8BFCF18CBBE09828D3FC07CF7BC61A69BBF4D4B123F3528253F5AC4D63C8AB9D3BF93A4903E9ECF753F3E63C0BE1A74A43E1F36803F537593BF5504E83F3DC9A0BE2B9347BFC0AB17BE9814DEBE73DB293F5550DCBF0B0C703FCD570B3ED46096BF73DD84BE399347BFCD54183FC7D011BFD132463F48DBC13E8971133F09D80C3E6E09C13F9BC750BF50C0143F571D073EAAE53ABFF1098A3F6D1D86BE98964ABFCB6AD1BE9814193FAB7A393FF203BE3FD228453FDAD7F53FE9CE1BBF0E5F0D3F6B58993FFAB702BC62E1AEBEA05427BF1D0E9A3EDC705EBF5749083FFA22B8BDF3433640DE7C8FBE46BC783DF1A0963FC660DA3FBFC8B9BFFC0E553F4A621A401895D63FFC4B51BFB263BE3FDE5704BE1D2F013F0377C83F15AF433F999ADE3FF23F07BF573AE13E3978B2BFA6FA0CBE1124243E788EBE3F8448A8BF01797FBF9191593F29BC59BF2D6ACCBEBE7730BF76B0E13F259023C0E5D0BCBE3C237C3E1FC4C83E8B43FF3DB018F73E80F28E3DCE45923EF7CDDABF5BC9EE3F2A9BFE3B8CFC113F943B19409B97A33FDD99A03F78BDFEBF7D42FCBFC776413E7728A63F1F74B4BE237F543E0BF5503F5C163A3F91B67A3F80D6FABC6D26C33F752ADC3DFF38F93F7D34373FD86CB23F5409DF3FDC2AF2BEB751AF3CF40523BF0E0BBF3F65D50C40989300BEAD1AA0BFE7619F3F607E9ABEFFD46B3E525AB8BEE2DD003F11FFCDBF77EF2BBF759CD93EF108BB3EC2717DBF5DA11FBFCB01963E2987983F1F90FCBE2F84793E0C4C983DAA6BC63E08C35E3F30F879BF33E4FB3FBE4273BFB4666B3E8E1F50BE3379B7BEAAF1473F85B7B9BF953F1FBF0721C8BE38E9923F78187C3F43B9E03E6EFD9CBC021F473FC2C242BF8A52883EB7E78F3F244A6ABEC827783F1578E4BE5414823F4036393FDC3F673EFCCB223F2827DF3E45B3953FA7CD9ABF2B90893CC678533F6064C03B33AFEF3EC841B73F1213F33FD8D5103F373CA03F6F0BA3BE4F58943EA18615BE091CA1BE2A92F23F0A00FF3E0D747EBE0DE59C3E0F43053DE0AEF53FCD9AE73F9C3F29BF7353EF3ED34A203F72D688BEB69C14C05FC08A3E96F8B93E3D125B3FC1358CBFF57A15BFC496873EE109CA3F88469DBFFB3C983F8DD8DABFC08B10C0004B84BF87710ABE8A2BA43CF14A623FE99E6D3F5BCC2C40FA479E3DECFB56BFF044154060A782BF4BF7B0BEC8D59F3F31CA8DBEC06B223F30C1EFBFDDAB6BBE22BAEFBF7156BEBFDBDC6EBF5D11CB3E7697B83D9AED09BE595986BE0584883FA5D7AF3E7B4783BED279BA3F998A19BF3614BA3D9717873DDE699BBF0668E4BE0CD967BEFB9D00C06BFEBDBFD40DF33E180C753F9D6AA8BFDB51563F5527D8BD20E800BF416F13BF581B90BF93B1C83FFF50AB3FCE4E10BFB4B2473EE6C1DA3E4AD7413FA5979A3DDC58E73D4AFF713F528246BFE0B0D73E7B9642BFA8BAEBBE6DA3A63EB3E2C63F9705A9BF96DA003F2B39493E72B5DBBE9C552EBFE9A1BA3E25185F3D6F70273E2B9293BEAAFC073F8A6AC7BFB2DE25BE4A9A953FB032613F2B648BBE03933EBF9884A5BF3A5D15BF5F0B8BBD2BE9883F370546BF9789223F4776143F889A76BD5E38B7BEB92CC5BF6FF2143E5449D9BDAD57FCBEB5D29CBE5C44EDBEF36433BE896B853F3C5AFA3D2120B63EF4AC1FBF24DC133D7E84913E14C03EBF96D5793EB5A88D3F0982E53FC8E4293F71ABCFBF03A9C83FEFDFA4BFABB4CC3DAF2D174084F61D3FA8519BBEF3CA5B3DEDFB9DBF0033E1BF5B4D713D8EF69B3E1659AE3F3644873F49A2293F37E8333EFBA5293F780D0540CA9FF2BDC7AE773EE67054BF2394A8BF9FAD68BFFE6B4A3F2C1829BFC976963CEFC664BEF1F53F3FF4D8873F817635BF33B10D3F77AE533F17AA8DBFA00179BFEDDC423E53DFC93FE65A04C0253A023E28C61E3FB097353F8F92DEBFF6C5E9BFDA98123F9475813EDB5437BF8ECBE53CEB8FCA3D98B99EBE0E88BBBEDE538C3EB6A6B43E1659E0BFC06FE13FF654153FE0282DBFCC65243F9FA98BBF5107903EB5A92B3FE59CE7BEACE98EBF0BAD8D3EC8BEA13FFDBC7B3F149FB23F5E38B5BFE504B7BE6D07063FDEAADEBF76EFB43DBF8D3B3FD7E6643F2905B53F67B9833FFB7248BEF03BC0BE1F6080BE4629A8BE8D3AFA3FA580863F079B553DFF695BBB106F46BEB00C75BFBA0FC0BE7C9E7B3F18A809BFF438BCBFF2AF0A40668FB5BFEDF5B33E31154D3F0525F9BEF7575CBE0543303F2A4EE1BE1FB0A6BF9666623F520C2C3EA1A8C4BF88BFA9BFA9D8B1BF788E9BBFADE8A9BF42E8253FF5F4C7BCE054B13FF3B027BFC86E303D57AB033FFA12DFBF3E23E83EECF4DCBE961A863FC10D43BD3E781040EEE2893F4EB3EC3DA855D23F16E9AE3D527654BF5260923EECCD0CBF68D2073FB88BEA3D915CC7BF75CA00C0A4E2F2BF03A1893FABFFF03E7BA4DF3F797D113F52B9EDBFED61A6BE01CC883F2402E4BE3489743F350AD2BCE9A004BFF25F293F13F472BFA086DE3F8DBDB73FD3DBD4BD6AC3513F77DA853F08B8ECBCF14BDDBE6F1A943F683F80BFF3BA7B3F298C283F5243D9BEDE2BC23C409D923E604922BE8A8FCDBFC78ED03F7629B8BF239C283EB1C6E5BDC18CFC3D0E47933E422E603FB87091BED4D44FBF39A1B33E3D1EFA3D8F0377BF7EA1593E346260BFB1220C409BB3A33F6B4E6BBFCF9E0BBF53C825BDB9FC8E3E11C615BD65978C3EE30EAFBE47E81E3F0F336CBF521B0FBD566739BF41B9FC3E1D41C83FC048133F2B250BBF1832A7BF8FE7D73EEB7C1F3F9359763FB24CBABFA5A986BF8C2B89BE13310CBFB1C08D3FABD9A7BF3864AC3BFCD314BF1AB9D0BF2C9FE73E58DE54BFF2AD0E3F28B03B3F0EC6E9BDAD23463E1261E23EF6C4C4BE6ECBB53FE421863D0F270C3F699E223FF35FF5BF0B0C273F414F0340AE20B33FCAF1F53F9CE3C03DF7154FBF724E203C02EB8DBF469133BDA942D13EF5E315BFC9133A3FD810793ED6559F3F437E2EBEFE70BFBFD207CCBE7E3AF0BCF3104DBF2DCB733E1BA4893F6E317B3FD97EEA3D7AA2863F1FCEDCBFD4B0453F120A39BFA083BEBED6F1E03AF219993FEC73883F3E1A273F69B909BE77E51EBE195011409524CC3E1F6092BE0D4B35BF1D7709C0BB1C363FC118B83EE3FA8CBEC6C4A1BF075479BE1C6EE33F1044443EDFF12EBF13D4B13FEE97763E804C0FC025C93ABF31C75F3FCA57593E5DC8AFBF35A1E53D9FC3DF3E96A916BE9AF0863D3FD06E3FE4864B3FAA2B483F4FA08F3E38595FBF992D103D31F30D3E2A70C53F68CECDBFEC39E93E1102DDBFE78B1A3F6E8D3B3F4EF52CBF1E0F273F4C3BD43E00C7813F3BDC6E3EDC48C8BE7FE26ABED0D39D3E9E9E7E3F7F9C0D3CE079DF3E4DC4B33F78A704BFD76071BF0213923E9E00AABDDE3AC6BFB377D53EABEEAABF6E7581BF34F1303F4271A43EFC6DF83F992C6B3EA87FA6BFCEC8A73F480B5D3F69B9F03F04BFA13F05B1A8BF51F92ABFB969433E1B8410BF1BD8B2BE2CF528BF320D3ABEE820D3BE2E211BBF9DE4483FBBD2DFBF1909D3BD8A5C5E3F7D7459BEDF32EF3E05B02A3F84699EBF6292463E61BC263F661A27BE4F2CD2BE1612D6BFAAFB60BF982FB53F94B91DBF768AF8BEB66208BFA1E5573FBA1C0FC071E22CBF47EE0C3F5516CD3E130A9FBE9832083F32CBFA3FB84B03407EA3843DB522713E5D5AD13F0A13E53F4CDB2DBF082074BF31CB4EBF3C5706BEB3085B3EAB1EAEBF0E0FFA3D1EF309C0ECE843C0CE729B3E59BA9F3E83E0C1BF7E52493F9D3E453D96EBF2BF11E9C8BF96C13FBF9C1A2CBFD5789DBE82F0EA3DA162523F2382B0BE336EF2BFDA1F363F728C3D3F3010A0BFC103D43F2D6EEF3F02257CBE78ACBF3F298B8A3F07D42840BE30833E97D6BA3EB37A57BEC248503F3881A33F79C20EBFEF6711400100D03E49A69CBF9B47153F01E6343FA5C23C3F3CF7A93FDD0BBC3E5567A4BFA1B19DBDA1A007BE79CDBCBEA802D8BFBD894F3F7C55F7BE0882A33F599D0A3FF83917BE4190033FB9138F3EB2A5643E9AB2593FB6415C3F35A9753F53130BBF5976973FF25EB23FC3A0043F52CC153F3631BE3F075AB1BDF4B621BEF576083FD545213D552F18BF63060EC02B2E62BFE03ED9BE22C4273EE52E8E3D10B0EBBEDAE86A3ED0B310BF6FC2AA3C736A0940C5681DBF04A4BDBE181040BFC164DA3EBC044FBF29BE133DEBF1913FE8A04E3DF2EB16BFC96ACEBEC0E2393F45C50B408E81E7BDB2596D3F4A04AEBF881D15BF66BF95BFB624053FE964993DC89E3CBF3646103FB2E9C1BEAE1AC83C3BF9013F9C2DBB3DD883B7BF4AB49DBE0DE63DBFFB5EF3BEBAA610BD15B46A3EBCD6B2BE843038BCB07C423F6165FC3F4485B33DC31CB5BCF716423FD01BECBF4C050E3E9E64AEBF71458A3F5FB027BE7121313FBB700A3E9D621FBDB14BD5BE73ADD4BF233E473F935E093FE4A17CBFEFCDAB3F67393C3FF05B083F5B967E3F8BB204BF790107BFD356923E077EB53E3CE6A7BE1524F9BF8AF0DB3E21651FBF782F223F41DA2B3F619DD6BF6572893FFF17E1BF364C8DBEDE75203D7E068ABDC9C37D3F29A35DBE402FC43FD0F1F13FE2A3173FD84BA3BE54F56D3E5908D83F780415407102B8BE41D38EBF04398EBE48A8AD3C69FF0CC008EB973FB086CF3F8CBB41BFDCE2EC3F5B258CBEEB117BBF5C315A3F1BF80E3F17596CBFC7DEA83DAFE4D23EC6E676BF7EDA6D3F219C8B3F957977BF8250A1BE8F6AB5BD73E7463F3519C33E3CA0AB3E22917BBFD7462ABE51C3D2BE6089993F43EAB0BE502BCD3DD024B1BDA0CE65BEB42570BD3605BBBD31D73A3E8ECCAABFD37989BF4A2D103F5CE8663F675FCF3F101B023FE764E5BF21593CBF3BBB873F50B457BFFA8CC33EEA1480BDA5929BBDECE9C7BF4349D13D3CE2213F3B747F3E9DAF5D3FF7F045BF23678C3FDC5A7F3FED9F103F7E7C87C02B9B93BE55E68B3F9A61BC3F0B2E6B3FD07C583E048E873FB4C8ABBE29C6293FAF6D16BD67402B3DEA2BB23FB7FD3CBF80FCB6BE4F86B83E3B84253F1B8C753F6F2929BF3A6B49BFCBFB653FB2EC6CBE32AD79BFAB88F83F1871503F2C7B1F3FF4E0C23F74A173BF549497BE13941D3E7601843F21031D3F26D3D93FFA06F5BF5AF8EC3D253534BFFA2DA0BFAC2F433DA31C4D3E4C26353F02DC9DBD717788BE7E9ED83FAFE2923F34DFDD3F33B99C3E9008F6BE843BFABEB3ABDD3E35F89F3EF4DB12BEA87A0E3FD1D5C1BEB3B1DCBDD41A973F7EEEA03DBBB809BFA44091BF3C08E6BE4431C5BEE4FA94BFEB8AF5BE8A42DBBED485A53FD70E9F3F9F7FDD3E1740653FB44A1CBFF63A603FA4AC4DBF6F981DBF483F62BE87F1823D28161DBE03E5903FD90E7DBF599E50BEC2C683BE86A777BE052C983FDE6004BFEAEE263F0C02BA3FEBF35E3E0E1BBF3F119EE13EEF44CE3F9B9EC13BDA0BED3ECEDE1A3F25160A3F6CF3AD3F02671C3F3D90203FEA0A4EBF0B318A3FE9C7C6BF69FB043F27910ABF1D7C203F0F687ABF84519B3FAAE31CBFD680FCBF9E9EB6BF0D097B3E8E9490BF15C2883E352D363D2FA473BF4777A63F50F6CFBFCE50BD3F6D301D3F40548FBF1359553FAB1C493F7C00A2BEE07DCEBF2D3C06BFB8EC50BF84E4BC3F1AC671BF814796BE0B3845BF979101BEA3B541BFBADB9FBE2C1980BDAD4E693E9DC4D8BEDE71B0BF944CB13F950106C0A730CF3E124B5F3E0194513F0139833F9818ED3FCAF7A3BF3DADEC3CF54F85BDD91489BFF76618C0A5938EBE55E1E63E869D11BE7E2E1C3FC88F04BE291CBA3FB64893BD6E81A43FF7B02F3FA16CD6BF16A3203FA9A292BF3CD9573FC422883E91C70A4005D1B43FA54CC9BE8F20383F4A80093FCDCAA73E6EE6AABDA76C09BFBE2F5CBFB1A6BABFE1F3873F55838EBFC33A1F3ECCED223EA4C1103E6187123F734D9D3FC20490BE30D62B3E971A3D3F152B4F3B9EA3913E279C37BF68395F3F221876BF248C27BD51D2E73DE42334BF4C5F813D606E81BFF476333DDAFEC13FF97E483FD0AB493E752043BFD3932EBFAC3138BFF323063FD641BFBFD95D1AC0E4D8E23ED389E53F2434283F584CE1BEDB6119BF32D97B3FFA65E53FA4BE2F3FB57399BFCD061D3F69F8AFBEB86D373F5B29C73DB2A9283FFEAAAB3E317F45BFC12724BF84C5773F0CFC753F6C1519BFA1FE9DBEEA1A03405CA7B5BEAEF6703F2043A2BED490963F6C9D6A3FE8B09ABF487C99BF5155BE3F35AAEFBE69CF203E252F01BF0AAE743F7E1DE53F15FC99BE9D7804C08E344CBE994DE33F716D953F346A0F3FCA78943D10072C401ED271BEABD219C02431ADBB3DF802C05BC9E53CF55A20BF0824A6BDA594CC3C6C66E43E1B6DBABFC837883E9878AABFD723E8BE8F019CBFCE07863FBFEC0D3DCD78B73F279301C005CF713ED6F3953E6F5E4B3FD18301BF8D2A043D10EB1ABF81DD673EBF71463E6658F13E4B146D3FBE67A7BE0D6E0140E4F2E53FAA61293F297B01405BB69FBFEB3685BF6449DC3EC067553F353AA63E8637A23F2E4106BF0E0F11BFA47F0940F8BD91BFD95C1A3F5A6FD9BE7A2599BEA761683FD2AB82BD3B21053F6ADB52BE60BF43BF66D9DFBEDEE5863FDEC5523E3F3343BFB144B43F77DCD5BE02C6A5BDDFA69E3F68393A3E5AB502BFCA330B401938543EE449AF3EB797D93E40E5D53C8B0F15BE5BDD03BFF2C8803FF917533E7D8DA9BFF55B9B3F5FF969BF7E34843F46C04BBF690994BE1340813E19B7A63FEC9368BF2F41D63FE91C2BBFF99983BDDE07363FBE2EE23F0D11AEBC1FF1623F0AF3A33E17199ABEEB59E53F8D0494BF5B3791BFAEB1733FBE8D8CBF3287883F4A29B1BF3BC478BFFC39363FBE8BAEBF925A433F1B100DBF93DC2C3FBDD19ABE010A19BF65D6A5BF1469353FF177493FD80C51BF272B8EBE216B613F9C11DABE081059BE9B9B7BBE0204B9BFED8C1E3F81A4CA3FE9E22A3F207422BE533DC03F457F61BFC28141BD480E67BFB96EA83DBD9C163EFE0DC13F3BA1C8BD6378803FB56F743FFA3FF6BE9243CEBF71BEB13F9DD9933F9296643BBB39013FA2AEAD3EA3BFE9BED0B5F7BE5745AB3EF9C3B03F7CFFF83E78A1F93E063D81BFA1DAAB3E543F25C06856D83F65F710C0A63807BF4F096F3FB34234BEF07CCB3E41AAB73E12FDF13EA32FCBBF9A281CBF203D803FC360E4BDE89587BE3FCB003FE421053FE3AEA63E1199E53FFCC851BE7450CCBFC508723FC8B28F3D1D666B3F15DF463E0F52B53F9FBDD3BE4DA09A3FC6DAF33F9D8509C076112D3F2957B9BE92CFB33F14C4013F9B3C23BFBBA5AE3E84F3BDBFEA595A3FCB687B3E45236BBF204F9FBF822499BDE968D13FC081BA3E22924C3F84F894BFC674F0BEE82AF5BE43DB15400DE1E4BFACC7FD3E12B8133F75A311BFD177653F813C8CBEB88C19BF153EC5BF06ED1EBFD97683BFF009B7BEA26497BEE9E4973EB52A8BBF0431A93F480A683F0CCC343F81230E3FD991413F76E3B4BC8418443FE2774DBFD9533F3F61C8EE3EE1C9CCBDBD9A22BFCDD3233F017D2C3E3C9A0B3FA7ACFABEA6A730C09E8C823EC73585BFB4F0E2BE720E1BBF033BDFBF340AAA3E1FFF433F3E2A713F6C2DA13E4BDE953F43169FBE2818B9BFBF2DA2BFC400303E9A2E903E87B89B3FA8FE93BFB6CBBEBF7067E23D289F663FBC57643F4BB789BD7D72023F2B4E9B3F5CC1B23EF7EC5CBFBED994BF506F7D3F61159CBD7215BF3F29E4EDBE10FE9D3F4D151840E20D473FAB16E23E35B30D3FCD4FE33F6090183F38D4053F56A489BDBB8042BF3FD4B83EBC9ACF3D791F553F2586BA3E5A9B363FF4C5503DBC92C73EA9843DBEA03895BFAA0F823F8CF92ABD85981AC036817B3F3121ABBF4355F23E25E40ABF1866A13E9E78DC3EA9A562BF1188C6BE72C612BE3829CABED87DF3BF147FBABDB2C1CE3E0EC50BBF6FD15A3F6761BB3E78E9A93FF1EA5F3EB1DA54BD1A5E42BE571C6A3FD68047C05CF7603EAB4AFE3ECC0568BEE974593FB41E55BFB558273F6439103F0271463EAF94BA3D2214383FE563C5BE9482FA3FD90179BF65FBEBBE0CBA6A3F96324CBF4EB9613F22B373BFF1E29B3F097A08BE128A243F3E4814BF4E68F4BDF144DF3DF7795D3F32CA293ED6DFE0BE11B0E1BD1B3CA9BF33F22FBE2AEE8ABE59A435BE646A16C0E199D13E23E6024021F57E3FC8AB7BBF94235EBE587055BDA8CD4F3FB4DDD3BE286D7B3EE817ABBDE93C8E3F2621C43EDB76213F8975144075C198BE7362B93E0A02943EC9827DBECCBC02BF26E4623F3A7F173F1BF3823DD6FEC6BFCB2FA93ED30A293FFBD960BF64DB49BFFD8FF23E2AB9A7BD8989823FAE78943EB071F9BFD4637CBF4E66D03E857C093DC3BD583CD105723FD3430840DE67E43F1CCBC2BF